<pad>	0
<unk>	0
<s>	0
</s>	0
<2en>	0
<2vi>	0
▁t	-0
ng	-1
▁c	-2
▁th	-3
▁,	-4
▁n	-5
▁đ	-6
▁.	-7
▁a	-8
▁s	-9
▁l	-10
▁m	-11
▁b	-12
▁h	-13
▁v	-14
▁the	-15
▁w	-16
▁i	-17
re	-18
▁ch	-19
▁o	-20
▁k	-21
▁p	-22
▁nh	-23
nd	-24
▁g	-25
at	-26
▁d	-27
er	-28
▁&	-29
▁tr	-30
ou	-31
nh	-32
os	-33
on	-34
▁kh	-35
▁to	-36
ing	-37
an	-38
en	-39
qu	-40
▁ng	-41
ap	-42
▁là	-43
ôi	-44
ot	-45
es	-46
▁f	-47
▁r	-48
or	-49
apos	-50
al	-51
▁of	-52
▁I	-53
▁T	-54
▁và	-55
▁in	-56
▁and	-57
is	-58
ed	-59
▁ph	-60
ác	-61
ar	-62
ông	-63
ột	-64
it	-65
in	-66
▁tôi	-67
▁y	-68
▁gi	-69
▁một	-70
úng	-71
▁có	-72
▁that	-73
om	-74
ay	-75
ên	-76
as	-77
ic	-78
le	-79
iệ	-80
▁A	-81
ững	-82
ời	-83
ll	-84
▁you	-85
ve	-86
quot	-87
▁e	-88
ới	-89
▁we	-90
▁những	-91
▁chúng	-92
▁củ	-93
▁wh	-94
▁của	-95
ow	-96
iế	-97
▁ta	-98
us	-99
▁qu	-100
ất	-101
▁is	-102
ly	-103
▁C	-104
ạn	-105
ut	-106
▁be	-107
ong	-108
▁N	-109
ion	-110
▁các	-111
ch	-112
▁it	-113
▁nà	-114
iề	-115
et	-116
▁không	-117
▁V	-118
ượ	-119
▁Th	-120
▁nó	-121
ười	-122
▁đó	-123
▁S	-124
▁x	-125
iều	-126
▁re	-127
▁bạn	-128
ent	-129
▁người	-130
ct	-131
▁B	-132
ại	-133
▁ha	-134
▁on	-135
ld	-136
uy	-137
▁ngh	-138
▁trong	-139
▁thể	-140
▁And	-141
ược	-142
▁này	-143
▁đã	-144
▁?	-145
id	-146
▁-	-147
▁được	-148
ang	-149
▁như	-150
ây	-151
▁họ	-152
ur	-153
am	-154
▁this	-155
ình	-156
▁ra	-157
ig	-158
▁cho	-159
▁với	-160
▁--	-161
ấy	-162
▁st	-163
▁Và	-164
▁do	-165
ere	-166
im	-167
▁W	-168
▁sự	-169
▁M	-170
op	-171
ce	-172
▁H	-173
▁mà	-174
ần	-175
▁li	-176
▁for	-177
▁1	-178
ải	-179
ver	-180
▁làm	-181
se	-182
ke	-183
▁con	-184
▁was	-185
ol	-186
▁ở	-187
ằng	-188
ir	-189
▁an	-190
ực	-191
▁để	-192
ith	-193
▁sa	-194
▁Đ	-195
st	-196
▁về	-197
▁sẽ	-198
▁cả	-199
▁are	-200
ái	-201
▁Ch	-202
ống	-203
▁u	-204
th	-205
ally	-206
iể	-207
ân	-208
ơn	-209
▁ho	-210
▁with	-211
ật	-212
iên	-213
iết	-214
▁điều	-215
▁thế	-216
▁have	-217
▁:	-218
ad	-219
▁lo	-220
od	-221
ầu	-222
▁ab	-223
▁go	-224
▁pr	-225
▁they	-226
▁can	-227
ướ	-228
▁se	-229
ến	-230
em	-231
▁từ	-232
▁khi	-233
uố	-234
ành	-235
ation	-236
▁Tôi	-237
out	-238
▁nói	-239
▁as	-240
ht	-241
ết	-242
▁so	-243
iện	-244
inh	-245
ức	-246
▁So	-247
▁sh	-248
▁nă	-249
▁he	-250
▁wor	-251
il	-252
▁what	-253
ter	-254
▁đến	-255
ould	-256
ính	-257
ill	-258
▁com	-259
▁phải	-260
▁ne	-261
ul	-262
▁about	-263
ước	-264
ant	-265
iệc	-266
▁at	-267
▁Nh	-268
ườ	-269
▁đang	-270
▁rằng	-271
▁gì	-272
▁vào	-273
▁The	-274
ore	-275
▁not	-276
àn	-277
ường	-278
▁me	-279
▁fr	-280
▁việc	-281
ers	-282
ag	-283
ản	-284
▁lại	-285
▁thấy	-286
ận	-287
ust	-288
▁all	-289
▁nghĩ	-290
▁rất	-291
▁j	-292
▁cách	-293
▁độ	-294
00	-295
▁ex	-296
▁hơn	-297
▁di	-298
âu	-299
▁my	-300
▁L	-301
ac	-302
use	-303
▁nhiều	-304
ight	-305
ùng	-306
▁som	-307
ươ	-308
▁pe	-309
ài	-310
ear	-311
▁khác	-312
▁thực	-313
art	-314
▁K	-315
ain	-316
ậy	-317
iến	-318
▁đầu	-319
ương	-320
▁đây	-321
▁or	-322
ople	-323
▁We	-324
▁P	-325
ess	-326
▁de	-327
▁there	-328
um	-329
ok	-330
ối	-331
▁học	-332
ist	-333
ọi	-334
ạo	-335
▁2	-336
ổi	-337
▁chỉ	-338
▁G	-339
▁people	-340
ếu	-341
ate	-342
▁It	-343
▁trên	-344
ure	-345
est	-346
▁D	-347
▁like	-348
▁công	-349
▁cái	-350
and	-351
anh	-352
▁nào	-353
▁vì	-354
▁one	-355
▁Chúng	-356
▁biết	-357
▁from	-358
nt	-359
ies	-360
ab	-361
ity	-362
▁chuy	-363
▁đề	-364
át	-365
ao	-366
àng	-367
ung	-368
iệu	-369
el	-370
▁năm	-371
ob	-372
ff	-373
ơi	-374
ũng	-375
▁thứ	-376
▁kn	-377
▁đi	-378
ind	-379
uốn	-380
▁bec	-381
▁our	-382
▁us	-383
▁dụ	-384
ộc	-385
▁thành	-386
ia	-387
▁but	-388
ect	-389
▁Y	-390
ắt	-391
▁al	-392
ink	-393
og	-394
▁số	-395
▁out	-396
ery	-397
▁int	-398
▁just	-399
ause	-400
un	-401
áng	-402
▁cũng	-403
▁ma	-404
▁Như	-405
ích	-406
▁nhà	-407
uộc	-408
rou	-409
ive	-410
▁know	-411
▁te	-412
all	-413
▁bị	-414
ie	-415
▁thing	-416
▁them	-417
▁sp	-418
▁R	-419
ồi	-420
▁quan	-421
ăn	-422
▁But	-423
▁muốn	-424
▁kho	-425
ich	-426
ởi	-427
▁O	-428
ập	-429
au	-430
úc	-431
ort	-432
▁these	-433
ci	-434
▁E	-435
▁if	-436
her	-437
ữa	-438
▁up	-439
▁very	-440
▁who	-441
▁Nhưng	-442
▁mình	-443
▁think	-444
▁get	-445
▁nhất	-446
▁nhưng	-447
one	-448
án	-449
▁tạo	-450
ưở	-451
ưởng	-452
ặt	-453
▁chính	-454
▁giới	-455
▁động	-456
▁nên	-457
▁pl	-458
▁by	-459
▁vậy	-460
ấn	-461
▁when	-462
our	-463
▁act	-464
▁Wh	-465
▁tim	-466
▁im	-467
▁your	-468
▁going	-469
act	-470
▁more	-471
▁some	-472
ày	-473
ền	-474
ine	-475
▁see	-476
▁year	-477
òn	-478
▁lớ	-479
êu	-480
gh	-481
ắc	-482
▁because	-483
ưa	-484
▁hình	-485
▁sống	-486
ame	-487
ib	-488
ện	-489
ost	-490
▁hiện	-491
▁su	-492
ỏi	-493
▁giờ	-494
▁had	-495
iểu	-496
▁F	-497
▁mọi	-498
▁tại	-499
▁Tr	-500
ack	-501
ượng	-502
▁tiế	-503
▁nếu	-504
ard	-505
ast	-506
▁were	-507
▁ever	-508
▁nhận	-509
▁would	-510
âm	-511
▁cuộc	-512
▁how	-513
ìn	-514
▁thu	-515
ose	-516
ứng	-517
iz	-518
▁cần	-519
▁quy	-520
▁their	-521
▁which	-522
▁hay	-523
▁tố	-524
king	-525
▁thì	-526
are	-527
ặc	-528
ide	-529
ánh	-530
▁look	-531
oc	-532
▁tự	-533
▁want	-534
▁đị	-535
▁really	-536
ually	-537
▁tất	-538
ội	-539
▁ông	-540
áo	-541
ai	-542
▁J	-543
ôn	-544
hi	-545
▁bởi	-546
reat	-547
▁tới	-548
òng	-549
▁comp	-550
▁way	-551
ous	-552
ọng	-553
▁đồ	-554
▁bắt	-555
▁theo	-556
ans	-557
ment	-558
▁le	-559
▁ấy	-560
▁tin	-561
▁nhìn	-562
▁còn	-563
▁lớn	-564
ẫn	-565
iểm	-566
hing	-567
▁world	-568
ven	-569
▁sau	-570
iển	-571
▁bằng	-572
▁cảm	-573
▁cùng	-574
▁You	-575
▁dụng	-576
▁ý	-577
▁thật	-578
▁tế	-579
▁cứ	-580
▁bản	-581
▁lên	-582
▁em	-583
▁câu	-584
ace	-585
▁br	-586
ảng	-587
▁anh	-588
▁exp	-589
▁ag	-590
▁here	-591
ther	-592
▁3	-593
▁bu	-594
▁then	-595
▁chuyện	-596
▁thời	-597
▁This	-598
iv	-599
▁sao	-600
▁trở	-601
pp	-602
iệm	-603
▁ngày	-604
▁say	-605
▁In	-606
▁qua	-607
▁mu	-608
▁nhân	-609
▁bộ	-610
▁has	-611
ions	-612
▁time	-613
app	-614
▁cơ	-615
▁every	-616
▁sinh	-617
▁per	-618
ỗi	-619
age	-620
ảnh	-621
▁năng	-622
▁lu	-623
ục	-624
▁don	-625
▁nước	-626
▁Nó	-627
▁phát	-628
▁actually	-629
res	-630
▁trước	-631
ạt	-632
iệt	-633
▁sử	-634
ìm	-635
áy	-636
▁man	-637
▁fe	-638
ild	-639
▁đổi	-640
▁toàn	-641
▁phần	-642
▁into	-643
ud	-644
ảo	-645
▁nơi	-646
▁gia	-647
▁could	-648
▁will	-649
▁dự	-650
▁thông	-651
ach	-652
▁years	-653
ence	-654
▁work	-655
ra	-656
▁xu	-657
▁nhau	-658
▁định	-659
▁mới	-660
▁tìm	-661
▁now	-662
fe	-663
▁did	-664
▁thay	-665
▁vấn	-666
▁other	-667
▁en	-668
itt	-669
▁things	-670
▁hệ	-671
▁Now	-672
▁trường	-673
ond	-674
▁nhiên	-675
▁Đây	-676
▁trình	-677
▁where	-678
▁tu	-679
▁mạ	-680
▁tốt	-681
▁tính	-682
▁kết	-683
ách	-684
ăng	-685
▁tưởng	-686
ấu	-687
▁somet	-688
ical	-689
▁They	-690
▁than	-691
ấp	-692
▁happ	-693
▁hàng	-694
▁lý	-695
ảy	-696
ãy	-697
ep	-698
wo	-699
▁cl	-700
▁make	-701
▁vật	-702
▁diff	-703
▁;	-704
▁need	-705
ry	-706
▁any	-707
▁hỏi	-708
▁Bạn	-709
▁máy	-710
▁ảnh	-711
▁no	-712
ạc	-713
▁gr	-714
út	-715
▁un	-716
so	-717
▁Đó	-718
ợp	-719
▁been	-720
▁mặt	-721
ge	-722
ome	-723
áp	-724
irst	-725
ice	-726
▁nữa	-727
▁imp	-728
if	-729
ắn	-730
ree	-731
▁said	-732
▁hợp	-733
▁start	-734
▁tiếp	-735
red	-736
▁chiế	-737
ory	-738
▁ar	-739
ite	-740
own	-741
▁vị	-742
▁rồi	-743
ro	-744
▁kinh	-745
▁hành	-746
▁thức	-747
▁thiết	-748
▁tuy	-749
▁part	-750
▁gian	-751
▁xem	-752
ass	-753
▁hội	-754
ào	-755
▁hoá	-756
pt	-757
▁liệu	-758
orm	-759
▁trọng	-760
▁something	-761
ount	-762
ves	-763
ệnh	-764
ound	-765
alk	-766
▁two	-767
▁right	-768
▁dis	-769
▁over	-770
ồn	-771
▁thích	-772
▁đồng	-773
ễn	-774
▁cô	-775
▁giải	-776
▁back	-777
round	-778
ea	-779
iêu	-780
▁much	-781
▁lượng	-782
▁first	-783
▁trẻ	-784
▁new	-785
ving	-786
▁differe	-787
sel	-788
ue	-789
ens	-790
▁call	-791
▁ai	-792
ắng	-793
nder	-794
▁hai	-795
▁thường	-796
▁prob	-797
▁đo	-798
▁co	-799
▁đều	-800
▁U	-801
▁bất	-802
▁vài	-803
olog	-804
▁đối	-805
ple	-806
▁she	-807
▁tiên	-808
▁Một	-809
▁also	-810
ign	-811
▁those	-812
ater	-813
▁life	-814
cent	-815
▁quá	-816
▁sáng	-817
ển	-818
ốc	-819
▁tâm	-820
▁Vì	-821
ell	-822
▁ac	-823
▁loại	-824
ộng	-825
▁got	-826
▁nay	-827
▁giống	-828
▁hiểu	-829
▁kind	-830
ittle	-831
▁po	-832
▁5	-833
ult	-834
▁bệnh	-835
▁cont	-836
▁Kh	-837
ght	-838
▁lot	-839
▁am	-840
▁cứu	-841
▁thống	-842
vel	-843
▁little	-844
▁lần	-845
ịch	-846
▁bao	-847
ber	-848
▁id	-849
way	-850
able	-851
ám	-852
ody	-853
ảm	-854
▁his	-855
▁nghệ	-856
000	-857
▁under	-858
êm	-859
iền	-860
oss	-861
ru	-862
ệt	-863
▁That	-864
▁most	-865
▁bet	-866
▁điểm	-867
▁ngo	-868
▁nghĩa	-869
▁Có	-870
▁viên	-871
ick	-872
▁gọi	-873
▁Vậy	-874
▁nhỏ	-875
▁mo	-876
▁4	-877
▁chang	-878
▁day	-879
ated	-880
▁only	-881
▁Họ	-882
▁res	-883
ec	-884
▁What	-885
▁even	-886
ial	-887
ations	-888
▁hoàn	-889
▁đưa	-890
▁tương	-891
ict	-892
▁nghiệm	-893
ank	-894
▁10	-895
▁may	-896
▁quả	-897
▁des	-898
▁pro	-899
▁her	-900
▁bl	-901
▁ad	-902
ade	-903
▁chiếc	-904
▁đường	-905
▁show	-906
▁good	-907
tern	-908
▁tác	-909
▁take	-910
uc	-911
▁vẫn	-912
▁xảy	-913
▁Ng	-914
ood	-915
ăm	-916
▁many	-917
▁gen	-918
▁thuật	-919
▁sy	-920
▁He	-921
▁đại	-922
▁different	-923
▁19	-924
ip	-925
▁biệt	-926
ẳng	-927
rough	-928
▁hoặc	-929
uyền	-930
▁bên	-931
▁dùng	-932
▁từng	-933
▁20	-934
ew	-935
ão	-936
▁bo	-937
▁St	-938
#9	-939
▁&#9	-940
▁nguy	-941
▁triển	-942
ase	-943
▁dân	-944
▁real	-945
ọn	-946
lem	-947
▁hum	-948
ẩn	-949
▁chuyển	-950
iệp	-951
ath	-952
int	-953
ord	-954
pl	-955
▁diễn	-956
ừng	-957
▁Những	-958
▁trị	-959
▁lúc	-960
▁nghe	-961
ance	-962
▁Điều	-963
▁around	-964
▁quyết	-965
▁There	-966
ish	-967
▁through	-968
▁does	-969
other	-970
▁ăn	-971
uốc	-972
ents	-973
▁cố	-974
▁Q	-975
▁cao	-976
úp	-977
▁vi	-978
▁khu	-979
▁tuyệt	-980
▁mỗi	-981
▁pre	-982
▁khoảng	-983
▁cầu	-984
▁comm	-985
ress	-986
▁dạ	-987
ning	-988
uối	-989
▁chất	-990
▁tổ	-991
▁kế	-992
▁Nếu	-993
▁tell	-994
ark	-995
▁lực	-996
▁down	-997
▁đất	-998
▁talk	-999
▁hu	-1000
form	-1001
▁being	-1002
ary	-1003
▁phụ	-1004
▁off	-1005
▁use	-1006
▁giáo	-1007
ắp	-1008
ứa	-1009
ầm	-1010
ian	-1011
ẩm	-1012
ợi	-1013
▁put	-1014
ne	-1015
óng	-1016
▁lời	-1017
▁giúp	-1018
ép	-1019
▁wr	-1020
ful	-1021
▁tiến	-1022
ert	-1023
ible	-1024
▁trung	-1025
▁thou	-1026
ưới	-1027
ject	-1028
▁chủ	-1029
▁problem	-1030
xt	-1031
▁happen	-1032
▁ơn	-1033
▁giá	-1034
▁xuất	-1035
lect	-1036
ors	-1037
▁bảo	-1038
▁xe	-1039
ak	-1040
▁hết	-1041
▁count	-1042
wn	-1043
▁mang	-1044
▁nghiên	-1045
ướng	-1046
▁phòng	-1047
▁phí	-1048
▁liên	-1049
▁sc	-1050
▁chưa	-1051
▁nữ	-1052
▁tình	-1053
day	-1054
▁Well	-1055
▁điện	-1056
ether	-1057
▁tranh	-1058
ars	-1059
▁não	-1060
▁phân	-1061
▁truyền	-1062
ual	-1063
▁inc	-1064
▁đơn	-1065
▁Anh	-1066
óc	-1067
▁same	-1068
▁tuổi	-1069
▁đúng	-1070
▁sm	-1071
▁fact	-1072
ower	-1073
ậu	-1074
▁bình	-1075
▁phương	-1076
end	-1077
▁tượng	-1078
▁đặt	-1079
▁tiền	-1080
▁sản	-1081
ile	-1082
▁big	-1083
▁cr	-1084
stem	-1085
▁biến	-1086
ons	-1087
▁..	-1088
▁If	-1089
▁Khi	-1090
▁bài	-1091
av	-1092
▁try	-1093
▁ro	-1094
▁dec	-1095
▁tập	-1096
ét	-1097
▁come	-1098
▁yêu	-1099
ting	-1100
urn	-1101
▁three	-1102
▁giữa	-1103
ri	-1104
▁fl	-1105
ub	-1106
▁tay	-1107
▁hãy	-1108
▁doing	-1109
▁tiếng	-1110
ít	-1111
▁pers	-1112
we	-1113
ạnh	-1114
▁khả	-1115
▁ngay	-1116
▁tho	-1117
ft	-1118
chn	-1119
▁thú	-1120
ric	-1121
▁bé	-1122
ved	-1123
▁find	-1124
▁trả	-1125
ặp	-1126
▁bỏ	-1127
▁sur	-1128
▁lấy	-1129
▁Không	-1130
▁great	-1131
ED	-1132
ửa	-1133
▁percent	-1134
▁gần	-1135
ically	-1136
ces	-1137
ire	-1138
▁stud	-1139
▁well	-1140
self	-1141
▁chiến	-1142
fter	-1143
▁phẩm	-1144
▁human	-1145
▁khoa	-1146
▁brain	-1147
▁chu	-1148
▁!	-1149
fore	-1150
▁đáng	-1151
▁quest	-1152
▁child	-1153
▁khó	-1154
▁system	-1155
ail	-1156
▁thị	-1157
ics	-1158
▁xã	-1159
▁sách	-1160
▁Trong	-1161
▁chơi	-1162
▁...	-1163
▁app	-1164
ấm	-1165
▁hoạt	-1166
▁cá	-1167
▁chí	-1168
▁let	-1169
▁cuối	-1170
▁called	-1171
▁Sh	-1172
▁hiệu	-1173
▁long	-1174
▁Các	-1175
▁thân	-1176
▁techn	-1177
▁ind	-1178
igh	-1179
,000	-1180
▁mất	-1181
▁lear	-1182
▁Ph	-1183
mer	-1184
▁bel	-1185
▁ty	-1186
ating	-1187
▁made	-1188
ology	-1189
▁pháp	-1190
ates	-1191
ition	-1192
iver	-1193
ọc	-1194
▁minh	-1195
thing	-1196
▁kể	-1197
▁why	-1198
▁own	-1199
illion	-1200
▁build	-1201
ẫu	-1202
▁đời	-1203
▁sim	-1204
ious	-1205
▁sức	-1206
per	-1207
▁inv	-1208
▁Mỹ	-1209
▁la	-1210
▁rem	-1211
ool	-1212
cial	-1213
▁TED	-1214
▁mạnh	-1215
▁should	-1216
▁khí	-1217
▁lập	-1218
▁ít	-1219
con	-1220
▁import	-1221
▁end	-1222
▁đấy	-1223
▁ngoài	-1224
▁again	-1225
▁wom	-1226
▁exper	-1227
▁bức	-1228
▁col	-1229
▁nghiệp	-1230
ks	-1231
óm	-1232
▁underst	-1233
▁tài	-1234
ren	-1235
ừa	-1236
▁dẫn	-1237
ize	-1238
▁sec	-1239
▁creat	-1240
▁dựng	-1241
▁trí	-1242
▁kỳ	-1243
▁hel	-1244
▁6	-1245
les	-1246
ậm	-1247
▁cour	-1248
▁mô	-1249
▁xây	-1250
▁tiêu	-1251
olut	-1252
▁dr	-1253
▁phố	-1254
▁luôn	-1255
▁Gi	-1256
▁tinh	-1257
uyết	-1258
▁loài	-1259
▁âm	-1260
▁car	-1261
▁tên	-1262
▁văn	-1263
▁change	-1264
▁sch	-1265
▁ins	-1266
▁feel	-1267
▁cụ	-1268
▁200	-1269
▁cộng	-1270
ities	-1271
▁today	-1272
▁person	-1273
▁Thank	-1274
▁vô	-1275
ope	-1276
▁chứng	-1277
▁hướng	-1278
▁nhạc	-1279
▁tử	-1280
▁didn	-1281
▁X	-1282
▁after	-1283
▁important	-1284
be	-1285
▁thử	-1286
ầy	-1287
ogr	-1288
▁thought	-1289
ys	-1290
▁quốc	-1291
▁ask	-1292
▁ba	-1293
ise	-1294
▁ev	-1295
▁viết	-1296
▁last	-1297
▁đâu	-1298
▁idea	-1299
▁trans	-1300
▁Hãy	-1301
▁kiến	-1302
▁nguyên	-1303
▁chết	-1304
body	-1305
▁mean	-1306
te	-1307
▁giả	-1308
▁vời	-1309
ôm	-1310
ạm	-1311
▁chế	-1312
▁started	-1313
ave	-1314
▁giản	-1315
ull	-1316
erest	-1317
▁chọn	-1318
▁chức	-1319
▁exam	-1320
▁ứng	-1321
az	-1322
ty	-1323
ese	-1324
ạch	-1325
▁bas	-1326
▁went	-1327
▁quyền	-1328
▁suy	-1329
▁ob	-1330
▁rel	-1331
▁bào	-1332
▁story	-1333
▁gl	-1334
▁mạng	-1335
▁đứa	-1336
▁understand	-1337
iếm	-1338
▁nền	-1339
▁thần	-1340
▁ngu	-1341
▁tăng	-1342
▁cấp	-1343
▁inst	-1344
▁đặc	-1345
▁help	-1346
▁9	-1347
▁How	-1348
ẹp	-1349
▁bà	-1350
▁triệu	-1351
gan	-1352
▁sci	-1353
▁vụ	-1354
▁belie	-1355
ork	-1356
▁lẽ	-1357
ạp	-1358
▁play	-1359
▁tư	-1360
▁đạo	-1361
▁design	-1362
▁its	-1363
▁prod	-1364
▁before	-1365
als	-1366
▁sĩ	-1367
ough	-1368
▁phá	-1369
▁7	-1370
ph	-1371
▁tra	-1372
▁art	-1373
▁power	-1374
▁him	-1375
▁interest	-1376
▁khỏi	-1377
▁pol	-1378
▁đánh	-1379
▁bố	-1380
▁course	-1381
▁8	-1382
▁Thế	-1383
▁ent	-1384
▁dưới	-1385
▁cons	-1386
▁school	-1387
▁chút	-1388
▁never	-1389
▁xuống	-1390
kes	-1391
▁màu	-1392
▁might	-1393
▁tháng	-1394
▁bit	-1395
▁sl	-1396
▁inter	-1397
ắm	-1398
▁rec	-1399
ular	-1400
▁better	-1401
▁gặp	-1402
▁khá	-1403
▁kid	-1404
▁give	-1405
▁found	-1406
▁fam	-1407
atch	-1408
amp	-1409
▁mẹ	-1410
ists	-1411
ility	-1412
▁gắng	-1413
▁imag	-1414
▁point	-1415
▁turn	-1416
ather	-1417
▁able	-1418
▁still	-1419
▁New	-1420
▁hand	-1421
ix	-1422
ily	-1423
▁Bây	-1424
▁few	-1425
▁Af	-1426
▁vực	-1427
ience	-1428
▁%	-1429
▁án	-1430
oth	-1431
ồng	-1432
lic	-1433
erg	-1434
▁When	-1435
▁dịch	-1436
▁bay	-1437
▁xác	-1438
▁came	-1439
▁Ô	-1440
ata	-1441
▁mở	-1442
▁quanh	-1443
ween	-1444
▁commun	-1445
▁nhóm	-1446
▁learn	-1447
velop	-1448
▁thêm	-1449
âng	-1450
▁mức	-1451
▁dữ	-1452
▁tham	-1453
▁duy	-1454
ãi	-1455
ock	-1456
▁Ho	-1457
▁next	-1458
▁trò	-1459
▁chia	-1460
iss	-1461
▁phép	-1462
▁30	-1463
▁acc	-1464
▁thuyết	-1465
▁khiến	-1466
ness	-1467
▁dạng	-1468
▁ke	-1469
▁str	-1470
▁each	-1471
▁nhanh	-1472
▁tog	-1473
▁ext	-1474
▁quay	-1475
▁together	-1476
ction	-1477
▁cell	-1478
alth	-1479
▁another	-1480
read	-1481
▁cảnh	-1482
▁rõ	-1483
ited	-1484
▁cực	-1485
▁love	-1486
▁high	-1487
▁bây	-1488
ense	-1489
▁vùng	-1490
▁nguồn	-1491
▁question	-1492
ward	-1493
▁ago	-1494
ized	-1495
▁vọng	-1496
▁between	-1497
▁gây	-1498
▁num	-1499
▁báo	-1500
▁comple	-1501
▁develop	-1502
arch	-1503
▁đẹp	-1504
▁cây	-1505
▁tục	-1506
▁mod	-1507
▁sát	-1508
aph	-1509
▁dù	-1510
▁ser	-1511
meric	-1512
▁cre	-1513
▁min	-1514
▁mon	-1515
▁chắc	-1516
▁giác	-1517
▁place	-1518
▁đàn	-1519
▁trang	-1520
ied	-1521
▁bi	-1522
▁sort	-1523
▁phim	-1524
▁Al	-1525
▁pat	-1526
ms	-1527
▁dễ	-1528
ings	-1529
▁data	-1530
▁đủ	-1531
oney	-1532
▁used	-1533
êng	-1534
▁nhớ	-1535
▁ví	-1536
pe	-1537
▁xa	-1538
▁đoạn	-1539
1;	-1540
▁50	-1541
▁&#91;	-1542
3;	-1543
▁&#93;	-1544
▁phía	-1545
▁chú	-1546
▁grow	-1547
áu	-1548
ote	-1549
▁four	-1550
▁vide	-1551
▁word	-1552
▁biểu	-1553
▁trái	-1554
▁vũ	-1555
▁chẳng	-1556
▁hưởng	-1557
▁Bec	-1558
▁att	-1559
▁hôm	-1560
▁vu	-1561
▁càng	-1562
ưu	-1563
▁too	-1564
▁Ông	-1565
▁med	-1566
ures	-1567
▁15	-1568
ways	-1569
▁met	-1570
▁Do	-1571
ered	-1572
▁Americ	-1573
▁thương	-1574
▁100	-1575
▁kiểm	-1576
▁example	-1577
ủng	-1578
▁kì	-1579
▁Quốc	-1580
▁read	-1581
▁Because	-1582
▁plan	-1583
iêng	-1584
▁old	-1585
▁vòng	-1586
formation	-1587
ins	-1588
▁cent	-1589
▁water	-1590
▁mom	-1591
▁light	-1592
▁luận	-1593
▁women	-1594
co	-1595
▁đôi	-1596
▁op	-1597
▁dài	-1598
iness	-1599
ets	-1600
cept	-1601
▁fin	-1602
▁Trung	-1603
▁phản	-1604
▁Is	-1605
conom	-1606
▁live	-1607
ah	-1608
old	-1609
ands	-1610
▁thuốc	-1611
▁mus	-1612
ative	-1613
▁done	-1614
▁produ	-1615
▁less	-1616
▁technology	-1617
ằm	-1618
ựa	-1619
▁second	-1620
air	-1621
▁doesn	-1622
▁wanted	-1623
▁đầy	-1624
▁Ar	-1625
▁care	-1626
▁expl	-1627
▁small	-1628
ạy	-1629
orn	-1630
ale	-1631
▁ngữ	-1632
▁giảm	-1633
▁lợi	-1634
▁thư	-1635
▁thậm	-1636
ternet	-1637
▁vừa	-1638
iend	-1639
▁looking	-1640
▁money	-1641
ably	-1642
▁thôi	-1643
oy	-1644
▁kia	-1645
▁believe	-1646
ont	-1647
alking	-1648
▁kiếm	-1649
▁trăm	-1650
▁video	-1651
selves	-1652
▁contr	-1653
▁My	-1654
▁always	-1655
▁tích	-1656
▁dục	-1657
▁comput	-1658
▁children	-1659
▁beh	-1660
▁econom	-1661
▁chị	-1662
▁eff	-1663
▁gener	-1664
▁lai	-1665
ưỡ	-1666
▁bước	-1667
▁reas	-1668
▁partic	-1669
ụp	-1670
ational	-1671
▁project	-1672
▁hộ	-1673
▁hạn	-1674
▁proc	-1675
▁whole	-1676
▁lệ	-1677
▁Người	-1678
▁ed	-1679
àu	-1680
▁guy	-1681
▁toán	-1682
▁As	-1683
▁ter	-1684
▁working	-1685
▁giao	-1686
▁poss	-1687
▁thanh	-1688
iếu	-1689
▁Un	-1690
▁far	-1691
▁country	-1692
▁Bởi	-1693
▁ca	-1694
▁tồn	-1695
▁tỉ	-1696
▁chân	-1697
▁hy	-1698
io	-1699
▁spe	-1700
▁đình	-1701
cc	-1702
pr	-1703
▁dem	-1704
▁chi	-1705
▁trời	-1706
▁food	-1707
ead	-1708
▁run	-1709
▁địa	-1710
nce	-1711
▁gh	-1712
▁mind	-1713
▁trải	-1714
▁đô	-1715
▁Tại	-1716
▁book	-1717
▁môi	-1718
▁sâu	-1719
iềm	-1720
▁diện	-1721
▁ear	-1722
▁teach	-1723
ird	-1724
▁nối	-1725
▁health	-1726
▁away	-1727
▁information	-1728
▁el	-1729
▁phục	-1730
▁lòng	-1731
ries	-1732
▁reg	-1733
▁giữ	-1734
▁nat	-1735
nect	-1736
ural	-1737
▁thuộc	-1738
uốt	-1739
▁kids	-1740
▁nghi	-1741
▁home	-1742
▁trying	-1743
led	-1744
▁vẻ	-1745
▁vệ	-1746
▁doll	-1747
▁hard	-1748
▁move	-1749
▁đoán	-1750
▁dành	-1751
▁riêng	-1752
olution	-1753
▁rộng	-1754
▁căn	-1755
▁nổi	-1756
▁phủ	-1757
▁create	-1758
▁bus	-1759
▁five	-1760
▁thúc	-1761
▁đứng	-1762
hip	-1763
▁lar	-1764
▁sợ	-1765
▁lã	-1766
▁đạt	-1767
▁means	-1768
▁thí	-1769
ines	-1770
man	-1771
▁million	-1772
▁mẫu	-1773
▁sai	-1774
▁friend	-1775
▁resp	-1776
▁mục	-1777
atter	-1778
▁tạp	-1779
▁xung	-1780
▁Internet	-1781
bo	-1782
▁mắt	-1783
▁using	-1784
▁tối	-1785
▁lịch	-1786
ten	-1787
▁supp	-1788
▁luật	-1789
▁pict	-1790
▁process	-1791
▁kỹ	-1792
▁đọc	-1793
li	-1794
▁fut	-1795
▁fo	-1796
▁One	-1797
▁dạy	-1798
▁sing	-1799
▁sk	-1800
▁sẻ	-1801
▁rob	-1802
ina	-1803
▁open	-1804
▁lead	-1805
▁become	-1806
ặng	-1807
▁Ind	-1808
ạng	-1809
▁eng	-1810
▁sub	-1811
▁elect	-1812
▁energ	-1813
▁Br	-1814
▁vis	-1815
its	-1816
aces	-1817
▁ánh	-1818
ments	-1819
▁bàn	-1820
▁yếu	-1821
▁maybe	-1822
▁khoẻ	-1823
▁lớp	-1824
▁future	-1825
▁form	-1826
▁took	-1827
ories	-1828
▁trụ	-1829
▁khắp	-1830
ran	-1831
ble	-1832
cer	-1833
gg	-1834
▁She	-1835
▁inf	-1836
▁space	-1837
kay	-1838
▁everything	-1839
▁fun	-1840
▁chương	-1841
ific	-1842
▁Cảm	-1843
▁thinking	-1844
▁cậu	-1845
▁pub	-1846
▁conf	-1847
▁pass	-1848
wh	-1849
▁An	-1850
▁trợ	-1851
▁trông	-1852
▁cap	-1853
▁vui	-1854
▁says	-1855
▁gái	-1856
▁best	-1857
▁tiết	-1858
▁organ	-1859
▁pop	-1860
▁ngồi	-1861
▁12	-1862
ruct	-1863
sw	-1864
àm	-1865
▁share	-1866
aut	-1867
▁sư	-1868
▁quite	-1869
▁energy	-1870
--	-1871
▁sol	-1872
▁chắn	-1873
ism	-1874
ues	-1875
▁biển	-1876
▁sắc	-1877
▁buổi	-1878
▁kiện	-1879
iew	-1880
▁left	-1881
roup	-1882
▁phút	-1883
▁number	-1884
▁hầu	-1885
▁chạy	-1886
▁Afric	-1887
▁cuốn	-1888
alf	-1889
▁mối	-1890
▁suốt	-1891
▁mua	-1892
▁trúc	-1893
▁anim	-1894
▁ké	-1895
▁comes	-1896
▁stu	-1897
▁univer	-1898
▁kỷ	-1899
ouse	-1900
▁soci	-1901
▁enough	-1902
ety	-1903
▁rep	-1904
vern	-1905
ention	-1906
ượt	-1907
▁Phi	-1908
▁head	-1909
▁getting	-1910
alle	-1911
▁pret	-1912
iting	-1913
▁war	-1914
▁These	-1915
▁cou	-1916
und	-1917
imes	-1918
ck	-1919
▁cle	-1920
▁lives	-1921
▁answ	-1922
enc	-1923
▁No	-1924
▁cửa	-1925
▁chung	-1926
▁social	-1927
▁bán	-1928
▁cánh	-1929
▁Jo	-1930
▁Qu	-1931
▁Sau	-1932
ertain	-1933
▁beg	-1934
ake	-1935
ever	-1936
▁Tất	-1937
▁pres	-1938
▁compan	-1939
▁making	-1940
eas	-1941
▁For	-1942
▁web	-1943
▁group	-1944
▁lâu	-1945
▁kiểu	-1946
▁robot	-1947
▁lang	-1948
obal	-1949
▁Why	-1950
▁top	-1951
▁khám	-1952
▁set	-1953
ee	-1954
▁York	-1955
▁Go	-1956
ital	-1957
land	-1958
▁sound	-1959
▁happened	-1960
▁18	-1961
▁rese	-1962
▁month	-1963
▁phot	-1964
▁ràng	-1965
▁xúc	-1966
▁countries	-1967
ốt	-1968
▁/	-1969
vir	-1970
▁times	-1971
èo	-1972
▁ngôn	-1973
▁tuần	-1974
ices	-1975
ember	-1976
ering	-1977
▁connect	-1978
▁dollars	-1979
▁sở	-1980
▁ngạc	-1981
▁thoại	-1982
▁xét	-1983
▁Let	-1984
▁ban	-1985
▁body	-1986
reen	-1987
ross	-1988
▁probably	-1989
▁mù	-1990
ex	-1991
vers	-1992
▁job	-1993
▁pie	-1994
▁vận	-1995
▁chụp	-1996
▁room	-1997
▁hồi	-1998
▁Vâng	-1999
▁music	-2000
uring	-2001
▁moment	-2002
▁talking	-2003
ưỡng	-2004
▁without	-2005
idd	-2006
▁nằm	-2007
▁keep	-2008
▁sense	-2009
ott	-2010
▁research	-2011
ner	-2012
▁hiểm	-2013
viron	-2014
▁reason	-2015
▁dist	-2016
▁govern	-2017
▁interesting	-2018
▁cấu	-2019
▁stre	-2020
▁beaut	-2021
▁nhiệm	-2022
▁men	-2023
▁thái	-2024
▁experience	-2025
▁wond	-2026
aps	-2027
▁doanh	-2028
▁Ở	-2029
ĩnh	-2030
▁wee	-2031
▁kích	-2032
▁red	-2033
▁val	-2034
▁hist	-2035
▁nhập	-2036
▁chuyên	-2037
▁40	-2038
▁seem	-2039
▁makes	-2040
▁cung	-2041
▁ngôi	-2042
▁pretty	-2043
▁viện	-2044
ograph	-2045
br	-2046
▁da	-2047
▁hoà	-2048
▁thiên	-2049
▁young	-2050
very	-2051
▁cur	-2052
▁add	-2053
▁cult	-2054
▁else	-2055
▁hạnh	-2056
▁minut	-2057
▁kẻ	-2058
▁stand	-2059
▁det	-2060
▁băng	-2061
▁simple	-2062
ữu	-2063
▁độc	-2064
ided	-2065
uyên	-2066
▁such	-2067
▁ngành	-2068
▁environ	-2069
▁told	-2070
▁across	-2071
imate	-2072
▁bóng	-2073
ash	-2074
▁allow	-2075
▁sign	-2076
der	-2077
▁saw	-2078
▁prot	-2079
▁aut	-2080
▁hữu	-2081
▁opp	-2082
▁cạnh	-2083
▁ways	-2084
▁stuff	-2085
▁vẽ	-2086
▁half	-2087
▁matter	-2088
ron	-2089
ếp	-2090
▁educ	-2091
▁living	-2092
att	-2093
▁polit	-2094
▁All	-2095
▁Here	-2096
ior	-2097
▁eas	-2098
▁phys	-2099
▁phức	-2100
▁stop	-2101
▁ey	-2102
▁khủng	-2103
▁inside	-2104
▁mark	-2105
▁chỗ	-2106
▁list	-2107
▁gu	-2108
ient	-2109
▁cells	-2110
ẵn	-2111
uyện	-2112
▁chứ	-2113
▁nam	-2114
ov	-2115
▁phúc	-2116
▁side	-2117
▁trưởng	-2118
▁case	-2119
▁asked	-2120
ling	-2121
▁thập	-2122
▁ích	-2123
▁goes	-2124
ger	-2125
ỏng	-2126
▁đa	-2127
▁bác	-2128
▁dep	-2129
▁hoạ	-2130
ortun	-2131
▁building	-2132
ime	-2133
▁hope	-2134
▁chuẩn	-2135
▁anything	-2136
▁business	-2137
ẩy	-2138
▁dung	-2139
▁happens	-2140
▁bad	-2141
▁Nên	-2142
ốn	-2143
▁bre	-2144
▁vir	-2145
lf	-2146
gs	-2147
úi	-2148
▁ghi	-2149
▁Thật	-2150
▁bring	-2151
▁air	-2152
▁mor	-2153
▁model	-2154
▁coming	-2155
▁family	-2156
▁hour	-2157
ilt	-2158
ulation	-2159
llow	-2160
ince	-2161
▁tức	-2162
▁pain	-2163
▁xanh	-2164
▁later	-2165
▁global	-2166
▁science	-2167
▁25	-2168
▁sẵn	-2169
ality	-2170
▁lắng	-2171
▁langu	-2172
where	-2173
▁nhiêu	-2174
▁Can	-2175
ier	-2176
▁tệ	-2177
▁Con	-2178
▁hề	-2179
▁niệm	-2180
▁wrong	-2181
▁scient	-2182
ộn	-2183
ửi	-2184
▁thiếu	-2185
▁quý	-2186
▁rest	-2187
rib	-2188
▁Sự	-2189
▁cor	-2190
▁ref	-2191
▁tấm	-2192
▁phạm	-2193
▁trai	-2194
▁sắp	-2195
ón	-2196
▁áp	-2197
most	-2198
▁Cái	-2199
▁Xin	-2200
▁lab	-2201
aw	-2202
acy	-2203
▁hơi	-2204
▁single	-2205
▁chịu	-2206
▁Cô	-2207
▁char	-2208
▁gir	-2209
ogram	-2210
▁days	-2211
uôi	-2212
▁spea	-2213
▁tái	-2214
▁đau	-2215
▁mach	-2216
ape	-2217
▁watch	-2218
▁vo	-2219
▁mặc	-2220
▁while	-2221
arth	-2222
▁loc	-2223
▁particular	-2224
ene	-2225
iter	-2226
▁lạc	-2227
▁def	-2228
▁đóng	-2229
▁having	-2230
▁yet	-2231
▁sit	-2232
▁châu	-2233
▁khăn	-2234
▁lạ	-2235
▁fig	-2236
▁heart	-2237
▁Giờ	-2238
▁Thực	-2239
▁prop	-2240
▁environment	-2241
up	-2242
▁dev	-2243
▁cam	-2244
▁cải	-2245
▁Or	-2246
▁problems	-2247
▁mã	-2248
▁chống	-2249
▁xử	-2250
▁tre	-2251
▁thous	-2252
▁bánh	-2253
▁begin	-2254
▁billion	-2255
▁game	-2256
▁level	-2257
▁myself	-2258
▁cổ	-2259
ying	-2260
▁mong	-2261
▁seen	-2262
▁pos	-2263
▁lựa	-2264
▁someone	-2265
▁dựa	-2266
▁test	-2267
úa	-2268
ization	-2269
▁complete	-2270
▁picture	-2271
▁hậu	-2272
▁xin	-2273
▁thất	-2274
▁words	-2275
▁hear	-2276
▁effect	-2277
row	-2278
ants	-2279
▁amaz	-2280
aterial	-2281
▁product	-2282
arent	-2283
itive	-2284
▁fore	-2285
▁tổng	-2286
▁control	-2287
▁prof	-2288
▁public	-2289
▁within	-2290
eg	-2291
▁hạt	-2292
▁six	-2293
▁toà	-2294
▁girl	-2295
▁sure	-2296
side	-2297
▁nội	-2298
▁equ	-2299
▁nhi	-2300
▁xấu	-2301
▁community	-2302
▁tỷ	-2303
▁kill	-2304
▁looked	-2305
▁Ấ	-2306
istan	-2307
▁trực	-2308
▁often	-2309
▁computer	-2310
less	-2311
▁mật	-2312
▁certain	-2313
▁fil	-2314
▁khổ	-2315
▁ideas	-2316
ưng	-2317
ters	-2318
▁saying	-2319
▁Ấn	-2320
▁cha	-2321
▁dần	-2322
▁news	-2323
aper	-2324
ivid	-2325
▁Africa	-2326
▁whether	-2327
▁possible	-2328
▁tầm	-2329
▁gửi	-2330
▁Okay	-2331
▁self	-2332
ín	-2333
▁true	-2334
▁nothing	-2335
▁ẩn	-2336
▁unt	-2337
▁đội	-2338
▁Earth	-2339
▁dầu	-2340
▁khắc	-2341
▁vượt	-2342
anc	-2343
▁both	-2344
▁once	-2345
▁nhiệt	-2346
ret	-2347
▁exc	-2348
ury	-2349
▁At	-2350
▁city	-2351
▁To	-2352
▁Làm	-2353
▁chăm	-2354
▁cond	-2355
▁Ý	-2356
ush	-2357
unch	-2358
ready	-2359
▁hứng	-2360
▁nhu	-2361
▁mag	-2362
▁đột	-2363
▁almost	-2364
▁Để	-2365
lish	-2366
▁par	-2367
▁walk	-2368
▁answer	-2369
▁lưu	-2370
▁chiều	-2371
▁class	-2372
▁Z	-2373
▁spend	-2374
▁material	-2375
oph	-2376
▁ung	-2377
▁face	-2378
▁exact	-2379
▁entire	-2380
▁amazing	-2381
▁cost	-2382
▁Độ	-2383
rect	-2384
▁trạng	-2385
▁remember	-2386
▁ngoại	-2387
▁nạn	-2388
▁sang	-2389
alleng	-2390
▁thiện	-2391
iddle	-2392
▁works	-2393
▁basically	-2394
▁age	-2395
▁tội	-2396
NA	-2397
▁mem	-2398
▁beautif	-2399
▁heard	-2400
▁decided	-2401
ages	-2402
▁Châu	-2403
▁lãnh	-2404
▁niềm	-2405
▁already	-2406
▁nhiễ	-2407
ern	-2408
atic	-2409
▁disco	-2410
▁net	-2411
▁tool	-2412
▁treat	-2413
▁incred	-2414
▁individ	-2415
ield	-2416
▁cận	-2417
▁imagine	-2418
▁nghèo	-2419
▁experim	-2420
era	-2421
▁aff	-2422
▁night	-2423
▁history	-2424
▁challeng	-2425
▁Fr	-2426
pect	-2427
ocr	-2428
line	-2429
ồm	-2430
▁contin	-2431
▁Oh	-2432
▁đấu	-2433
▁full	-2434
▁kính	-2435
▁language	-2436
ely	-2437
ustr	-2438
▁past	-2439
osed	-2440
▁11	-2441
▁kéo	-2442
▁ass	-2443
▁che	-2444
▁dấu	-2445
▁iss	-2446
▁đẩy	-2447
▁looks	-2448
ately	-2449
▁danh	-2450
▁piece	-2451
▁friends	-2452
▁stories	-2453
▁hát	-2454
▁ngủ	-2455
ton	-2456
▁individual	-2457
ones	-2458
▁chữa	-2459
▁United	-2460
▁built	-2461
ream	-2462
ndred	-2463
▁giấy	-2464
▁Every	-2465
▁hundred	-2466
▁program	-2467
bon	-2468
▁aw	-2469
▁wonder	-2470
▁couple	-2471
ỉnh	-2472
▁80	-2473
▁đen	-2474
▁khách	-2475
▁collect	-2476
raz	-2477
▁sw	-2478
▁xo	-2479
ives	-2480
▁ret	-2481
vious	-2482
eah	-2483
▁free	-2484
▁nuôi	-2485
▁succ	-2486
▁figure	-2487
▁ổ	-2488
▁thách	-2489
▁beautiful	-2490
sy	-2491
▁adv	-2492
▁mar	-2493
▁rad	-2494
▁train	-2495
ared	-2496
▁pay	-2497
ivity	-2498
▁follow	-2499
▁months	-2500
outh	-2501
▁inn	-2502
▁order	-2503
▁result	-2504
▁mil	-2505
▁until	-2506
▁government	-2507
▁ô	-2508
ental	-2509
▁became	-2510
▁Lo	-2511
ames	-2512
▁chữ	-2513
▁nỗi	-2514
▁thủ	-2515
▁fund	-2516
▁huge	-2517
▁minutes	-2518
hn	-2519
▁wa	-2520
▁tắc	-2521
▁success	-2522
▁Chr	-2523
ional	-2524
▁Goog	-2525
▁quick	-2526
xy	-2527
ẩu	-2528
▁large	-2529
ats	-2530
iếp	-2531
work	-2532
▁tiện	-2533
▁wasn	-2534
▁taking	-2535
▁everybody	-2536
▁const	-2537
▁cancer	-2538
▁phi	-2539
▁ước	-2540
▁chim	-2541
▁Tây	-2542
▁nửa	-2543
▁society	-2544
ange	-2545
ocus	-2546
▁bại	-2547
ising	-2548
▁universe	-2549
▁education	-2550
▁giết	-2551
▁ngược	-2552
▁created	-2553
▁cử	-2554
▁mic	-2555
▁quản	-2556
ined	-2557
▁cắt	-2558
▁must	-2559
▁nhiễm	-2560
▁though	-2561
▁themselves	-2562
ane	-2563
med	-2564
ians	-2565
bers	-2566
▁Mọi	-2567
ision	-2568
▁khối	-2569
▁lí	-2570
▁mắc	-2571
▁dương	-2572
▁engine	-2573
ev	-2574
▁lĩnh	-2575
▁soát	-2576
▁gó	-2577
▁front	-2578
▁happening	-2579
▁bày	-2580
▁gồm	-2581
▁deep	-2582
ik	-2583
omes	-2584
aster	-2585
▁hoạch	-2586
▁planet	-2587
▁khiển	-2588
▁—	-2589
▁lỗi	-2590
▁quân	-2591
▁incre	-2592
▁Google	-2593
▁States	-2594
▁60	-2595
▁tả	-2596
▁hại	-2597
▁quen	-2598
▁study	-2599
iễn	-2600
▁Be	-2601
▁đức	-2602
▁đông	-2603
▁China	-2604
etic	-2605
▁view	-2606
▁chiếu	-2607
▁focus	-2608
▁somebody	-2609
õi	-2610
▁learned	-2611
to	-2612
▁cười	-2613
▁gets	-2614
▁thấp	-2615
▁thẳng	-2616
▁Â	-2617
oud	-2618
ired	-2619
▁lưới	-2620
▁exactly	-2621
▁đổ	-2622
▁tốc	-2623
▁house	-2624
▁complex	-2625
▁Tuy	-2626
▁sóc	-2627
dd	-2628
▁đá	-2629
▁dây	-2630
▁kinds	-2631
▁shows	-2632
▁Chỉ	-2633
▁lái	-2634
▁woman	-2635
▁mơ	-2636
▁completely	-2637
▁spec	-2638
▁đích	-2639
ts	-2640
▁bầu	-2641
▁behav	-2642
▁name	-2643
▁Pe	-2644
▁mê	-2645
▁God	-2646
▁John	-2647
▁HI	-2648
▁bab	-2649
▁tàu	-2650
▁hours	-2651
asure	-2652
▁dòng	-2653
▁places	-2654
▁DNA	-2655
ential	-2656
ony	-2657
▁nhờ	-2658
cle	-2659
▁av	-2660
▁cư	-2661
▁gấp	-2662
▁gốc	-2663
▁hỗ	-2664
▁non	-2665
▁dàng	-2666
▁listen	-2667
▁phong	-2668
▁nature	-2669
▁thi	-2670
▁itself	-2671
▁everyone	-2672
▁prov	-2673
▁phóng	-2674
▁199	-2675
▁HIV	-2676
▁Ngh	-2677
thers	-2678
▁Then	-2679
▁knew	-2680
▁questions	-2681
ease	-2682
▁sàng	-2683
itting	-2684
▁abs	-2685
▁xếp	-2686
▁niên	-2687
▁nông	-2688
iqu	-2689
▁law	-2690
▁market	-2691
cul	-2692
▁bạo	-2693
▁rối	-2694
▁đem	-2695
▁chấp	-2696
▁neur	-2697
▁ngắn	-2698
ability	-2699
▁isn	-2700
▁ones	-2701
▁India	-2702
▁against	-2703
▁Pr	-2704
eria	-2705
▁Eur	-2706
▁struct	-2707
ots	-2708
▁ourselves	-2709
▁Eng	-2710
▁bốn	-2711
▁team	-2712
▁Car	-2713
▁tận	-2714
▁khai	-2715
▁state	-2716
els	-2717
ogn	-2718
raw	-2719
ute	-2720
icult	-2721
▁meet	-2722
▁đỡ	-2723
▁ngờ	-2724
▁line	-2725
▁song	-2726
▁lắm	-2727
▁speak	-2728
▁opportun	-2729
ặn	-2730
▁Rồi	-2731
▁gave	-2732
▁hồ	-2733
▁close	-2734
omet	-2735
▁tôn	-2736
ption	-2737
▁worked	-2738
▁American	-2739
▁dru	-2740
▁students	-2741
ator	-2742
▁buy	-2743
▁cáo	-2744
▁trừ	-2745
ature	-2746
▁innov	-2747
▁difference	-2748
▁sân	-2749
▁đợi	-2750
▁explain	-2751
urs	-2752
▁since	-2753
▁third	-2754
▁object	-2755
ler	-2756
▁đêm	-2757
▁giây	-2758
▁mess	-2759
▁hài	-2760
▁expect	-2761
▁America	-2762
ump	-2763
istic	-2764
▁ngàn	-2765
▁mother	-2766
▁disease	-2767
ma	-2768
▁won	-2769
▁land	-2770
rem	-2771
▁May	-2772
olved	-2773
▁bott	-2774
▁phẫu	-2775
▁others	-2776
▁rather	-2777
ney	-2778
▁gắn	-2779
▁oil	-2780
▁relations	-2781
▁sometimes	-2782
▁typ	-2783
▁mass	-2784
▁clear	-2785
▁couldn	-2786
▁vai	-2787
▁dừng	-2788
▁trách	-2789
▁bí	-2790
▁kỉ	-2791
sych	-2792
▁Với	-2793
▁thousands	-2794
▁aud	-2795
▁coll	-2796
▁happy	-2797
▁xuyên	-2798
ann	-2799
▁cân	-2800
▁hold	-2801
▁nhảy	-2802
▁hoa	-2803
èn	-2804
get	-2805
▁đu	-2806
▁pot	-2807
▁miss	-2808
▁16	-2809
▁kĩ	-2810
▁norm	-2811
▁siêu	-2812
▁parent	-2813
▁difficult	-2814
▁ris	-2815
▁oper	-2816
▁chuyến	-2817
▁invest	-2818
▁z	-2819
▁thơ	-2820
▁arch	-2821
▁step	-2822
▁wind	-2823
ibly	-2824
▁population	-2825
ode	-2826
ider	-2827
▁thụ	-2828
ences	-2829
elt	-2830
lud	-2831
ầng	-2832
haps	-2833
▁màn	-2834
uss	-2835
▁On	-2836
ming	-2837
▁rev	-2838
▁deal	-2839
▁liter	-2840
▁Mo	-2841
gest	-2842
▁giai	-2843
▁surpr	-2844
illions	-2845
▁OK	-2846
aring	-2847
▁emot	-2848
▁takes	-2849
▁amount	-2850
▁machine	-2851
▁outside	-2852
▁Am	-2853
▁Some	-2854
▁learning	-2855
rew	-2856
ract	-2857
▁sens	-2858
▁death	-2859
▁lao	-2860
▁along	-2861
ination	-2862
▁species	-2863
▁Em	-2864
▁guys	-2865
▁company	-2866
▁powerful	-2867
▁tải	-2868
▁fail	-2869
▁during	-2870
▁cir	-2871
wards	-2872
oke	-2873
▁rừng	-2874
not	-2875
▁ill	-2876
ented	-2877
erv	-2878
ike	-2879
ken	-2880
rop	-2881
▁Cho	-2882
▁Nam	-2883
▁del	-2884
▁ele	-2885
▁nghị	-2886
▁short	-2887
▁changed	-2888
▁instead	-2889
ases	-2890
▁Afgh	-2891
▁tầng	-2892
▁tù	-2893
▁Mar	-2894
▁đảm	-2895
▁systems	-2896
▁ảo	-2897
ison	-2898
▁khái	-2899
▁bom	-2900
▁eat	-2901
▁thải	-2902
▁90	-2903
leep	-2904
▁hấp	-2905
ients	-2906
▁fall	-2907
▁fear	-2908
enn	-2909
▁Ge	-2910
fect	-2911
ides	-2912
▁cal	-2913
▁fly	-2914
▁khởi	-2915
▁least	-2916
book	-2917
astic	-2918
▁appro	-2919
▁paper	-2920
▁interact	-2921
orth	-2922
▁tem	-2923
▁easy	-2924
▁terr	-2925
▁early	-2926
ót	-2927
▁14	-2928
▁mot	-2929
ement	-2930
vered	-2931
▁culture	-2932
▁behavior	-2933
▁nhắc	-2934
▁grand	-2935
▁cut	-2936
▁sex	-2937
▁lots	-2938
▁ngăn	-2939
▁given	-2940
ples	-2941
▁phổ	-2942
ident	-2943
▁Afghan	-2944
▁es	-2945
▁jour	-2946
▁Được	-2947
▁nghiêm	-2948
ẳn	-2949
▁70	-2950
▁tín	-2951
▁pred	-2952
▁chỉnh	-2953
▁turns	-2954
▁recent	-2955
ama	-2956
▁kê	-2957
▁góc	-2958
▁realized	-2959
▁Âu	-2960
▁var	-2961
▁main	-2962
▁black	-2963
▁image	-2964
▁impro	-2965
▁khuôn	-2966
▁middle	-2967
▁ant	-2968
▁math	-2969
ium	-2970
ased	-2971
▁món	-2972
jor	-2973
▁fre	-2974
▁hút	-2975
▁arg	-2976
▁fac	-2977
▁psych	-2978
▁father	-2979
▁animals	-2980
la	-2981
com	-2982
uck	-2983
▁du	-2984
▁già	-2985
▁viol	-2986
▁exist	-2987
▁hands	-2988
▁Dav	-2989
ither	-2990
▁democr	-2991
▁yourself	-2992
apt	-2993
▁lá	-2994
aged	-2995
▁doct	-2996
▁giàu	-2997
▁protect	-2998
▁Còn	-2999
▁dig	-3000
▁low	-3001
▁liệt	-3002
50	-3003
▁Ví	-3004
▁stat	-3005
verage	-3006
▁century	-3007
ply	-3008
▁area	-3009
▁natural	-3010
▁Cal	-3011
▁eyes	-3012
▁ngân	-3013
▁ident	-3014
▁needs	-3015
▁đỏ	-3016
▁ổn	-3017
year	-3018
▁Hoa	-3019
▁cập	-3020
▁phận	-3021
▁seven	-3022
▁Europe	-3023
osp	-3024
▁felt	-3025
▁mole	-3026
face	-3027
ully	-3028
▁sun	-3029
▁trad	-3030
▁field	-3031
▁media	-3032
▁personal	-3033
▁coi	-3034
▁Chúa	-3035
itions	-3036
▁colle	-3037
▁behind	-3038
ềm	-3039
inary	-3040
lo	-3041
▁dream	-3042
▁local	-3043
▁needed	-3044
ows	-3045
▁201	-3046
▁extra	-3047
▁TV	-3048
▁huỷ	-3049
▁chứa	-3050
▁fight	-3051
▁relationship	-3052
▁13	-3053
▁tấn	-3054
▁vân	-3055
▁break	-3056
▁leave	-3057
▁lan	-3058
▁ple	-3059
▁tai	-3060
▁Trái	-3061
▁prote	-3062
▁simply	-3063
▁lim	-3064
▁đảo	-3065
ource	-3066
▁finally	-3067
▁Wor	-3068
▁chuột	-3069
▁major	-3070
▁super	-3071
▁support	-3072
ills	-3073
▁direct	-3074
ced	-3075
ule	-3076
▁ký	-3077
▁hộp	-3078
▁$	-3079
▁Bắc	-3080
▁hẳn	-3081
ains	-3082
▁mấy	-3083
▁ống	-3084
▁stay	-3085
▁trao	-3086
▁famil	-3087
▁People	-3088
▁luyện	-3089
▁pract	-3090
▁cannot	-3091
▁obvious	-3092
▁Just	-3093
▁chem	-3094
▁nóng	-3095
▁nặng	-3096
▁orig	-3097
▁taken	-3098
sh	-3099
▁đám	-3100
ially	-3101
ledge	-3102
▁thiệu	-3103
▁thắng	-3104
▁pattern	-3105
▁economic	-3106
▁photograph	-3107
room	-3108
▁mềm	-3109
▁serv	-3110
rought	-3111
▁tuyến	-3112
▁17	-3113
▁Ai	-3114
ency	-3115
▁key	-3116
▁film	-3117
▁moving	-3118
ological	-3119
▁beginning	-3120
eal	-3121
▁dậy	-3122
aught	-3123
▁Iran	-3124
▁send	-3125
▁spent	-3126
▁longer	-3127
▁phù	-3128
▁cháu	-3129
▁feet	-3130
▁seeing	-3131
▁perhaps	-3132
▁political	-3133
▁mùa	-3134
▁mạch	-3135
▁David	-3136
▁eight	-3137
▁value	-3138
▁extrem	-3139
▁turned	-3140
▁Kỳ	-3141
inal	-3142
▁Har	-3143
▁Not	-3144
▁điển	-3145
▁record	-3146
▁quickly	-3147
ọt	-3148
iếng	-3149
▁Rob	-3150
▁sóng	-3151
▁chóng	-3152
▁perfect	-3153
▁perform	-3154
▁communic	-3155
▁mẽ	-3156
▁môn	-3157
▁draw	-3158
▁mult	-3159
▁uống	-3160
▁dưỡng	-3161
▁common	-3162
▁Hiện	-3163
▁week	-3164
▁carbon	-3165
▁enc	-3166
▁thảo	-3167
▁điên	-3168
▁quyển	-3169
▁access	-3170
òi	-3171
itch	-3172
▁Câu	-3173
▁máu	-3174
▁squ	-3175
▁disc	-3176
▁present	-3177
itect	-3178
▁Yeah	-3179
ipp	-3180
▁vac	-3181
ivers	-3182
▁chủng	-3183
▁growth	-3184
▁wonderful	-3185
mb	-3186
bor	-3187
uth	-3188
▁Le	-3189
▁Ta	-3190
▁cy	-3191
▁sơ	-3192
.000	-3193
ived	-3194
▁hãi	-3195
▁event	-3196
▁parts	-3197
yr	-3198
ịp	-3199
▁hạ	-3200
▁đe	-3201
eter	-3202
▁surv	-3203
▁ground	-3204
▁rời	-3205
▁Công	-3206
▁buộc	-3207
▁size	-3208
idence	-3209
▁reach	-3210
▁strong	-3211
▁Afghanistan	-3212
ấc	-3213
▁Nhà	-3214
▁chờ	-3215
▁dõi	-3216
▁leg	-3217
ley	-3218
▁civ	-3219
cious	-3220
▁khán	-3221
▁absolut	-3222
▁leaders	-3223
▁cũ	-3224
fully	-3225
▁loạn	-3226
lt	-3227
▁Từ	-3228
rael	-3229
▁ess	-3230
▁experiment	-3231
▁lộ	-3232
rent	-3233
▁mắn	-3234
avor	-3235
▁ong	-3236
▁tồi	-3237
▁buồn	-3238
▁linh	-3239
▁lost	-3240
▁pick	-3241
ources	-3242
▁images	-3243
▁lầm	-3244
▁bang	-3245
▁tảng	-3246
asc	-3247
▁began	-3248
▁chàng	-3249
▁trùng	-3250
▁oce	-3251
▁sent	-3252
▁terms	-3253
▁đáp	-3254
▁Liệu	-3255
▁cool	-3256
▁write	-3257
▁special	-3258
▁Sp	-3259
▁lồ	-3260
▁miễn	-3261
▁includ	-3262
▁thưởng	-3263
▁companies	-3264
▁đói	-3265
▁World	-3266
▁khổng	-3267
▁Re	-3268
▁desc	-3269
▁requ	-3270
▁virus	-3271
▁cities	-3272
▁impact	-3273
aly	-3274
▁góp	-3275
▁Char	-3276
▁198	-3277
▁Yes	-3278
▁vers	-3279
▁green	-3280
by	-3281
▁núi	-3282
▁ủng	-3283
iving	-3284
▁bene	-3285
ilar	-3286
▁Thứ	-3287
▁tổn	-3288
ument	-3289
▁travel	-3290
▁parents	-3291
▁architect	-3292
▁21	-3293
▁bảng	-3294
▁dead	-3295
▁Israel	-3296
ife	-3297
▁tot	-3298
▁lạnh	-3299
▁situ	-3300
▁đỉnh	-3301
▁measure	-3302
ral	-3303
vent	-3304
▁Rất	-3305
▁camera	-3306
▁Our	-3307
▁win	-3308
▁sleep	-3309
▁tờ	-3310
▁occ	-3311
▁intr	-3312
▁Đông	-3313
▁khoản	-3314
▁tường	-3315
cif	-3316
▁Mỗi	-3317
ution	-3318
▁poor	-3319
▁tried	-3320
▁repres	-3321
▁sum	-3322
▁dest	-3323
▁feed	-3324
▁insp	-3325
▁trồng	-3326
▁sitting	-3327
▁Vào	-3328
▁cơn	-3329
▁rele	-3330
▁weeks	-3331
▁consum	-3332
erm	-3333
ext	-3334
ively	-3335
▁Chin	-3336
ised	-3337
▁Man	-3338
▁đèn	-3339
▁mảnh	-3340
▁vững	-3341
▁trắng	-3342
▁opportunity	-3343
▁ap	-3344
▁auth	-3345
ression	-3346
▁spread	-3347
cl	-3348
ớm	-3349
ards	-3350
hood	-3351
▁Hồi	-3352
cially	-3353
▁brought	-3354
▁knowledge	-3355
▁die	-3356
▁tránh	-3357
▁recogn	-3358
ried	-3359
izing	-3360
▁camp	-3361
▁Đúng	-3362
iction	-3363
▁economy	-3364
▁feeling	-3365
ug	-3366
ico	-3367
▁bề	-3368
▁áo	-3369
ustain	-3370
▁approach	-3371
ny	-3372
ops	-3373
▁Bà	-3374
ites	-3375
▁mái	-3376
▁tốn	-3377
▁phỏng	-3378
▁ice	-3379
▁obs	-3380
▁rơi	-3381
▁trì	-3382
▁diệu	-3383
▁indust	-3384
▁changes	-3385
ted	-3386
▁Bl	-3387
▁hảo	-3388
▁opt	-3389
▁hosp	-3390
▁khuẩn	-3391
▁tools	-3392
▁stress	-3393
▁reality	-3394
▁Ad	-3395
ateg	-3396
▁tộc	-3397
▁conv	-3398
▁giving	-3399
▁average	-3400
▁interested	-3401
▁De	-3402
▁ấn	-3403
▁đào	-3404
ances	-3405
▁born	-3406
▁fast	-3407
▁quên	-3408
▁quảng	-3409
ibility	-3410
▁growing	-3411
▁kim	-3412
▁lẫn	-3413
▁near	-3414
▁English	-3415
he	-3416
ùa	-3417
▁Sc	-3418
▁cỡ	-3419
▁box	-3420
▁Ngày	-3421
▁tiểu	-3422
▁wouldn	-3423
▁Cl	-3424
▁oxy	-3425
▁caus	-3426
▁gone	-3427
▁trận	-3428
▁books	-3429
▁known	-3430
▁whatever	-3431
ored	-3432
▁Ken	-3433
▁morning	-3434
ya	-3435
▁ti	-3436
▁mãi	-3437
▁sho	-3438
▁sửa	-3439
▁fire	-3440
▁foot	-3441
▁produc	-3442
▁cu	-3443
▁With	-3444
▁circ	-3445
▁soft	-3446
▁based	-3447
chie	-3448
dden	-3449
ators	-3450
▁comb	-3451
▁affect	-3452
▁either	-3453
▁sudden	-3454
▁ability	-3455
ana	-3456
urb	-3457
ales	-3458
▁bar	-3459
▁yes	-3460
▁Right	-3461
▁respons	-3462
ID	-3463
gn	-3464
of	-3465
iti	-3466
▁cầm	-3467
▁phấn	-3468
▁sánh	-3469
▁lương	-3470
▁climate	-3471
▁profess	-3472
eed	-3473
ouch	-3474
▁bật	-3475
▁nghìn	-3476
▁đương	-3477
▁online	-3478
▁Chinese	-3479
▁attention	-3480
▁jo	-3481
ware	-3482
ister	-3483
▁risk	-3484
▁developing	-3485
umb	-3486
lict	-3487
▁hon	-3488
▁chạm	-3489
▁giỏi	-3490
▁vàng	-3491
▁Chính	-3492
▁thank	-3493
▁challenge	-3494
▁vốn	-3495
▁blue	-3496
▁pull	-3497
▁text	-3498
▁press	-3499
ero	-3500
▁Don	-3501
ggest	-3502
▁South	-3503
▁favor	-3504
▁modern	-3505
▁univers	-3506
omen	-3507
ploy	-3508
▁sil	-3509
▁chiếm	-3510
▁seems	-3511
▁stage	-3512
▁realize	-3513
▁suggest	-3514
▁developed	-3515
▁vĩ	-3516
▁chó	-3517
anger	-3518
▁làng	-3519
▁civil	-3520
▁playing	-3521
▁structure	-3522
yn	-3523
aul	-3524
ein	-3525
▁Im	-3526
ades	-3527
▁lửa	-3528
▁ngừng	-3529
▁physical	-3530
yl	-3531
▁24	-3532
▁Ab	-3533
▁Co	-3534
▁Đại	-3535
▁dark	-3536
▁nice	-3537
▁rich	-3538
▁relig	-3539
▁animal	-3540
▁bottom	-3541
▁charact	-3542
lu	-3543
▁ge	-3544
▁priv	-3545
▁hoảng	-3546
▁wrote	-3547
▁tradition	-3548
str	-3549
▁Năm	-3550
▁hot	-3551
▁hiển	-3552
▁phối	-3553
▁thịt	-3554
▁tiềm	-3555
ensive	-3556
▁numbers	-3557
▁creating	-3558
▁starting	-3559
▁vỡ	-3560
▁bữa	-3561
▁khẩu	-3562
▁poll	-3563
▁save	-3564
▁girls	-3565
▁meaning	-3566
▁incredible	-3567
iet	-3568
unt	-3569
▁hôn	-3570
▁blog	-3571
▁chấm	-3572
▁crit	-3573
▁benef	-3574
▁chuỗi	-3575
▁smart	-3576
▁network	-3577
▁By	-3578
port	-3579
▁Sch	-3580
▁gió	-3581
▁pur	-3582
▁webs	-3583
▁điệu	-3584
▁games	-3585
anda	-3586
▁Face	-3587
▁micr	-3588
▁tele	-3589
▁running	-3590
idge	-3591
▁ghế	-3592
▁har	-3593
▁hor	-3594
▁rút	-3595
▁path	-3596
▁post	-3597
▁khích	-3598
▁understanding	-3599
ada	-3600
son	-3601
▁aren	-3602
▁nghỉ	-3603
▁areas	-3604
▁hổ	-3605
▁nổ	-3606
▁mời	-3607
▁đừng	-3608
erence	-3609
▁email	-3610
▁specif	-3611
▁protein	-3612
▁Ồ	-3613
par	-3614
▁500	-3615
▁deg	-3616
▁knows	-3617
pecially	-3618
▁hi	-3619
▁nắm	-3620
▁alone	-3621
▁millions	-3622
▁literally	-3623
ove	-3624
uel	-3625
▁tw	-3626
▁mov	-3627
▁biên	-3628
▁chảy	-3629
▁sạch	-3630
▁blood	-3631
▁phone	-3632
▁describ	-3633
▁telling	-3634
▁scientists	-3635
eth	-3636
uce	-3637
▁sớm	-3638
▁Mich	-3639
▁Trên	-3640
▁tách	-3641
▁scale	-3642
ặm	-3643
▁sn	-3644
▁vợ	-3645
▁slow	-3646
▁soon	-3647
▁vill	-3648
▁dường	-3649
▁concept	-3650
▁patients	-3651
ãn	-3652
▁197	-3653
▁tắt	-3654
▁baby	-3655
▁tend	-3656
▁audience	-3657
▁solution	-3658
▁innovation	-3659
▁sót	-3660
obody	-3661
▁khoá	-3662
▁loạt	-3663
▁đằng	-3664
▁neigh	-3665
▁peace	-3666
▁worth	-3667
▁sustain	-3668
ham	-3669
▁lặp	-3670
▁khuy	-3671
▁avail	-3672
▁sounds	-3673
▁Facebook	-3674
▁Mex	-3675
▁truth	-3676
▁depend	-3677
▁normal	-3678
▁hào	-3679
▁tàn	-3680
▁rate	-3681
▁color	-3682
▁anyone	-3683
▁showed	-3684
▁writing	-3685
▁dĩ	-3686
cess	-3687
ught	-3688
▁eye	-3689
iforn	-3690
▁kịch	-3691
▁Where	-3692
▁track	-3693
▁theory	-3694
arr	-3695
▁Mc	-3696
irth	-3697
▁Ira	-3698
ondon	-3699
▁quần	-3700
▁guess	-3701
▁solve	-3702
▁convers	-3703
▁Californ	-3704
▁hundreds	-3705
▁bè	-3706
▁arr	-3707
▁cop	-3708
▁khứ	-3709
▁vol	-3710
▁suff	-3711
▁wall	-3712
▁gives	-3713
▁thoát	-3714
▁technolog	-3715
ói	-3716
▁Ha	-3717
▁imm	-3718
▁prog	-3719
▁issue	-3720
▁London	-3721
▁patient	-3722
▁development	-3723
ept	-3724
▁er	-3725
▁son	-3726
▁túi	-3727
▁giấc	-3728
▁nghề	-3729
▁road	-3730
▁plant	-3731
▁California	-3732
ẹn	-3733
ique	-3734
▁Hay	-3735
▁lối	-3736
▁Braz	-3737
▁Trước	-3738
▁similar	-3739
ứt	-3740
▁bur	-3741
▁lay	-3742
▁log	-3743
▁prom	-3744
▁force	-3745
▁polic	-3746
▁Brazil	-3747
▁humans	-3748
▁forward	-3749
▁transform	-3750
▁iP	-3751
▁Cam	-3752
▁bền	-3753
▁emp	-3754
▁chậm	-3755
▁repl	-3756
▁trưng	-3757
▁experi	-3758
▁intern	-3759
▁industry	-3760
▁discovered	-3761
IDS	-3762
ựng	-3763
▁Col	-3764
▁tri	-3765
▁tán	-3766
▁type	-3767
▁white	-3768
▁center	-3769
▁especially	-3770
▁generation	-3771
▁Vấn	-3772
phere	-3773
▁Iraq	-3774
▁trại	-3775
▁ocean	-3776
▁voice	-3777
akes	-3778
▁Dan	-3779
▁Par	-3780
▁nhé	-3781
▁rul	-3782
▁vacc	-3783
▁trust	-3784
▁Christ	-3785
▁current	-3786
▁predict	-3787
▁serious	-3788
ala	-3789
chan	-3790
▁bed	-3791
▁cars	-3792
▁kiệm	-3793
▁sand	-3794
entially	-3795
▁pictures	-3796
▁asking	-3797
oo	-3798
assion	-3799
▁talked	-3800
▁subject	-3801
oon	-3802
▁gợi	-3803
▁Cách	-3804
▁thước	-3805
▁potential	-3806
▁phê	-3807
▁quỹ	-3808
asing	-3809
▁Bill	-3810
▁sell	-3811
isions	-3812
▁shape	-3813
▁touch	-3814
▁produce	-3815
ped	-3816
▁Ba	-3817
▁Com	-3818
▁lea	-3819
▁trữ	-3820
ified	-3821
▁haven	-3822
▁materials	-3823
oor	-3824
por	-3825
▁ang	-3826
ouble	-3827
▁hang	-3828
▁chồng	-3829
▁surface	-3830
▁conflict	-3831
▁absolutely	-3832
ươi	-3833
ival	-3834
yond	-3835
▁Đầu	-3836
osing	-3837
▁AIDS	-3838
▁ball	-3839
▁giọng	-3840
▁website	-3841
▁electric	-3842
▁available	-3843
▁evolution	-3844
▁incredibly	-3845
▁mũ	-3846
abor	-3847
▁Nói	-3848
▁lif	-3849
ellig	-3850
imens	-3851
▁teachers	-3852
ask	-3853
▁Tw	-3854
▁300	-3855
▁Who	-3856
▁est	-3857
▁achie	-3858
▁defin	-3859
▁general	-3860
▁0	-3861
ram	-3862
▁cà	-3863
▁lỗ	-3864
illi	-3865
▁okay	-3866
▁prin	-3867
▁suất	-3868
▁happiness	-3869
lex	-3870
▁vỏ	-3871
▁div	-3872
stein	-3873
▁sông	-3874
▁quang	-3875
▁schools	-3876
▁changing	-3877
▁involved	-3878
▁movement	-3879
ify	-3880
▁flu	-3881
▁sốt	-3882
▁ngại	-3883
▁device	-3884
▁nguyện	-3885
▁1.	-3886
▁dặm	-3887
▁kém	-3888
usion	-3889
▁street	-3890
▁situation	-3891
ìa	-3892
▁cú	-3893
▁rẻ	-3894
▁Cám	-3895
▁Ste	-3896
▁nâng	-3897
▁tiny	-3898
▁birth	-3899
▁slide	-3900
▁table	-3901
▁detail	-3902
▁fundam	-3903
▁issues	-3904
▁function	-3905
eh	-3906
iar	-3907
pre	-3908
▁sold	-3909
ilities	-3910
▁projects	-3911
bit	-3912
iod	-3913
head	-3914
▁ast	-3915
▁hit	-3916
▁Brit	-3917
▁Chris	-3918
▁compet	-3919
▁Ed	-3920
▁sỹ	-3921
▁rece	-3922
▁viễn	-3923
▁đăng	-3924
▁medic	-3925
ips	-3926
▁cờ	-3927
▁gt	-3928
▁né	-3929
▁map	-3930
▁sat	-3931
▁thở	-3932
▁Geor	-3933
▁stru	-3934
▁beyond	-3935
▁chance	-3936
ara	-3937
▁Đất	-3938
oring	-3939
▁flow	-3940
▁choice	-3941
▁recently	-3942
▁technologies	-3943
ĩa	-3944
ãng	-3945
▁Sm	-3946
▁lt	-3947
▁fur	-3948
▁ult	-3949
▁West	-3950
▁thảm	-3951
▁resources	-3952
▁emb	-3953
▁Việc	-3954
▁lặng	-3955
▁xương	-3956
▁period	-3957
uit	-3958
ụng	-3959
▁Gr	-3960
like	-3961
▁Thu	-3962
▁sea	-3963
▁Paul	-3964
▁craz	-3965
▁ghép	-3966
▁thăm	-3967
ishing	-3968
▁phiên	-3969
▁necess	-3970
▁message	-3971
ox	-3972
apan	-3973
ford	-3974
▁sáu	-3975
▁meth	-3976
▁nhật	-3977
▁wish	-3978
▁breat	-3979
▁miles	-3980
▁groups	-3981
▁journey	-3982
aur	-3983
une	-3984
wor	-3985
▁bọn	-3986
▁tru	-3987
▁nhắn	-3988
▁visual	-3989
ưỡi	-3990
roll	-3991
antly	-3992
▁East	-3993
▁Nhật	-3994
▁died	-3995
▁tàng	-3996
▁Japan	-3997
▁among	-3998
▁kháng	-3999
▁tells	-4000
▁Mexico	-4001
▁instit	-4002
▁compassion	-4003
▁revolution	-4004
ky	-4005
eel	-4006
▁đế	-4007
▁196	-4008
▁lọc	-4009
light	-4010
▁Inst	-4011
▁fair	-4012
▁trống	-4013
▁office	-4014
▁becomes	-4015
▁passion	-4016
oms	-4017
▁Sw	-4018
eles	-4019
▁fem	-4020
▁mob	-4021
▁Look	-4022
▁Bản	-4023
▁neg	-4024
▁vết	-4025
▁hùng	-4026
▁drive	-4027
▁danger	-4028
eck	-4029
▁Of	-4030
more	-4031
▁Kho	-4032
▁thoả	-4033
▁First	-4034
▁North	-4035
▁attack	-4036
▁except	-4037
▁reasons	-4038
▁walking	-4039
▁intellig	-4040
▁War	-4041
▁bơi	-4042
▁tròn	-4043
▁điệp	-4044
▁cross	-4045
▁react	-4046
▁likely	-4047
▁particip	-4048
DP	-4049
col	-4050
fer	-4051
▁xoay	-4052
▁hoang	-4053
▁digital	-4054
▁medical	-4055
▁democracy	-4056
SA	-4057
let	-4058
▁nỗ	-4059
▁Was	-4060
▁bird	-4061
▁After	-4062
▁vision	-4063
zz	-4064
ned	-4065
▁Hai	-4066
▁nhẹ	-4067
arily	-4068
▁drop	-4069
▁bigger	-4070
▁towards	-4071
▁conscious	-4072
ey	-4073
agn	-4074
itiz	-4075
▁drug	-4076
▁clean	-4077
▁putting	-4078
▁Á	-4079
▁boy	-4080
▁doạ	-4081
oming	-4082
▁đuổi	-4083
▁Maybe	-4084
▁basic	-4085
▁ready	-4086
▁khoảnh	-4087
▁software	-4088
ges	-4089
▁GDP	-4090
▁đam	-4091
▁bact	-4092
▁crazy	-4093
▁rules	-4094
▁Canada	-4095
▁Là	-4096
▁bò	-4097
▁Lúc	-4098
▁lục	-4099
ained	-4100
cient	-4101
▁safe	-4102
▁search	-4103
▁designed	-4104
▁Bộ	-4105
▁ưu	-4106
medi	-4107
view	-4108
▁voi	-4109
▁cris	-4110
▁ngẫu	-4111
▁print	-4112
▁trial	-4113
ruction	-4114
▁action	-4115
▁everywhere	-4116
urt	-4117
▁Pl	-4118
ster	-4119
▁400	-4120
▁Are	-4121
▁cấy	-4122
▁lính	-4123
▁shif	-4124
▁đựng	-4125
▁minds	-4126
▁moral	-4127
▁sever	-4128
▁account	-4129
imb	-4130
▁ep	-4131
▁arm	-4132
odies	-4133
▁grad	-4134
▁lose	-4135
▁lành	-4136
▁activ	-4137
▁aware	-4138
▁lived	-4139
▁results	-4140
uct	-4141
▁Pal	-4142
▁led	-4143
itter	-4144
▁cart	-4145
▁code	-4146
▁thuỷ	-4147
▁thác	-4148
ground	-4149
ressed	-4150
▁cause	-4151
▁improve	-4152
olf	-4153
▁AD	-4154
▁Se	-4155
ores	-4156
▁Act	-4157
▁San	-4158
▁lau	-4159
▁mis	-4160
ously	-4161
▁thuận	-4162
olutions	-4163
▁context	-4164
▁quality	-4165
▁violence	-4166
▁computers	-4167
ude	-4168
fort	-4169
ucle	-4170
▁họp	-4171
▁đạp	-4172
▁nhựa	-4173
▁prim	-4174
▁miếng	-4175
▁mount	-4176
▁thang	-4177
▁extraord	-4178
▁obviously	-4179
lin	-4180
ngth	-4181
▁Nào	-4182
▁tar	-4183
▁Đức	-4184
urity	-4185
estern	-4186
▁radio	-4187
▁introd	-4188
▁mechan	-4189
▁secret	-4190
▁biggest	-4191
▁showing	-4192
▁creative	-4193
▁evidence	-4194
▁decisions	-4195
ett	-4196
osh	-4197
▁ko	-4198
▁pu	-4199
▁ru	-4200
▁nine	-4201
▁phil	-4202
▁apart	-4203
▁emerg	-4204
▁molec	-4205
▁moved	-4206
iversity	-4207
▁further	-4208
▁connected	-4209
▁individuals	-4210
▁tô	-4211
▁rác	-4212
▁chặt	-4213
▁door	-4214
▁lãng	-4215
▁rock	-4216
▁citiz	-4217
▁trích	-4218
▁waste	-4219
▁region	-4220
▁starts	-4221
izations	-4222
▁several	-4223
▁teacher	-4224
▁Ả	-4225
put	-4226
ube	-4227
▁oh	-4228
edia	-4229
▁unf	-4230
▁fish	-4231
▁lược	-4232
▁đoàn	-4233
▁graph	-4234
▁consider	-4235
▁national	-4236
ườn	-4237
▁bờ	-4238
▁ec	-4239
▁lắp	-4240
▁tan	-4241
▁thừa	-4242
▁forest	-4243
▁indeed	-4244
ays	-4245
ims	-4246
▁Ob	-4247
▁lễ	-4248
▁tụ	-4249
oles	-4250
▁Cậu	-4251
▁onto	-4252
▁drugs	-4253
▁faster	-4254
▁examples	-4255
▁favorite	-4256
▁hospital	-4257
▁certainly	-4258
▁scientific	-4259
nces	-4260
▁din	-4261
▁rain	-4262
others	-4263
▁solar	-4264
▁electr	-4265
▁transl	-4266
▁communities	-4267
nal	-4268
come	-4269
edom	-4270
ires	-4271
▁dam	-4272
▁Arab	-4273
▁Fran	-4274
▁fant	-4275
▁hung	-4276
▁Kenya	-4277
▁cloud	-4278
▁meant	-4279
▁positive	-4280
ged	-4281
▁adm	-4282
▁dri	-4283
ander	-4284
▁stick	-4285
▁screen	-4286
▁taught	-4287
ished	-4288
▁Cuối	-4289
▁Most	-4290
▁diệt	-4291
▁jobs	-4292
▁đẳng	-4293
▁shown	-4294
▁mental	-4295
▁nobody	-4296
ald	-4297
▁yên	-4298
▁2000	-4299
▁Cuộc	-4300
▁Ngay	-4301
▁vari	-4302
▁blind	-4303
▁huống	-4304
▁nucle	-4305
▁worse	-4306
▁brains	-4307
▁societ	-4308
▁threat	-4309
▁student	-4310
▁surprising	-4311
cis	-4312
▁Dr	-4313
onse	-4314
▁Ang	-4315
▁mại	-4316
▁tật	-4317
▁Hoặc	-4318
▁chào	-4319
▁link	-4320
▁carry	-4321
▁author	-4322
▁report	-4323
▁neighbor	-4324
▁particularly	-4325
bs	-4326
oll	-4327
▁Mà	-4328
▁af	-4329
▁sổ	-4330
oken	-4331
▁150	-4332
▁Ben	-4333
▁Ein	-4334
▁pin	-4335
▁sợi	-4336
iding	-4337
▁giám	-4338
▁wait	-4339
▁Đừng	-4340
▁Chẳng	-4341
▁remark	-4342
▁content	-4343
oub	-4344
▁Ne	-4345
▁cản	-4346
▁chặn	-4347
▁mine	-4348
▁ther	-4349
▁thấu	-4350
▁trees	-4351
▁choose	-4352
▁totally	-4353
▁progress	-4354
éo	-4355
ớt	-4356
ủi	-4357
▁CO	-4358
ffic	-4359
▁Cũng	-4360
▁Even	-4361
▁chép	-4362
▁farm	-4363
▁đống	-4364
▁ngoái	-4365
▁immedi	-4366
▁prison	-4367
▁village	-4368
▁Einstein	-4369
▁activity	-4370
rof	-4371
oint	-4372
▁Tod	-4373
▁cát	-4374
▁cãi	-4375
▁mây	-4376
▁san	-4377
aking	-4378
▁Theo	-4379
▁spir	-4380
▁vong	-4381
▁detect	-4382
▁temper	-4383
▁studies	-4384
▁represent	-4385
ica	-4386
▁dom	-4387
▁gra	-4388
▁rap	-4389
▁conc	-4390
▁corn	-4391
▁thận	-4392
▁ngang	-4393
▁chemical	-4394
▁collabor	-4395
ued	-4396
▁ce	-4397
▁dị	-4398
▁Nig	-4399
▁kil	-4400
▁sụp	-4401
▁mừng	-4402
▁skin	-4403
▁tràn	-4404
▁hương	-4405
▁magic	-4406
▁wants	-4407
▁killed	-4408
▁strateg	-4409
▁watching	-4410
urg	-4411
▁huy	-4412
▁grew	-4413
▁khấu	-4414
▁named	-4415
▁expert	-4416
▁plants	-4417
▁continue	-4418
▁response	-4419
▁Je	-4420
▁mực	-4421
itten	-4422
ought	-4423
▁adult	-4424
▁position	-4425
▁buildings	-4426
ids	-4427
ured	-4428
▁thù	-4429
▁Đối	-4430
▁fine	-4431
▁push	-4432
▁movie	-4433
▁appear	-4434
▁notice	-4435
▁return	-4436
▁products	-4437
▁training	-4438
▁1,	-4439
▁Ag	-4440
▁Hy	-4441
▁tỏ	-4442
▁Isl	-4443
▁đòi	-4444
▁chán	-4445
▁fasc	-4446
▁fill	-4447
vision	-4448
▁ended	-4449
▁forms	-4450
▁influ	-4451
▁nhuận	-4452
▁tuyên	-4453
▁allowed	-4454
▁anybody	-4455
▁suddenly	-4456
ief	-4457
▁fa	-4458
▁tá	-4459
icle	-4460
inct	-4461
▁đùa	-4462
ellow	-4463
▁Rich	-4464
▁artist	-4465
▁discuss	-4466
how	-4467
▁Dù	-4468
▁La	-4469
▁ADN	-4470
▁hop	-4471
▁mùi	-4472
verty	-4473
▁capt	-4474
▁luck	-4475
▁pack	-4476
▁thai	-4477
▁trào	-4478
▁assum	-4479
▁phiếu	-4480
▁infect	-4481
▁method	-4482
▁objects	-4483
▁perspect	-4484
▁traditional	-4485
cr	-4486
▁Su	-4487
▁ám	-4488
▁deb	-4489
▁fix	-4490
▁kêu	-4491
▁syn	-4492
itary	-4493
▁Bang	-4494
▁clin	-4495
▁nhằm	-4496
▁virt	-4497
▁truly	-4498
osphere	-4499
▁extremely	-4500
▁conditions	-4501
cape	-4502
rest	-4503
▁Any	-4504
▁Sec	-4505
▁gas	-4506
▁súng	-4507
ologist	-4508
▁crisis	-4509
▁signific	-4510
▁supposed	-4511
▁eventually	-4512
ượu	-4513
ping	-4514
ring	-4515
soci	-4516
▁dối	-4517
atory	-4518
ulate	-4519
▁bank	-4520
▁surg	-4521
istics	-4522
▁Nhiều	-4523
▁giảng	-4524
▁separ	-4525
aughter	-4526
▁points	-4527
▁anymore	-4528
▁largest	-4529
▁provide	-4530
kn	-4531
ua	-4532
ocks	-4533
sect	-4534
▁bối	-4535
▁cám	-4536
▁swe	-4537
agine	-4538
▁cong	-4539
▁ngọn	-4540
▁hoàng	-4541
▁khung	-4542
▁effort	-4543
▁princi	-4544
▁Charles	-4545
▁excited	-4546
▁decision	-4547
ael	-4548
▁vú	-4549
▁mưa	-4550
▁Thom	-4551
▁clos	-4552
▁mist	-4553
▁tiêm	-4554
▁triết	-4555
▁mathem	-4556
▁minute	-4557
▁African	-4558
▁reading	-4559
▁character	-4560
dom	-4561
gen	-4562
▁Mẹ	-4563
▁hè	-4564
cise	-4565
▁Bar	-4566
erman	-4567
ancial	-4568
▁accept	-4569
▁income	-4570
▁series	-4571
▁Washing	-4572
▁exciting	-4573
▁societies	-4574
▁extraordinary	-4575
cy	-4576
ớn	-4577
▁gỗ	-4578
▁hối	-4579
▁nan	-4580
▁nấm	-4581
aging	-4582
▁Liên	-4583
▁Thái	-4584
▁cứng	-4585
▁wife	-4586
▁Which	-4587
▁George	-4588
▁memory	-4589
▁strugg	-4590
▁distrib	-4591
▁neurons	-4592
▁poverty	-4593
▁listening	-4594
▁solutions	-4595
▁Washington	-4596
IT	-4597
joy	-4598
▁Me	-4599
▁Về	-4600
▁cục	-4601
▁hig	-4602
▁lừa	-4603
▁Cong	-4604
▁hiếm	-4605
▁late	-4606
▁liền	-4607
▁nhịp	-4608
▁allows	-4609
▁conversation	-4610
▁mỏ	-4611
emic	-4612
vert	-4613
▁móc	-4614
▁thờ	-4615
▁Pháp	-4616
▁Thay	-4617
▁khía	-4618
▁khảo	-4619
▁above	-4620
▁earli	-4621
▁disapp	-4622
▁source	-4623
▁politics	-4624
▁thousand	-4625
▁including	-4626
▁University	-4627
▁óc	-4628
▁cặp	-4629
▁mạc	-4630
useum	-4631
▁thầy	-4632
▁wild	-4633
▁labor	-4634
▁lands	-4635
ossible	-4636
▁ngưỡng	-4637
▁college	-4638
▁plastic	-4639
ulf	-4640
▁Fl	-4641
erve	-4642
▁bắn	-4643
▁doc	-4644
▁jud	-4645
▁Bằng	-4646
▁cook	-4647
▁rượu	-4648
▁alive	-4649
▁bodies	-4650
▁employ	-4651
▁higher	-4652
▁Francis	-4653
▁Twitter	-4654
▁finding	-4655
▁respond	-4656
▁familiar	-4657
ze	-4658
èm	-4659
lly	-4660
▁Gu	-4661
▁lũ	-4662
▁Big	-4663
▁Dar	-4664
▁Jul	-4665
▁Wik	-4666
▁amp	-4667
▁sus	-4668
▁anal	-4669
▁kept	-4670
▁Today	-4671
▁sorts	-4672
▁afford	-4673
▁concer	-4674
▁determ	-4675
▁doctor	-4676
▁skills	-4677
▁weight	-4678
▁doctors	-4679
ha	-4680
▁ác	-4681
▁Per	-4682
▁Tom	-4683
▁lad	-4684
▁Phil	-4685
▁goal	-4686
▁thao	-4687
▁trầm	-4688
▁bunch	-4689
▁earth	-4690
▁speed	-4691
▁fascin	-4692
▁publish	-4693
▁specific	-4694
for	-4695
ror	-4696
▁Ma	-4697
▁Mus	-4698
▁ann	-4699
▁côn	-4700
▁funny	-4701
▁Imagine	-4702
▁freedom	-4703
▁machines	-4704
▁expensive	-4705
gr	-4706
pan	-4707
▁et	-4708
word	-4709
▁táo	-4710
▁chốt	-4711
▁role	-4712
▁cases	-4713
▁calcul	-4714
▁Americans	-4715
▁treatment	-4716
PS	-4717
ậc	-4718
egr	-4719
oun	-4720
▁bổ	-4721
ners	-4722
▁bal	-4723
▁cry	-4724
▁hỗn	-4725
▁Your	-4726
▁purp	-4727
▁roll	-4728
▁glass	-4729
ustrial	-4730
▁models	-4731
▁saving	-4732
▁square	-4733
▁thuyền	-4734
▁service	-4735
▁usually	-4736
▁anywhere	-4737
▁becoming	-4738
▁families	-4739
▁đua	-4740
▁jump	-4741
▁rand	-4742
▁enjoy	-4743
▁lower	-4744
▁talks	-4745
▁types	-4746
akistan	-4747
▁philos	-4748
▁colleag	-4749
ớp	-4750
▁Sẽ	-4751
▁mét	-4752
enced	-4753
▁2008	-4754
▁City	-4755
▁Thuỵ	-4756
▁căng	-4757
▁site	-4758
▁stra	-4759
▁demon	-4760
▁effic	-4761
▁thoải	-4762
▁somewhere	-4763
▁impossible	-4764
▁successful	-4765
30	-4766
off	-4767
unk	-4768
▁mì	-4769
▁tí	-4770
▁hắn	-4771
▁Like	-4772
▁Phần	-4773
▁nhũng	-4774
▁Western	-4775
ech	-4776
key	-4777
▁cỏ	-4778
ogen	-4779
▁thr	-4780
▁thọ	-4781
▁đập	-4782
▁cold	-4783
▁huấn	-4784
▁rise	-4785
▁upon	-4786
▁loved	-4787
▁actual	-4788
▁famous	-4789
▁larger	-4790
▁pieces	-4791
▁explore	-4792
ami	-4793
ging	-4794
aries	-4795
▁cháy	-4796
▁vâng	-4797
▁Thomas	-4798
▁reflect	-4799
▁respect	-4800
▁Pakistan	-4801
▁critical	-4802
win	-4803
▁Ex	-4804
▁pa	-4805
alia	-4806
amic	-4807
mend	-4808
▁cat	-4809
▁hyd	-4810
▁nút	-4811
▁biện	-4812
▁chối	-4813
▁networ	-4814
▁policy	-4815
▁spirit	-4816
▁Michael	-4817
▁seconds	-4818
▁written	-4819
▁citizens	-4820
▁patterns	-4821
▁security	-4822
igr	-4823
▁Lu	-4824
▁hà	-4825
apes	-4826
back	-4827
ball	-4828
▁bậc	-4829
▁Phải	-4830
▁magn	-4831
▁healthy	-4832
▁demonstr	-4833
▁painting	-4834
xi	-4835
amm	-4836
oid	-4837
▁45	-4838
iced	-4839
▁Two	-4840
▁bảy	-4841
▁túc	-4842
▁đắt	-4843
erson	-4844
itation	-4845
▁beauty	-4846
▁random	-4847
▁greater	-4848
▁smaller	-4849
▁version	-4850
▁straight	-4851
reg	-4852
yle	-4853
▁ly	-4854
▁rid	-4855
▁sou	-4856
ounds	-4857
▁page	-4858
▁trib	-4859
▁Frank	-4860
▁raise	-4861
▁babies	-4862
▁khuyến	-4863
▁financial	-4864
▁fundamental	-4865
RI	-4866
za	-4867
ray	-4868
▁35	-4869
time	-4870
▁App	-4871
▁GPS	-4872
▁MIT	-4873
▁alg	-4874
▁sal	-4875
▁sam	-4876
▁sym	-4877
▁thả	-4878
attle	-4879
cules	-4880
▁sect	-4881
▁uses	-4882
▁costs	-4883
rection	-4884
▁complic	-4885
▁deliver	-4886
▁genetic	-4887
▁bacteria	-4888
▁institut	-4889
▁recognize	-4890
oh	-4891
▁En	-4892
▁eth	-4893
▁hồn	-4894
▁bông	-4895
▁ghét	-4896
▁ngón	-4897
▁port	-4898
▁prep	-4899
▁tỉnh	-4900
uments	-4901
▁older	-4902
▁store	-4903
▁slight	-4904
▁somehow	-4905
▁mir	-4906
▁mập	-4907
▁xứng	-4908
▁yeah	-4909
▁Those	-4910
▁optim	-4911
▁please	-4912
▁surgery	-4913
▁standing	-4914
▁effective	-4915
▁perspective	-4916
▁architecture	-4917
▁cụt	-4918
▁ran	-4919
ables	-4920
ently	-4921
epend	-4922
iring	-4923
prene	-4924
thern	-4925
▁card	-4926
▁swim	-4927
▁Green	-4928
▁forth	-4929
▁throw	-4930
▁thạch	-4931
reprene	-4932
▁achieve	-4933
▁capital	-4934
▁contrib	-4935
▁express	-4936
▁discover	-4937
ortunately	-4938
ợt	-4939
ola	-4940
ffee	-4941
itor	-4942
▁binh	-4943
▁truy	-4944
▁Haiti	-4945
▁board	-4946
▁corru	-4947
▁genes	-4948
▁multi	-4949
▁thánh	-4950
▁biology	-4951
▁fantastic	-4952
▁connection	-4953
▁increasing	-4954
▁electricity	-4955
▁essentially	-4956
raft	-4957
ript	-4958
▁gọn	-4959
ining	-4960
ulner	-4961
urban	-4962
▁Nhìn	-4963
▁giận	-4964
▁phen	-4965
▁phán	-4966
▁quot	-4967
▁levels	-4968
▁willing	-4969
▁organizations	-4970
20	-4971
uf	-4972
▁ạ	-4973
osc	-4974
▁mộ	-4975
lebr	-4976
▁Hôm	-4977
▁Mặt	-4978
▁ign	-4979
▁mal	-4980
acity	-4981
orrow	-4982
▁Somet	-4983
▁cover	-4984
▁thiểu	-4985
▁increase	-4986
▁teaching	-4987
▁production	-4988
▁television	-4989
ef	-4990
na	-4991
uced	-4992
▁Hầu	-4993
▁béo	-4994
▁inh	-4995
▁mạo	-4996
▁From	-4997
▁desp	-4998
▁hước	-4999
▁scan	-5000
▁belief	-5001
▁mobile	-5002
▁police	-5003
▁humanity	-5004
▁remarkable	-5005
sc	-5006
▁à	-5007
oty	-5008
▁Bu	-5009
▁Đã	-5010
▁Sao	-5011
▁bãi	-5012
▁dày	-5013
▁đắn	-5014
iling	-5015
istry	-5016
▁hero	-5017
▁khiếp	-5018
▁associ	-5019
▁robots	-5020
▁standard	-5021
▁following	-5022
▁throughout	-5023
▁organization	-5024
arm	-5025
▁cỗ	-5026
sequ	-5027
▁His	-5028
▁Los	-5029
verse	-5030
▁dinh	-5031
▁hole	-5032
▁bread	-5033
▁price	-5034
▁10,000	-5035
▁Robert	-5036
▁Another	-5037
▁creativity	-5038
▁immediately	-5039
▁international	-5040
ùi	-5041
▁Gl	-5042
▁NA	-5043
▁kí	-5044
▁kẹ	-5045
▁nơ	-5046
oses	-5047
▁mai	-5048
▁tóc	-5049
itude	-5050
▁răng	-5051
▁thuê	-5052
▁tiss	-5053
ission	-5054
▁thiệp	-5055
agement	-5056
▁German	-5057
▁launch	-5058
▁nation	-5059
▁mention	-5060
▁services	-5061
▁dangerous	-5062
▁molecules	-5063
lant	-5064
▁bột	-5065
▁dọc	-5066
▁đốt	-5067
eless	-5068
▁Cent	-5069
▁khát	-5070
▁huyết	-5071
▁trick	-5072
▁Indian	-5073
▁beings	-5074
▁truyện	-5075
▁Nigeria	-5076
▁interview	-5077
ướt	-5078
▁cột	-5079
▁Harv	-5080
▁sequ	-5081
▁star	-5082
▁check	-5083
▁final	-5084
▁giành	-5085
▁useful	-5086
atically	-5087
▁electron	-5088
▁practice	-5089
▁ultimate	-5090
▁engineering	-5091
▁Di	-5092
▁ấm	-5093
arks	-5094
ener	-5095
▁etc	-5096
▁mix	-5097
▁nấu	-5098
▁ord	-5099
▁săn	-5100
▁chẩn	-5101
▁miền	-5102
▁vict	-5103
▁chair	-5104
▁chừng	-5105
▁diagn	-5106
▁match	-5107
▁shared	-5108
▁decades	-5109
▁earlier	-5110
▁strange	-5111
▁environmental	-5112
fl	-5113
▁Lý	-5114
aign	-5115
wood	-5116
▁mát	-5117
▁phó	-5118
▁chai	-5119
▁khóc	-5120
▁ngài	-5121
ashion	-5122
▁dance	-5123
▁coffee	-5124
▁helped	-5125
▁remind	-5126
▁Richard	-5127
▁evolved	-5128
▁military	-5129
▁entreprene	-5130
ýt	-5131
owd	-5132
ỗng	-5133
▁mò	-5134
ancy	-5135
resh	-5136
▁bạc	-5137
▁ngũ	-5138
▁nut	-5139
▁tia	-5140
▁xoá	-5141
▁đài	-5142
▁đĩa	-5143
▁Mart	-5144
▁cust	-5145
▁xong	-5146
▁offic	-5147
▁trứng	-5148
▁whose	-5149
▁encour	-5150
▁histor	-5151
▁rights	-5152
ologists	-5153
▁central	-5154
▁propert	-5155
▁understood	-5156
ams	-5157
▁El	-5158
▁Gh	-5159
▁iPh	-5160
▁mũi	-5161
▁xưa	-5162
▁đốc	-5163
rench	-5164
▁legs	-5165
▁gương	-5166
▁thuần	-5167
▁honest	-5168
▁clearly	-5169
▁comfort	-5170
▁waiting	-5171
▁medicine	-5172
▁condition	-5173
▁Ber	-5174
▁Lan	-5175
▁dad	-5176
▁dai	-5177
▁tur	-5178
arian	-5179
board	-5180
▁2010	-5181
▁dính	-5182
▁hous	-5183
▁rưỡi	-5184
▁trade	-5185
▁celebr	-5186
▁Harvard	-5187
▁choices	-5188
▁nuclear	-5189
▁phenomen	-5190
▁complicated	-5191
▁75	-5192
▁lẻ	-5193
▁Aud	-5194
▁fit	-5195
▁van	-5196
▁Mars	-5197
▁fold	-5198
▁gene	-5199
▁trộn	-5200
▁apply	-5201
▁massive	-5202
▁popular	-5203
▁National	-5204
▁instance	-5205
▁emotional	-5206
▁experiments	-5207
▁bó	-5208
ises	-5209
▁cốc	-5210
▁lộn	-5211
▁vườn	-5212
▁James	-5213
▁autom	-5214
ception	-5215
▁decide	-5216
▁destro	-5217
▁vulner	-5218
▁vaccine	-5219
▁temperature	-5220
af	-5221
iếc	-5222
▁xạ	-5223
iệng	-5224
rees	-5225
▁rào	-5226
▁rắc	-5227
▁xâm	-5228
▁Dere	-5229
▁phổi	-5230
▁shop	-5231
▁task	-5232
▁wood	-5233
cience	-5234
▁drink	-5235
▁oppos	-5236
▁eating	-5237
▁insect	-5238
▁invent	-5239
▁himself	-5240
▁physics	-5241
go	-5242
udd	-5243
▁23	-5244
▁Cơ	-5245
▁Tổ	-5246
▁ir	-5247
iles	-5248
imin	-5249
▁mẩu	-5250
▁nhỉ	-5251
▁ste	-5252
▁hall	-5253
▁Austr	-5254
▁lines	-5255
▁motiv	-5256
▁urban	-5257
▁forget	-5258
▁unique	-5259
▁walked	-5260
▁networks	-5261
▁transport	-5262
▁differences	-5263
▁2.	-5264
▁gà	-5265
load	-5266
reet	-5267
▁Ban	-5268
▁dog	-5269
▁nho	-5270
▁quê	-5271
▁tạm	-5272
▁TEDx	-5273
▁nhấn	-5274
▁thẩm	-5275
▁birds	-5276
▁photo	-5277
▁spect	-5278
▁weren	-5279
▁worry	-5280
▁Middle	-5281
▁highly	-5282
▁values	-5283
▁private	-5284
▁invented	-5285
▁speaking	-5286
▁therefore	-5287
ụi	-5288
ago	-5289
▁194	-5290
▁Min	-5291
▁đáy	-5292
ystem	-5293
▁coun	-5294
▁ngầm	-5295
▁teen	-5296
▁tặng	-5297
though	-5298
▁displ	-5299
▁dying	-5300
▁breast	-5301
▁select	-5302
▁address	-5303
▁streets	-5304
▁cultural	-5305
▁challenges	-5306
▁À	-5307
urd	-5308
aced	-5309
▁Web	-5310
▁bắc	-5311
▁base	-5312
▁lỏng	-5313
▁tree	-5314
icians	-5315
▁party	-5316
▁states	-5317
▁summer	-5318
▁driving	-5319
▁password	-5320
▁spending	-5321
aff	-5322
rel	-5323
iers	-5324
iest	-5325
isms	-5326
uing	-5327
▁cẩn	-5328
▁ném	-5329
▁tuỳ	-5330
▁veh	-5331
▁Đôi	-5332
eases	-5333
ening	-5334
orith	-5335
▁Mark	-5336
▁bạch	-5337
▁town	-5338
▁Times	-5339
▁ahead	-5340
▁range	-5341
▁smell	-5342
▁brings	-5343
▁career	-5344
▁thoảng	-5345
▁wealth	-5346
▁creates	-5347
▁survive	-5348
▁direction	-5349
iot	-5350
oad	-5351
imer	-5352
used	-5353
▁Cực	-5354
▁cốt	-5355
▁dàn	-5356
▁lão	-5357
▁pan	-5358
▁rủi	-5359
▁đón	-5360
▁Giáo	-5361
▁cand	-5362
▁miêu	-5363
▁nhạy	-5364
▁race	-5365
▁symb	-5366
▁term	-5367
atives	-5368
▁stars	-5369
▁vuông	-5370
▁focused	-5371
▁meeting	-5372
▁purpose	-5373
▁inspired	-5374
▁classroom	-5375
ps	-5376
edd	-5377
▁tuệ	-5378
ended	-5379
▁Alex	-5380
▁Many	-5381
▁beat	-5382
▁boys	-5383
▁hiến	-5384
▁hiệp	-5385
▁lapt	-5386
▁laws	-5387
▁pros	-5388
▁Smith	-5389
▁dimens	-5390
▁female	-5391
▁lights	-5392
▁algorith	-5393
▁daughter	-5394
▁neighborhood	-5395
ngu	-5396
▁Mr	-5397
berg	-5398
ceed	-5399
▁mut	-5400
▁hạng	-5401
▁shot	-5402
▁analy	-5403
▁catch	-5404
▁gradu	-5405
▁instr	-5406
▁laugh	-5407
▁miệng	-5408
▁artists	-5409
▁consequ	-5410
▁various	-5411
▁surround	-5412
▁terrible	-5413
azz	-5414
ios	-5415
▁ơi	-5416
odes	-5417
rast	-5418
urch	-5419
▁Bro	-5420
▁Lad	-5421
▁Nor	-5422
▁hẹn	-5423
▁đớn	-5424
▁gent	-5425
▁loss	-5426
▁reve	-5427
▁trắc	-5428
▁đảng	-5429
iation	-5430
▁simpl	-5431
▁worst	-5432
▁iPhone	-5433
▁answers	-5434
▁mathemat	-5435
▁intelligence	-5436
▁99	-5437
▁tò	-5438
here	-5439
uted	-5440
▁Her	-5441
▁gay	-5442
▁hus	-5443
▁đậu	-5444
▁quái	-5445
▁quét	-5446
▁weap	-5447
▁compon	-5448
▁traffic	-5449
▁diseases	-5450
rom	-5451
▁ax	-5452
▁rồ	-5453
▁đố	-5454
athy	-5455
▁Hey	-5456
apped	-5457
▁Have	-5458
▁trôi	-5459
▁Great	-5460
▁cường	-5461
▁enorm	-5462
▁twice	-5463
▁decade	-5464
▁directly	-5465
▁profound	-5466
▁relative	-5467
▁performance	-5468
ato	-5469
ino	-5470
▁Ok	-5471
cing	-5472
olve	-5473
▁Sim	-5474
▁lây	-5475
▁sky	-5476
▁tây	-5477
▁Thậm	-5478
▁fing	-5479
▁male	-5480
▁floor	-5481
▁occur	-5482
▁wheel	-5483
▁Chuyện	-5484
▁causes	-5485
▁flying	-5486
▁target	-5487
▁campaign	-5488
▁capacity	-5489
▁slightly	-5490
▁institutions	-5491
ẻo	-5492
ibr	-5493
▁Ah	-5494
▁bub	-5495
▁ngã	-5496
▁pig	-5497
▁thợ	-5498
▁Chắc	-5499
▁Take	-5500
▁doub	-5501
▁paid	-5502
▁Obama	-5503
▁Paris	-5504
▁Think	-5505
▁basis	-5506
▁below	-5507
▁frame	-5508
▁tuyết	-5509
▁Martin	-5510
▁custom	-5511
▁giường	-5512
▁shares	-5513
▁supply	-5514
▁noticed	-5515
▁greatest	-5516
▁sustainable	-5517
ees	-5518
▁aid	-5519
▁tóm	-5520
▁unc	-5521
order	-5522
▁2007	-5523
▁NASA	-5524
▁Thời	-5525
▁hoại	-5526
▁kiên	-5527
uction	-5528
▁Derek	-5529
▁Giống	-5530
▁Wikip	-5531
▁commer	-5532
▁speech	-5533
▁missing	-5534
▁controll	-5535
lyn	-5536
ager	-5537
ened	-5538
oper	-5539
▁Jon	-5540
▁atm	-5541
▁King	-5542
▁rule	-5543
▁zero	-5544
▁adapt	-5545
▁pengu	-5546
▁mostly	-5547
▁photos	-5548
▁attract	-5549
▁foreign	-5550
▁prevent	-5551
▁stopped	-5552
▁trouble	-5553
lications	-5554
▁Francisco	-5555
▁Mĩ	-5556
orry	-5557
raid	-5558
▁inj	-5559
▁nét	-5560
▁đếm	-5561
▁dram	-5562
▁forg	-5563
▁giày	-5564
▁hằng	-5565
▁quán	-5566
ording	-5567
▁active	-5568
▁dollar	-5569
▁integr	-5570
▁played	-5571
▁journal	-5572
▁independ	-5573
▁produced	-5574
▁philosoph	-5575
ta	-5576
▁22	-5577
▁Sam	-5578
▁amb	-5579
▁dyn	-5580
▁fat	-5581
▁sad	-5582
▁đeo	-5583
anced	-5584
▁Amaz	-5585
▁Nhân	-5586
▁tens	-5587
▁tĩnh	-5588
▁airpl	-5589
▁click	-5590
▁liber	-5591
▁micro	-5592
▁nướng	-5593
▁rough	-5594
▁afraid	-5595
▁volunt	-5596
▁emotion	-5597
▁strength	-5598
▁Wikipedia	-5599
▁published	-5600
▁communicate	-5601
PA	-5602
my	-5603
add	-5604
och	-5605
toc	-5606
▁Cả	-5607
▁ut	-5608
amin	-5609
icon	-5610
▁Jer	-5611
▁Mal	-5612
▁Res	-5613
▁Sun	-5614
▁gói	-5615
▁hứa	-5616
▁khô	-5617
▁leo	-5618
▁Đến	-5619
tocin	-5620
▁Russ	-5621
▁lung	-5622
▁ninh	-5623
▁seed	-5624
▁trạm	-5625
▁Darwin	-5626
▁closer	-5627
▁forces	-5628
ervation	-5629
▁fashion	-5630
▁hearing	-5631
▁possibly	-5632
▁scientist	-5633
▁corruption	-5634
gy	-5635
ole	-5636
▁Te	-5637
▁dò	-5638
aria	-5639
band	-5640
▁Fin	-5641
▁Nob	-5642
▁ing	-5643
▁ver	-5644
▁wis	-5645
▁Kinh	-5646
▁gift	-5647
▁join	-5648
▁tiếc	-5649
▁broad	-5650
▁British	-5651
▁programs	-5652
▁colleagues	-5653
irt	-5654
men	-5655
ota	-5656
▁Na	-5657
▁hô	-5658
izes	-5659
wise	-5660
▁den	-5661
▁joy	-5662
▁lăn	-5663
▁org	-5664
▁Cùng	-5665
▁Khán	-5666
▁Mont	-5667
▁chấn	-5668
▁ngựa	-5669
▁Would	-5670
▁faces	-5671
▁helping	-5672
▁knowing	-5673
▁members	-5674
▁bringing	-5675
▁molecule	-5676
▁religion	-5677
▁conference	-5678
▁leadership	-5679
▁communication	-5680
▁consciousness	-5681
gal	-5682
lim	-5683
cell	-5684
osqu	-5685
▁Bab	-5686
▁2009	-5687
▁appl	-5688
▁bụng	-5689
▁lack	-5690
▁narr	-5691
▁vast	-5692
ession	-5693
ricult	-5694
▁Again	-5695
▁brand	-5696
▁crowd	-5697
▁visit	-5698
▁khuyên	-5699
▁Instead	-5700
▁devices	-5701
▁complexity	-5702
ros	-5703
▁mẻ	-5704
ason	-5705
ears	-5706
▁Eve	-5707
▁Lần	-5708
idden	-5709
▁Adam	-5710
▁YouT	-5711
▁fort	-5712
▁note	-5713
▁poet	-5714
▁accur	-5715
▁feels	-5716
▁recon	-5717
▁shift	-5718
▁Second	-5719
▁divers	-5720
▁oxygen	-5721
▁correct	-5722
ẫm	-5723
mon	-5724
▁hư	-5725
vant	-5726
▁Des	-5727
▁Kết	-5728
▁Ros	-5729
▁ham	-5730
▁hyp	-5731
▁suc	-5732
othes	-5733
▁Stan	-5734
▁fuel	-5735
▁lưng	-5736
aining	-5737
icking	-5738
▁agree	-5739
▁sexual	-5740
rastruct	-5741
▁YouTube	-5742
▁moments	-5743
▁emotions	-5744
▁experiences	-5745
van	-5746
▁tị	-5747
vere	-5748
▁Did	-5749
▁Hội	-5750
▁dán	-5751
▁heo	-5752
▁mãn	-5753
▁tom	-5754
itted	-5755
ufact	-5756
▁Jack	-5757
▁kênh	-5758
▁lệnh	-5759
elling	-5760
▁Steve	-5761
▁parad	-5762
▁phiền	-5763
▁surve	-5764
▁bought	-5765
▁reduce	-5766
▁forever	-5767
▁mission	-5768
▁Actually	-5769
▁significant	-5770
ẫy	-5771
ils	-5772
itz	-5773
ked	-5774
▁lề	-5775
▁Tor	-5776
▁quà	-5777
▁tám	-5778
▁chìm	-5779
▁meas	-5780
▁thói	-5781
▁trần	-5782
▁vinh	-5783
▁Nobel	-5784
▁anyway	-5785
▁spaces	-5786
▁Angeles	-5787
▁degrees	-5788
▁addition	-5789
▁identity	-5790
▁opportunities	-5791
the	-5792
▁Cứ	-5793
▁gã	-5794
▁ép	-5795
aker	-5796
asse	-5797
▁Art	-5798
▁Tal	-5799
▁lâm	-5800
▁mèo	-5801
▁vot	-5802
ester	-5803
▁2005	-5804
▁Nghệ	-5805
▁buôn	-5806
▁park	-5807
▁stem	-5808
▁tung	-5809
ocking	-5810
thetic	-5811
▁block	-5812
▁chăng	-5813
▁khoan	-5814
▁novel	-5815
▁trăng	-5816
artment	-5817
osystem	-5818
▁French	-5819
▁Audience	-5820
▁benefits	-5821
▁opposite	-5822
▁original	-5823
▁background	-5824
▁commercial	-5825
me	-5826
▁US	-5827
▁ức	-5828
▁cúm	-5829
▁gun	-5830
▁hom	-5831
▁kèm	-5832
▁pen	-5833
▁reb	-5834
▁vắc	-5835
▁Talk	-5836
▁hair	-5837
▁inch	-5838
heimer	-5839
▁Carol	-5840
▁fully	-5841
▁newsp	-5842
▁brilli	-5843
▁broken	-5844
▁nearly	-5845
▁therap	-5846
▁insight	-5847
▁restaur	-5848
▁manufact	-5849
▁oxytocin	-5850
▁atmosphere	-5851
▁industrial	-5852
▁infrastruct	-5853
mar	-5854
zen	-5855
▁Rw	-5856
▁dã	-5857
▁hố	-5858
▁va	-5859
wide	-5860
▁Alz	-5861
▁Hoá	-5862
▁Leg	-5863
▁Mon	-5864
▁dao	-5865
▁lãm	-5866
▁1990	-5867
▁Eric	-5868
▁Park	-5869
▁cogn	-5870
▁hỏng	-5871
▁rare	-5872
▁Điển	-5873
▁chick	-5874
▁lucky	-5875
▁Amazon	-5876
▁Trường	-5877
▁colors	-5878
▁metaph	-5879
▁museum	-5880
▁tissue	-5881
▁ancient	-5882
▁argument	-5883
▁Alzheimer	-5884
▁ecosystem	-5885
▁Dĩ	-5886
iger	-5887
oran	-5888
▁Bất	-5889
▁Gia	-5890
▁Lib	-5891
▁bão	-5892
▁quí	-5893
▁tor	-5894
quang	-5895
raham	-5896
▁golf	-5897
▁tour	-5898
▁vote	-5899
encies	-5900
▁crime	-5901
ography	-5902
▁batter	-5903
▁events	-5904
▁lesson	-5905
▁studio	-5906
▁symbol	-5907
▁tremend	-5908
▁mountain	-5909
▁statistics	-5910
fr	-5911
ula	-5912
▁36	-5913
▁gỡ	-5914
▁Bas	-5915
▁Lat	-5916
▁dứt	-5917
▁veg	-5918
riage	-5919
▁burn	-5920
▁heat	-5921
▁ngon	-5922
▁none	-5923
▁puzz	-5924
▁1,000	-5925
▁cheap	-5926
▁magaz	-5927
▁total	-5928
▁advant	-5929
▁consid	-5930
▁corner	-5931
▁easily	-5932
▁passed	-5933
▁sharing	-5934
▁turning	-5935
▁entirely	-5936
▁structures	-5937
▁imagination	-5938
▁importantly	-5939
ợn	-5940
ụt	-5941
▁gõ	-5942
emen	-5943
empt	-5944
hand	-5945
mber	-5946
▁Hig	-5947
▁Nga	-5948
▁cru	-5949
▁exh	-5950
right	-5951
▁Good	-5952
▁giấu	-5953
▁mort	-5954
▁ngọt	-5955
▁mosqu	-5956
▁Street	-5957
▁grandm	-5958
▁switch	-5959
▁studying	-5960
▁landscape	-5961
▁relationships	-5962
oot	-5963
▁dư	-5964
▁xí	-5965
edic	-5966
▁Bao	-5967
▁Joe	-5968
▁lôi	-5969
▁rét	-5970
esome	-5971
▁bees	-5972
▁khao	-5973
▁ship	-5974
▁Peter	-5975
▁Trans	-5976
▁accom	-5977
▁lunch	-5978
▁rapid	-5979
▁altern	-5980
▁sector	-5981
▁workers	-5982
▁agricult	-5983
▁necessary	-5984
▁differently	-5985
mm	-5986
▁ư	-5987
ela	-5988
iff	-5989
irl	-5990
uge	-5991
▁cự	-5992
▁mờ	-5993
▁MRI	-5994
▁Mặc	-5995
▁Tur	-5996
▁cla	-5997
▁cất	-5998
▁hàm	-5999
▁sàn	-6000
based	-6001
▁Hans	-6002
▁More	-6003
▁Over	-6004
▁mệnh	-6005
▁sick	-6006
▁tiệc	-6007
▁trốn	-6008
▁School	-6009
▁resist	-6010
▁husband	-6011
▁matters	-6012
▁although	-6013
ka	-6014
ùm	-6015
iel	-6016
▁27	-6017
reci	-6018
▁See	-6019
▁tax	-6020
oston	-6021
rogen	-6022
ulous	-6023
▁gala	-6024
▁reco	-6025
▁thuế	-6026
▁trưa	-6027
▁wide	-6028
▁grown	-6029
▁mouth	-6030
▁deeply	-6031
▁demand	-6032
ulations	-6033
▁benefit	-6034
▁destroy	-6035
▁justice	-6036
▁require	-6037
▁marketing	-6038
▁suffering	-6039
▁fascinating	-6040
edy	-6041
ius	-6042
ếch	-6043
▁II	-6044
▁600	-6045
▁Gần	-6046
▁bag	-6047
▁hải	-6048
▁mid	-6049
▁tum	-6050
▁tân	-6051
apers	-6052
arter	-6053
icles	-6054
itely	-6055
▁Tony	-6056
▁core	-6057
▁dược	-6058
▁held	-6059
▁pian	-6060
▁repe	-6061
ancing	-6062
▁invis	-6063
▁Palest	-6064
▁laptop	-6065
▁reward	-6066
▁seemed	-6067
▁unlike	-6068
▁window	-6069
▁effects	-6070
▁gentlem	-6071
▁Japanese	-6072
▁majority	-6073
▁–	-6074
equ	-6075
gar	-6076
rain	-6077
ysis	-6078
▁Bức	-6079
▁Sil	-6080
▁Vài	-6081
▁bul	-6082
▁bận	-6083
▁làn	-6084
▁Asia	-6085
▁Swed	-6086
▁chúa	-6087
▁muỗi	-6088
▁sung	-6089
▁xinh	-6090
▁Apple	-6091
▁offer	-6092
▁shoot	-6093
▁trend	-6094
▁Boston	-6095
▁transm	-6096
▁wisdom	-6097
ographic	-6098
▁farmers	-6099
▁volunte	-6100
▁document	-6101
▁Everybody	-6102
▁researchers	-6103
hy	-6104
ih	-6105
ộm	-6106
ads	-6107
▁Ac	-6108
▁CE	-6109
otic	-6110
term	-6111
▁Bal	-6112
▁giơ	-6113
water	-6114
▁ngắm	-6115
▁quát	-6116
▁spot	-6117
▁thổi	-6118
▁bound	-6119
▁climb	-6120
▁legal	-6121
▁shoes	-6122
▁thăng	-6123
▁Rwanda	-6124
▁adults	-6125
▁breath	-6126
▁double	-6127
▁flight	-6128
▁However	-6129
▁illness	-6130
▁leading	-6131
▁regular	-6132
▁European	-6133
▁enormous	-6134
▁internet	-6135
▁definition	-6136
▁responsibility	-6137
val	-6138
▁26	-6139
▁Bo	-6140
vest	-6141
▁Pro	-6142
▁cấm	-6143
▁cụm	-6144
▁fab	-6145
▁Once	-6146
▁Sing	-6147
▁bùng	-6148
▁heav	-6149
▁liều	-6150
▁tast	-6151
▁wear	-6152
orders	-6153
▁equal	-6154
▁paint	-6155
▁proud	-6156
▁thỉnh	-6157
▁genome	-6158
▁gotten	-6159
▁physic	-6160
▁element	-6161
▁extreme	-6162
▁pressure	-6163
▁received	-6164
▁Sometimes	-6165
▁perfectly	-6166
ax	-6167
zy	-6168
atr	-6169
emy	-6170
oca	-6171
▁Mu	-6172
▁Học	-6173
▁Jim	-6174
▁bud	-6175
▁khỉ	-6176
▁lặn	-6177
▁nor	-6178
▁nảy	-6179
▁sơn	-6180
▁sữa	-6181
athan	-6182
attan	-6183
icago	-6184
uries	-6185
▁dáng	-6186
▁epid	-6187
▁glob	-6188
▁lướt	-6189
▁tháp	-6190
▁antib	-6191
▁habit	-6192
▁veget	-6193
▁bridge	-6194
▁remote	-6195
▁Chicago	-6196
▁concent	-6197
▁despite	-6198
▁fighting	-6199
▁diversity	-6200
▁infrastructure	-6201
amb	-6202
▁Fe	-6203
rict	-6204
ucks	-6205
▁250	-6206
▁Haw	-6207
▁ble	-6208
▁bếp	-6209
ropri	-6210
▁1970	-6211
▁Tiếp	-6212
▁cort	-6213
▁cưới	-6214
▁defe	-6215
▁hate	-6216
▁plat	-6217
▁cycle	-6218
▁faith	-6219
▁frequ	-6220
▁round	-6221
▁thính	-6222
▁thịnh	-6223
▁dreams	-6224
▁engage	-6225
▁yellow	-6226
▁drawing	-6227
▁managed	-6228
▁cognitive	-6229
▁governments	-6230
ượn	-6231
▁Cr	-6232
prod	-6233
rupt	-6234
thes	-6235
▁scr	-6236
agers	-6237
atell	-6238
phone	-6239
▁bomb	-6240
▁giam	-6241
▁ngốc	-6242
▁rout	-6243
▁trục	-6244
▁tươi	-6245
ellect	-6246
ifying	-6247
▁stuck	-6248
connect	-6249
▁expand	-6250
▁England	-6251
▁brother	-6252
▁contact	-6253
▁failure	-6254
▁illustr	-6255
▁insects	-6256
▁limited	-6257
▁shouldn	-6258
▁typical	-6259
▁compared	-6260
▁strategy	-6261
▁responsible	-6262
ropy	-6263
▁xóm	-6264
▁1960	-6265
▁Very	-6266
▁cred	-6267
▁embr	-6268
▁host	-6269
▁intu	-6270
▁khôn	-6271
▁pair	-6272
▁thám	-6273
itable	-6274
pected	-6275
▁Charl	-6276
▁calls	-6277
▁enter	-6278
▁quant	-6279
▁thùng	-6280
▁Khoảng	-6281
▁meters	-6282
▁notion	-6283
▁100,000	-6284
▁related	-6285
▁replace	-6286
▁concentr	-6287
▁everyday	-6288
▁negative	-6289
▁childhood	-6290
▁creatures	-6291
▁essential	-6292
▁collective	-6293
▁interaction	-6294
mp	-6295
ida	-6296
pid	-6297
▁Ox	-6298
▁bơ	-6299
cles	-6300
onom	-6301
▁Lin	-6302
▁egg	-6303
▁lõi	-6304
▁pha	-6305
▁phú	-6306
▁sưu	-6307
▁tun	-6308
▁tuý	-6309
▁tắm	-6310
antic	-6311
▁Cộng	-6312
▁Manh	-6313
▁gold	-6314
▁ngập	-6315
▁stim	-6316
▁prior	-6317
▁river	-6318
▁tough	-6319
▁raised	-6320
▁thinks	-6321
▁install	-6322
▁tremendous	-6323
▁possibility	-6324
ij	-6325
▁tủ	-6326
▁cậy	-6327
▁kín	-6328
▁nốt	-6329
▁pet	-6330
▁tal	-6331
elesc	-6332
oking	-6333
▁diet	-6334
▁empt	-6335
▁nàng	-6336
▁thua	-6337
▁Higgs	-6338
▁daily	-6339
▁domin	-6340
▁giant	-6341
▁logic	-6342
▁lường	-6343
▁motor	-6344
▁names	-6345
▁toile	-6346
▁tướng	-6347
▁desire	-6348
▁dinner	-6349
▁satell	-6350
▁sister	-6351
▁versus	-6352
▁balance	-6353
▁billions	-6354
▁describe	-6355
▁previous	-6356
▁intellect	-6357
▁languages	-6358
▁depression	-6359
▁necessarily	-6360
arb	-6361
eph	-6362
▁Bố	-6363
▁cừ	-6364
▁ưa	-6365
ulpt	-6366
▁Bài	-6367
▁Pol	-6368
▁Tes	-6369
▁trà	-6370
eared	-6371
▁Trời	-6372
▁cuộn	-6373
▁nhắm	-6374
▁wire	-6375
▁đuôi	-6376
apping	-6377
▁quãng	-6378
▁subst	-6379
▁thiệt	-6380
▁trượt	-6381
▁incent	-6382
▁sculpt	-6383
▁extract	-6384
▁figured	-6385
▁struggle	-6386
▁Manhattan	-6387
▁advantage	-6388
▁Ú	-6389
aped	-6390
aren	-6391
aser	-6392
ille	-6393
▁alt	-6394
▁bụi	-6395
▁dám	-6396
▁rãi	-6397
▁thẻ	-6398
▁und	-6399
▁Gand	-6400
▁Viện	-6401
▁Wall	-6402
▁nhẫn	-6403
▁nắng	-6404
▁phái	-6405
▁stri	-6406
▁avoid	-6407
▁categ	-6408
▁shock	-6409
▁circum	-6410
▁easier	-6411
▁fairly	-6412
▁opened	-6413
▁voices	-6414
▁compare	-6415
▁married	-6416
ification	-6417
▁biological	-6418
imp	-6419
tle	-6420
▁95	-6421
enty	-6422
thal	-6423
▁Gal	-6424
▁Rập	-6425
▁Wow	-6426
▁fol	-6427
▁rau	-6428
▁Does	-6429
▁iron	-6430
▁meat	-6431
▁opin	-6432
▁Brown	-6433
▁fresh	-6434
▁helps	-6435
▁quote	-6436
▁Thanks	-6437
▁convin	-6438
▁failed	-6439
▁letter	-6440
▁terror	-6441
▁leaving	-6442
▁origami	-6443
▁creation	-6444
▁designer	-6445
▁metaphor	-6446
▁discovery	-6447
▁efficient	-6448
▁entertain	-6449
que	-6450
▁nở	-6451
▁Ôi	-6452
apse	-6453
gypt	-6454
▁Ant	-6455
▁Mic	-6456
▁Rep	-6457
▁Rio	-6458
▁gấu	-6459
▁thô	-6460
▁tit	-6461
eline	-6462
essed	-6463
known	-6464
print	-6465
▁2004	-6466
▁exer	-6467
▁frag	-6468
▁hell	-6469
▁mamm	-6470
▁Congo	-6471
▁Gates	-6472
▁chann	-6473
▁chước	-6474
▁equip	-6475
▁piano	-6476
▁damage	-6477
▁losing	-6478
▁origin	-6479
▁proper	-6480
▁awesome	-6481
▁capable	-6482
▁experts	-6483
▁keeping	-6484
▁studied	-6485
▁succeed	-6486
▁distance	-6487
▁platform	-6488
▁invisible	-6489
▁investment	-6490
ye	-6491
bur	-6492
inc	-6493
cend	-6494
▁Này	-6495
▁Tas	-6496
▁cac	-6497
▁dắt	-6498
▁hầm	-6499
▁mạn	-6500
aling	-6501
inson	-6502
▁Bình	-6503
▁châm	-6504
▁gián	-6505
▁grab	-6506
▁muộn	-6507
▁pock	-6508
▁Could	-6509
▁Egypt	-6510
▁Thông	-6511
▁Willi	-6512
▁homes	-6513
▁surge	-6514
▁weird	-6515
▁aspect	-6516
▁conduct	-6517
▁highest	-6518
▁holding	-6519
▁prototy	-6520
▁radical	-6521
▁wearing	-6522
▁accident	-6523
▁partners	-6524
▁planning	-6525
▁resource	-6526
▁influence	-6527
▁professional	-6528
gin	-6529
▁65	-6530
bert	-6531
▁Fre	-6532
▁Mad	-6533
▁Mah	-6534
▁Mor	-6535
▁due	-6536
▁dãy	-6537
▁toả	-6538
icity	-6539
▁bong	-6540
▁khớp	-6541
▁shel	-6542
forest	-6543
▁begins	-6544
▁commit	-6545
▁hidden	-6546
▁appreci	-6547
▁attempt	-6548
▁believed	-6549
▁feedback	-6550
▁followed	-6551
▁survival	-6552
imensional	-6553
▁characters	-6554
▁electrical	-6555
▁CA	-6556
▁Úc	-6557
▁Del	-6558
▁Dem	-6559
▁Dis	-6560
▁Hơn	-6561
▁Ngo	-6562
▁hòn	-6563
▁lát	-6564
▁lùi	-6565
▁rat	-6566
▁saf	-6567
▁vua	-6568
▁1000	-6569
▁chục	-6570
▁lông	-6571
▁nhãn	-6572
▁phạt	-6573
▁thưa	-6574
ending	-6575
▁Thiên	-6576
▁Tương	-6577
▁liked	-6578
▁moves	-6579
▁tuyển	-6580
vention	-6581
▁Howard	-6582
▁advert	-6583
▁degree	-6584
▁organs	-6585
▁artific	-6586
▁precise	-6587
▁weapons	-6588
▁airplane	-6589
▁Australia	-6590
▁concerned	-6591
▁equipment	-6592
▁dimensions	-6593
▁university	-6594
▁increasingly	-6595
vi	-6596
ướp	-6597
▁32	-6598
▁Số	-6599
▁nọ	-6600
aked	-6601
hold	-6602
▁Hen	-6603
▁Hum	-6604
▁Jan	-6605
▁Thử	-6606
▁Yet	-6607
▁dry	-6608
▁lạm	-6609
cript	-6610
▁chìa	-6611
▁hack	-6612
▁horm	-6613
▁tick	-6614
bridge	-6615
▁2,000	-6616
▁Dương	-6617
▁Yemen	-6618
▁sorry	-6619
▁sugar	-6620
▁thuẫn	-6621
▁users	-6622
entally	-6623
issions	-6624
▁leader	-6625
▁neuros	-6626
▁slowly	-6627
▁killing	-6628
▁planets	-6629
▁watched	-6630
ibilities	-6631
▁investig	-6632
▁soldiers	-6633
▁brilliant	-6634
▁universal	-6635
▁businesses	-6636
▁phenomenon	-6637
▁experienced	-6638
err	-6639
▁Es	-6640
▁lò	-6641
▁Chủ	-6642
▁hệt	-6643
▁múa	-6644
illed	-6645
inist	-6646
uable	-6647
ublic	-6648
▁edge	-6649
▁gard	-6650
▁unex	-6651
▁điêu	-6652
▁Koran	-6653
▁argue	-6654
▁coast	-6655
▁cưỡng	-6656
▁noise	-6657
▁phẳng	-6658
▁sport	-6659
▁facing	-6660
▁harder	-6661
▁elements	-6662
▁magazine	-6663
▁separate	-6664
▁worldwide	-6665
dimensional	-6666
▁associated	-6667
▁construction	-6668
.5	-6669
▁Ke	-6670
▁mỹ	-6671
▁vở	-6672
▁Cha	-6673
▁Hoả	-6674
▁Mục	-6675
▁Rom	-6676
▁mệt	-6677
▁nhở	-6678
▁que	-6679
▁ton	-6680
▁tow	-6681
▁đâm	-6682
owing	-6683
▁2003	-6684
▁Will	-6685
▁dots	-6686
▁horr	-6687
▁mill	-6688
▁ngực	-6689
▁ranh	-6690
▁trấn	-6691
▁Thành	-6692
▁holes	-6693
▁leads	-6694
▁charge	-6695
▁cooper	-6696
▁corpor	-6697
▁desert	-6698
▁fellow	-6699
▁transp	-6700
▁diction	-6701
▁factory	-6702
▁kilomet	-6703
▁mothers	-6704
▁finished	-6705
▁surprise	-6706
▁perception	-6707
▁competition	-6708
tr	-6709
ban	-6710
ênh	-6711
▁Hệ	-6712
▁Tự	-6713
eral	-6714
▁Bur	-6715
▁Ice	-6716
▁Rem	-6717
▁bút	-6718
▁đồi	-6719
olves	-6720
▁1950	-6721
▁1980	-6722
▁agre	-6723
▁copy	-6724
▁shut	-6725
▁susp	-6726
▁tail	-6727
▁tháo	-6728
ildren	-6729
▁Brian	-6730
▁Chiếc	-6731
▁Latin	-6732
▁Women	-6733
▁aging	-6734
▁Tasman	-6735
▁bright	-6736
▁shapes	-6737
▁spectr	-6738
▁trained	-6739
▁valuable	-6740
▁constantly	-6741
▁distribution	-6742
▁transformation	-6743
de	-6744
osm	-6745
uls	-6746
▁Ug	-6747
izza	-6748
mark	-6749
▁Nha	-6750
▁bớt	-6751
▁chở	-6752
▁flo	-6753
▁gap	-6754
▁mấu	-6755
▁odd	-6756
▁pow	-6757
▁vải	-6758
▁đới	-6759
▁Bush	-6760
▁Each	-6761
▁Ngài	-6762
▁acad	-6763
▁band	-6764
▁gánh	-6765
▁harm	-6766
▁king	-6767
▁purs	-6768
▁quad	-6769
▁rural	-6770
▁sympt	-6771
▁battle	-6772
▁leaves	-6773
▁manage	-6774
▁strang	-6775
▁cartoon	-6776
▁letters	-6777
▁markets	-6778
▁organic	-6779
▁suggests	-6780
▁according	-6781
▁described	-6782
▁religious	-6783
▁surprised	-6784
▁expression	-6785
▁ultimately	-6786
ita	-6787
oft	-6788
▁nợ	-6789
▁rễ	-6790
▁sứ	-6791
▁ồn	-6792
iban	-6793
tech	-6794
▁120	-6795
▁Tin	-6796
▁cow	-6797
▁cối	-6798
▁hoả	-6799
▁kịp	-6800
▁đực	-6801
itals	-6802
▁2006	-6803
▁moon	-6804
▁recy	-6805
▁root	-6806
▁thâm	-6807
ushing	-6808
▁Chiến	-6809
▁crack	-6810
▁duyệt	-6811
▁mouse	-6812
▁perce	-6813
▁finish	-6814
▁nghiện	-6815
▁pounds	-6816
▁refuge	-6817
▁stream	-6818
▁counter	-6819
▁theater	-6820
▁virtual	-6821
▁normally	-6822
▁ordinary	-6823
▁currently	-6824
▁operating	-6825
▁passionate	-6826
nam	-6827
▁28	-6828
life	-6829
▁Cập	-6830
▁Ser	-6831
▁mỏi	-6832
▁pal	-6833
asion	-6834
▁clip	-6835
▁grav	-6836
▁thôn	-6837
▁whom	-6838
idents	-6839
▁horse	-6840
▁khiếm	-6841
▁astron	-6842
▁belong	-6843
▁gather	-6844
▁interp	-6845
▁curious	-6846
▁invited	-6847
▁malaria	-6848
▁mosquit	-6849
▁station	-6850
▁weather	-6851
▁Stanford	-6852
▁election	-6853
▁penguins	-6854
▁Cambridge	-6855
▁engineers	-6856
▁seriously	-6857
▁considered	-6858
▁comfortable	-6859
▁consequences	-6860
,5	-6861
isf	-6862
mas	-6863
set	-6864
vis	-6865
▁Dự	-6866
▁Hà	-6867
lymp	-6868
▁Det	-6869
▁hip	-6870
▁hưu	-6871
▁ráp	-6872
alley	-6873
celer	-6874
iques	-6875
▁Long	-6876
▁Loại	-6877
▁Quan	-6878
▁adop	-6879
▁exch	-6880
▁fell	-6881
▁grid	-6882
▁hãng	-6883
▁khôi	-6884
▁khơi	-6885
▁nhặt	-6886
▁peak	-6887
▁soil	-6888
▁trip	-6889
atures	-6890
ipping	-6891
▁Ghana	-6892
▁Tiếng	-6893
▁facts	-6894
▁khẳng	-6895
iration	-6896
▁Oxford	-6897
▁closed	-6898
▁cutting	-6899
▁details	-6900
▁setting	-6901
▁cultures	-6902
▁multiple	-6903
▁pleasure	-6904
▁property	-6905
▁chemistry	-6906
▁civilization	-6907
ộp	-6908
▁Tu	-6909
aret	-6910
yrus	-6911
▁LED	-6912
▁Mac	-6913
▁rom	-6914
acing	-6915
itute	-6916
▁Hàng	-6917
▁date	-6918
▁hadn	-6919
▁hasn	-6920
▁lock	-6921
ulated	-6922
▁While	-6923
▁empty	-6924
▁exhib	-6925
▁ngoan	-6926
▁smile	-6927
▁steps	-6928
▁cacbon	-6929
▁caused	-6930
▁houses	-6931
▁microb	-6932
▁paying	-6933
▁stupid	-6934
▁marriage	-6935
▁tomorrow	-6936
▁economics	-6937
▁president	-6938
▁wondering	-6939
▁generations	-6940
▁photographs	-6941
hol	-6942
ume	-6943
osis	-6944
uous	-6945
zing	-6946
▁Tốt	-6947
▁dol	-6948
▁fan	-6949
▁lật	-6950
▁ves	-6951
▁Ford	-6952
▁Hiệp	-6953
▁Hình	-6954
▁khúc	-6955
▁liqu	-6956
▁manh	-6957
▁migr	-6958
▁rung	-6959
▁vibr	-6960
itness	-6961
▁Olymp	-6962
▁chart	-6963
▁grade	-6964
▁humor	-6965
▁indic	-6966
▁lưỡng	-6967
▁nhiếp	-6968
▁plane	-6969
▁Uganda	-6970
▁caught	-6971
▁frustr	-6972
▁safety	-6973
▁official	-6974
▁unfortunately	-6975
ja	-6976
én	-6977
agh	-6978
▁FG	-6979
▁SW	-6980
▁Vi	-6981
onds	-6982
prof	-6983
rete	-6984
▁195	-6985
▁Ple	-6986
▁cừu	-6987
▁fed	-6988
▁lat	-6989
▁mâu	-6990
▁phì	-6991
▁vây	-6992
craft	-6993
ipped	-6994
lands	-6995
▁2011	-6996
▁bone	-6997
▁chip	-6998
▁disp	-6999
▁puts	-7000
▁user	-7001
▁địch	-7002
making	-7003
urally	-7004
▁3,000	-7005
▁Henry	-7006
▁awful	-7007
▁lifet	-7008
▁scene	-7009
▁walls	-7010
▁driver	-7011
▁pollen	-7012
▁article	-7013
▁courage	-7014
▁equival	-7015
▁sources	-7016
▁appropri	-7017
▁clinical	-7018
▁feelings	-7019
▁identify	-7020
▁hopefully	-7021
▁algorithms	-7022
▁artificial	-7023
▁specifically	-7024
-1	-7025
ns	-7026
lle	-7027
min	-7028
ươn	-7029
▁bọ	-7030
atar	-7031
ests	-7032
rove	-7033
▁cup	-7034
▁gan	-7035
▁god	-7036
▁tha	-7037
▁Josh	-7038
▁Life	-7039
▁Mand	-7040
▁Toàn	-7041
▁arms	-7042
▁cosm	-7043
▁myth	-7044
▁phím	-7045
ensity	-7046
▁Arist	-7047
▁Their	-7048
▁inner	-7049
▁pages	-7050
▁sweet	-7051
oration	-7052
▁Thượng	-7053
▁attach	-7054
▁fourth	-7055
▁phones	-7056
▁prefer	-7057
▁regret	-7058
▁signal	-7059
▁unless	-7060
▁Taliban	-7061
▁battery	-7062
▁display	-7063
▁opening	-7064
▁treated	-7065
▁warming	-7066
▁analysis	-7067
▁engineer	-7068
▁location	-7069
▁Everything	-7070
ốm	-7071
ano	-7072
eng	-7073
irm	-7074
cast	-7075
cipl	-7076
down	-7077
▁Mat	-7078
▁Syr	-7079
▁Thổ	-7080
▁Tim	-7081
▁rắn	-7082
▁sắt	-7083
neath	-7084
oster	-7085
▁Bank	-7086
▁Bệnh	-7087
▁hurt	-7088
▁jazz	-7089
▁lawy	-7090
▁pure	-7091
▁reci	-7092
▁warm	-7093
▁đoan	-7094
illing	-7095
▁Three	-7096
▁colon	-7097
▁limit	-7098
▁sight	-7099
▁bubble	-7100
▁filled	-7101
▁ingred	-7102
▁review	-7103
▁vessel	-7104
▁videos	-7105
▁arrived	-7106
▁entropy	-7107
▁musical	-7108
▁released	-7109
▁whenever	-7110
▁hospitals	-7111
▁interface	-7112
▁collection	-7113
▁importance	-7114
▁entrepreneurs	-7115
hai	-7116
▁Ap	-7117
▁Rõ	-7118
▁ju	-7119
Talk	-7120
▁Quá	-7121
▁Red	-7122
▁dẻo	-7123
▁era	-7124
▁hẹp	-7125
▁sạn	-7126
▁sốc	-7127
▁tần	-7128
▁đàm	-7129
▁2001	-7130
▁Gold	-7131
▁Jose	-7132
▁Ngân	-7133
▁arts	-7134
▁bits	-7135
▁cere	-7136
▁mush	-7137
▁myst	-7138
▁nurs	-7139
▁tang	-7140
▁chain	-7141
▁concl	-7142
▁honor	-7143
▁pizza	-7144
▁uncle	-7145
▁debate	-7146
▁define	-7147
▁grandf	-7148
▁liquid	-7149
▁master	-7150
▁nghịch	-7151
▁reform	-7152
▁Aristot	-7153
▁TEDTalk	-7154
▁contain	-7155
▁covered	-7156
▁empathy	-7157
▁nations	-7158
▁partner	-7159
▁circumst	-7160
▁printing	-7161
▁molecular	-7162
▁democratic	-7163
▁relatively	-7164
▁grandmother	-7165
▁politicians	-7166
jo	-7167
rs	-7168
ằn	-7169
bre	-7170
icy	-7171
omb	-7172
sey	-7173
▁33	-7174
▁fu	-7175
iors	-7176
oons	-7177
tain	-7178
▁Bên	-7179
▁Sub	-7180
▁Tên	-7181
▁bơm	-7182
▁cạn	-7183
▁cởi	-7184
▁dải	-7185
▁eld	-7186
▁lận	-7187
▁lợn	-7188
▁pil	-7189
▁đáo	-7190
ograp	-7191
▁Come	-7192
▁Port	-7193
▁evil	-7194
▁Thiết	-7195
▁fewer	-7196
▁goods	-7197
▁laser	-7198
▁negot	-7199
▁quiet	-7200
▁solid	-7201
itarian	-7202
▁buying	-7203
▁toilet	-7204
▁sending	-7205
▁affected	-7206
▁otherwise	-7207
▁psychology	-7208
▁unexpected	-7209
uk	-7210
acle	-7211
elly	-7212
iber	-7213
▁Bảo	-7214
▁Bắt	-7215
▁Day	-7216
▁Sah	-7217
▁Tan	-7218
▁fal	-7219
▁fle	-7220
▁gam	-7221
▁hem	-7222
▁qui	-7223
▁rửa	-7224
▁đạc	-7225
▁Coca	-7226
▁Khoa	-7227
▁Kore	-7228
▁Mill	-7229
▁Nghe	-7230
▁asks	-7231
▁dish	-7232
▁dogs	-7233
▁lift	-7234
▁qual	-7235
▁scen	-7236
▁soph	-7237
ension	-7238
▁Holly	-7239
▁Islam	-7240
▁cuồng	-7241
▁grass	-7242
▁heavy	-7243
▁metal	-7244
▁prove	-7245
▁spoke	-7246
▁Center	-7247
▁analog	-7248
▁chocol	-7249
▁inform	-7250
▁Germany	-7251
▁Neander	-7252
▁acceler	-7253
▁players	-7254
▁testing	-7255
▁vehicle	-7256
▁victims	-7257
▁absolute	-7258
▁construct	-7259
▁designers	-7260
▁emissions	-7261
▁gentlemen	-7262
▁mortality	-7263
▁practical	-7264
▁principle	-7265
▁equivalent	-7266
▁techniques	-7267
▁transition	-7268
▁connections	-7269
AR	-7270
ini	-7271
oom	-7272
▁Ju	-7273
▁ga	-7274
agen	-7275
arah	-7276
bles	-7277
itan	-7278
uits	-7279
▁cắm	-7280
point	-7281
▁Tình	-7282
▁bear	-7283
▁hồng	-7284
▁khói	-7285
▁treo	-7286
▁weak	-7287
lement	-7288
▁dolph	-7289
▁forced	-7290
▁picked	-7291
▁dynamic	-7292
▁singing	-7293
▁birthday	-7294
▁contract	-7295
▁thoughts	-7296
▁convinced	-7297
▁newspaper	-7298
▁underneath	-7299
▁independent	-7300
▁Âm	-7301
aled	-7302
care	-7303
kins	-7304
thur	-7305
wich	-7306
▁Vir	-7307
▁gối	-7308
▁phr	-7309
▁spl	-7310
opher	-7311
▁Nord	-7312
▁acqu	-7313
▁mảng	-7314
▁rein	-7315
▁soul	-7316
▁trân	-7317
▁vĩnh	-7318
▁Found	-7319
▁brief	-7320
▁pregn	-7321
▁topic	-7322
▁Please	-7323
▁bottle	-7324
▁island	-7325
▁khuyết	-7326
▁patent	-7327
▁severe	-7328
▁sharks	-7329
▁status	-7330
▁Abraham	-7331
▁calling	-7332
▁organisms	-7333
▁organized	-7334
▁vulnerable	-7335
▁consumption	-7336
ati	-7337
box	-7338
▁MT	-7339
oved	-7340
▁Cop	-7341
▁Dân	-7342
▁Lar	-7343
▁Wal	-7344
▁bow	-7345
▁cắp	-7346
▁lie	-7347
▁mak	-7348
▁vẹn	-7349
▁đạn	-7350
being	-7351
sters	-7352
▁Flor	-7353
▁Stew	-7354
▁coal	-7355
▁lady	-7356
▁libr	-7357
▁lệch	-7358
▁nerv	-7359
▁resc	-7360
ateful	-7361
terday	-7362
▁heads	-7363
▁rates	-7364
▁stood	-7365
▁Atlant	-7366
▁Daniel	-7367
▁Micros	-7368
▁toward	-7369
▁falling	-7370
▁microsc	-7371
▁release	-7372
▁signals	-7373
▁launched	-7374
▁rational	-7375
▁reaction	-7376
▁employees	-7377
▁intellectual	-7378
etr	-7379
▁0.	-7380
▁Amy	-7381
▁Hàn	-7382
▁Int	-7383
▁Ray	-7384
▁Tex	-7385
▁bia	-7386
▁bắp	-7387
▁ide	-7388
▁kẹo	-7389
▁mòn	-7390
▁tox	-7391
anted	-7392
▁Gree	-7393
▁Lego	-7394
▁Stud	-7395
▁chín	-7396
▁drag	-7397
▁flat	-7398
▁jail	-7399
▁ride	-7400
▁vươn	-7401
▁khoái	-7402
▁serve	-7403
▁shame	-7404
▁staff	-7405
▁blocks	-7406
▁credit	-7407
▁exists	-7408
▁khuynh	-7409
▁medium	-7410
▁poetry	-7411
▁trials	-7412
▁promise	-7413
▁roughly	-7414
▁worried	-7415
▁mistakes	-7416
▁requires	-7417
▁invention	-7418
▁introduced	-7419
▁alternative	-7420
yo	-7421
ễu	-7422
car	-7423
eak	-7424
foot	-7425
uses	-7426
well	-7427
▁Bay	-7428
▁Bon	-7429
▁CEO	-7430
▁Chà	-7431
▁Máy	-7432
▁bọc	-7433
▁dọn	-7434
▁kẹt	-7435
▁lấp	-7436
▁uns	-7437
▁whe	-7438
▁đai	-7439
estic	-7440
▁Last	-7441
▁Part	-7442
▁abst	-7443
▁bath	-7444
▁buýt	-7445
▁gain	-7446
▁giãn	-7447
▁isol	-7448
▁lũng	-7449
▁mỏng	-7450
▁unus	-7451
▁wave	-7452
olving	-7453
vember	-7454
▁Cyrus	-7455
▁Texas	-7456
▁false	-7457
▁huyền	-7458
▁khiêu	-7459
▁minim	-7460
▁notes	-7461
▁quyên	-7462
▁risks	-7463
▁circle	-7464
▁cortex	-7465
▁gender	-7466
inations	-7467
▁Florida	-7468
▁transpl	-7469
▁epidemic	-7470
▁exercise	-7471
▁infected	-7472
▁lifetime	-7473
▁proteins	-7474
▁relevant	-7475
▁sentence	-7476
▁Aristotle	-7477
▁producing	-7478
▁technical	-7479
▁components	-7480
▁principles	-7481
▁restaurant	-7482
▁effectively	-7483
▁intelligent	-7484
▁possibilities	-7485
wa	-7486
òm	-7487
den	-7488
zed	-7489
▁Hi	-7490
▁PM	-7491
▁nề	-7492
▁ve	-7493
▁đỗ	-7494
irty	-7495
▁191	-7496
▁Jew	-7497
▁Nơi	-7498
▁Phụ	-7499
▁Van	-7500
▁Ven	-7501
▁lic	-7502
▁mọc	-7503
▁nit	-7504
▁rập	-7505
▁trú	-7506
▁vay	-7507
▁xám	-7508
etics	-7509
place	-7510
▁2050	-7511
▁Mike	-7512
▁cave	-7513
▁cướp	-7514
▁ille	-7515
▁init	-7516
▁lies	-7517
▁màng	-7518
▁shad	-7519
▁tall	-7520
▁tuân	-7521
▁tông	-7522
▁wars	-7523
action	-7524
anging	-7525
urance	-7526
▁Steph	-7527
▁folks	-7528
▁ideal	-7529
▁north	-7530
▁saved	-7531
▁advice	-7532
▁fright	-7533
▁lifest	-7534
▁chicken	-7535
▁nervous	-7536
▁expected	-7537
▁mushroom	-7538
▁subjects	-7539
▁Microsoft	-7540
▁chocolate	-7541
▁interpret	-7542
▁sophistic	-7543
▁grandfather	-7544
▁participate	-7545
cut	-7546
osa	-7547
▁85	-7548
▁Kn	-7549
▁hã	-7550
▁lờ	-7551
olds	-7552
▁Kev	-7553
▁Law	-7554
▁Sat	-7555
▁pip	-7556
▁ten	-7557
▁tựa	-7558
erves	-7559
itual	-7560
lying	-7561
opard	-7562
umber	-7563
▁Gulf	-7564
▁Tiến	-7565
▁inev	-7566
▁ngừa	-7567
▁roof	-7568
▁thắc	-7569
▁wine	-7570
enture	-7571
porary	-7572
▁Count	-7573
▁Scott	-7574
▁State	-7575
▁occup	-7576
▁Democr	-7577
▁Sweden	-7578
▁candid	-7579
▁fields	-7580
▁forgot	-7581
▁former	-7582
▁telesc	-7583
▁Britain	-7584
▁defined	-7585
▁silence	-7586
▁abstract	-7587
▁existing	-7588
▁encourage	-7589
▁mentioned	-7590
▁narrative	-7591
▁processes	-7592
▁profession	-7593
▁protection	-7594
▁mathematics	-7595
▁circumstances	-7596
DA	-7597
aze	-7598
bed	-7599
eda	-7600
yan	-7601
ịnh	-7602
▁bá	-7603
▁vé	-7604
abol	-7605
ardo	-7606
icip	-7607
iled	-7608
uary	-7609
▁Bos	-7610
▁Jes	-7611
▁Rev	-7612
▁Som	-7613
▁cựu	-7614
▁dot	-7615
▁dâm	-7616
▁sôi	-7617
▁đợt	-7618
▁Bron	-7619
▁Jeff	-7620
▁Mình	-7621
▁chăn	-7622
▁kiệt	-7623
▁poly	-7624
▁scar	-7625
▁Since	-7626
▁Tuyệt	-7627
▁added	-7628
▁doubt	-7629
▁error	-7630
▁flash	-7631
▁manip	-7632
▁shall	-7633
▁thằng	-7634
▁Sahara	-7635
▁budget	-7636
▁deeper	-7637
▁flower	-7638
▁scared	-7639
lication	-7640
▁Charlie	-7641
▁earthqu	-7642
▁fiction	-7643
▁generate	-7644
▁framework	-7645
▁definitely	-7646
▁personally	-7647
▁environments	-7648
BM	-7649
▁ồ	-7650
alu	-7651
▁55	-7652
▁Bi	-7653
▁CD	-7654
▁DV	-7655
▁dở	-7656
▁mồ	-7657
▁Đa	-7658
abil	-7659
cons	-7660
rane	-7661
roit	-7662
▁700	-7663
▁Den	-7664
▁Lạp	-7665
▁Pat	-7666
▁chợ	-7667
▁ske	-7668
atson	-7669
earch	-7670
erent	-7671
ingly	-7672
ucing	-7673
uther	-7674
▁Rock	-7675
▁Scot	-7676
▁Sinh	-7677
▁bike	-7678
▁hoài	-7679
▁lect	-7680
▁poem	-7681
▁pump	-7682
▁thép	-7683
▁unit	-7684
source	-7685
▁Black	-7686
▁claim	-7687
▁films	-7688
▁polio	-7689
▁south	-7690
▁thoái	-7691
▁tumor	-7692
▁Watson	-7693
▁fortun	-7694
▁satisf	-7695
▁senses	-7696
▁Detroit	-7697
▁Indones	-7698
▁capture	-7699
▁depends	-7700
▁dramatic	-7701
▁emerging	-7702
▁internal	-7703
▁sequence	-7704
▁Hollywood	-7705
▁designing	-7706
▁introduce	-7707
▁mountains	-7708
▁passwords	-7709
▁economists	-7710
▁management	-7711
▁meaningful	-7712
▁percentage	-7713
bl	-7714
idi	-7715
ien	-7716
org	-7717
zan	-7718
▁Da	-7719
hyth	-7720
▁Kir	-7721
▁dạo	-7722
▁dốc	-7723
▁mồi	-7724
▁nar	-7725
alled	-7726
inder	-7727
▁Comm	-7728
▁Nước	-7729
▁anti	-7730
▁bill	-7731
▁hạch	-7732
▁nose	-7733
▁pray	-7734
▁seat	-7735
▁spin	-7736
▁tons	-7737
athers	-7738
encing	-7739
profit	-7740
▁aston	-7741
▁chose	-7742
▁cương	-7743
▁nhàng	-7744
▁sites	-7745
▁vượng	-7746
▁Arthur	-7747
▁Norden	-7748
▁factor	-7749
▁motion	-7750
▁movies	-7751
▁remain	-7752
▁ritual	-7753
▁string	-7754
▁consist	-7755
▁engaged	-7756
▁lessons	-7757
▁operate	-7758
▁selling	-7759
▁accurate	-7760
▁carrying	-7761
▁hydrogen	-7762
▁stronger	-7763
▁centuries	-7764
▁professor	-7765
▁convention	-7766
▁innovative	-7767
▁kilometers	-7768
EC	-7769
uh	-7770
bel	-7771
oug	-7772
▁37	-7773
▁Kể	-7774
▁Op	-7775
▁Sl	-7776
▁Us	-7777
▁mỉ	-7778
▁đẻ	-7779
Cola	-7780
ctic	-7781
gets	-7782
whel	-7783
▁Bob	-7784
▁Bác	-7785
▁Hải	-7786
▁Kim	-7787
▁Lee	-7788
▁mel	-7789
▁nén	-7790
ament	-7791
ansas	-7792
force	-7793
▁Girl	-7794
▁Gore	-7795
▁Wolf	-7796
▁chua	-7797
▁chúc	-7798
▁ends	-7799
▁khéo	-7800
▁mười	-7801
▁sees	-7802
▁Điểm	-7803
asters	-7804
▁cents	-7805
▁estab	-7806
▁estim	-7807
▁layer	-7808
▁poore	-7809
▁ridic	-7810
▁sides	-7811
ulating	-7812
▁Muslim	-7813
▁facial	-7814
▁member	-7815
▁oceans	-7816
▁poster	-7817
▁applied	-7818
▁forests	-7819
▁intense	-7820
▁opinion	-7821
▁rapidly	-7822
▁regions	-7823
▁reverse	-7824
▁unusual	-7825
▁witness	-7826
▁antibiot	-7827
▁constant	-7828
▁explains	-7829
▁Indonesia	-7830
▁awareness	-7831
▁carefully	-7832
▁chemicals	-7833
▁disappear	-7834
▁interests	-7835
▁particles	-7836
▁confidence	-7837
TC	-7838
ũi	-7839
ari	-7840
bes	-7841
igm	-7842
anch	-7843
ican	-7844
know	-7845
utes	-7846
▁800	-7847
▁Bre	-7848
▁Quý	-7849
▁bấy	-7850
▁nav	-7851
▁pho	-7852
▁rot	-7853
burgh	-7854
icing	-7855
iture	-7856
throp	-7857
▁Pres	-7858
▁Tổng	-7859
▁Zeal	-7860
▁boat	-7861
▁dũng	-7862
▁fake	-7863
▁item	-7864
▁nhầm	-7865
▁rebu	-7866
▁trật	-7867
▁vang	-7868
▁xăng	-7869
itchen	-7870
lessly	-7871
▁Bronx	-7872
▁Grand	-7873
▁barri	-7874
▁devil	-7875
▁eleph	-7876
▁teeth	-7877
ressive	-7878
▁Nghiên	-7879
▁Singap	-7880
▁compar	-7881
▁hoping	-7882
▁nghiệt	-7883
▁option	-7884
▁sample	-7885
▁solved	-7886
▁Rosling	-7887
▁funding	-7888
▁primary	-7889
▁privile	-7890
▁solving	-7891
▁variety	-7892
▁collapse	-7893
▁disaster	-7894
▁exchange	-7895
▁graduate	-7896
▁overwhel	-7897
▁sandwich	-7898
▁spectrum	-7899
▁tracking	-7900
▁wondered	-7901
▁economies	-7902
▁traveling	-7903
▁behavioral	-7904
▁instrument	-7905
▁philosophy	-7906
▁fundamentally	-7907
▁manufacturing	-7908
MA	-7909
bb	-7910
iat	-7911
mad	-7912
▁Ro	-7913
▁bù	-7914
bors	-7915
cest	-7916
eras	-7917
eron	-7918
ihad	-7919
▁Air	-7920
▁Bel	-7921
▁Eth	-7922
▁Hel	-7923
▁Lou	-7924
▁chả	-7925
▁dat	-7926
▁ens	-7927
▁nát	-7928
▁sem	-7929
abled	-7930
aters	-7931
lines	-7932
▁Also	-7933
▁Four	-7934
▁dial	-7935
▁judg	-7936
▁muối	-7937
▁tiễn	-7938
▁Thánh	-7939
osition	-7940
▁Design	-7941
▁Russia	-7942
▁explan	-7943
▁joined	-7944
▁regard	-7945
▁Iceland	-7946
▁Islamic	-7947
▁Congress	-7948
▁grateful	-7949
▁memories	-7950
▁messages	-7951
▁sunlight	-7952
▁swimming	-7953
▁Singapore	-7954
▁typically	-7955
▁destruction	-7956
▁collaboration	-7957
▁transportation	-7958
di	-7959
esh	-7960
met	-7961
ona	-7962
ora	-7963
pha	-7964
ums	-7965
▁29	-7966
▁Ty	-7967
▁võ	-7968
▁đẽ	-7969
aded	-7970
mers	-7971
pped	-7972
ront	-7973
▁Jac	-7974
▁bìa	-7975
▁hôi	-7976
▁mày	-7977
▁nêu	-7978
▁row	-7979
▁xíu	-7980
amine	-7981
andon	-7982
iency	-7983
reenh	-7984
▁bách	-7985
▁elev	-7986
▁orch	-7987
▁phác	-7988
▁xích	-7989
rovers	-7990
▁Brook	-7991
▁Syria	-7992
▁bombs	-7993
▁fears	-7994
▁inequ	-7995
▁plans	-7996
▁thick	-7997
▁Shakes	-7998
▁assign	-7999
▁clouds	-8000
▁height	-8001
▁reprod	-8002
▁stands	-8003
▁winter	-8004
▁worlds	-8005
ographer	-8006
▁Project	-8007
▁Stewart	-8008
▁Zealand	-8009
▁combine	-8010
▁gravity	-8011
▁include	-8012
▁mistake	-8013
▁contrast	-8014
▁prepared	-8015
BC	-8016
gie	-8017
obs	-8018
oto	-8019
▁31	-8020
▁Ra	-8021
▁đà	-8022
cher	-8023
onia	-8024
onym	-8025
▁Dep	-8026
▁Sal	-8027
▁adj	-8028
▁gác	-8029
▁lúa	-8030
▁nản	-8031
▁pun	-8032
▁sen	-8033
▁shr	-8034
▁tea	-8035
▁thổ	-8036
agram	-8037
chair	-8038
eding	-8039
▁cổng	-8040
▁giặt	-8041
▁mere	-8042
▁neut	-8043
▁refr	-8044
▁runs	-8045
▁snow	-8046
▁tank	-8047
▁cyber	-8048
▁input	-8049
▁skill	-8050
▁steel	-8051
▁xưởng	-8052
▁Island	-8053
▁ancest	-8054
▁greenh	-8055
▁hunger	-8056
▁ladies	-8057
▁length	-8058
▁player	-8059
chnology	-8060
▁William	-8061
▁actions	-8062
▁authent	-8063
▁channel	-8064
▁dealing	-8065
▁confront	-8066
▁consumer	-8067
▁computing	-8068
▁lifestyle	-8069
▁operation	-8070
▁satellite	-8071
▁Foundation	-8072
▁earthquake	-8073
▁transformed	-8074
ae	-8075
cks	-8076
ena	-8077
net	-8078
pes	-8079
rey	-8080
war	-8081
▁Ky	-8082
▁nụ	-8083
▁ur	-8084
ogue	-8085
opia	-8086
what	-8087
▁Bol	-8088
▁mer	-8089
▁rig	-8090
▁unh	-8091
▁xôi	-8092
▁đền	-8093
▁ếch	-8094
organ	-8095
orter	-8096
peare	-8097
ville	-8098
▁Blue	-8099
▁Sant	-8100
▁cure	-8101
▁flag	-8102
▁frog	-8103
▁gall	-8104
▁hunt	-8105
▁loop	-8106
▁lượt	-8107
▁maps	-8108
▁soạn	-8109
▁thầm	-8110
▁trộm	-8111
imeter	-8112
stream	-8113
ternal	-8114
▁Chile	-8115
▁Other	-8116
▁resil	-8117
▁teams	-8118
▁whist	-8119
▁Andrew	-8120
▁Gandhi	-8121
▁autism	-8122
▁driven	-8123
▁fabric	-8124
▁mirror	-8125
▁negoti	-8126
▁accompl	-8127
▁amounts	-8128
▁comment	-8129
▁dancing	-8130
▁factors	-8131
▁flowers	-8132
▁parking	-8133
▁Carolina	-8134
▁astronom	-8135
▁concrete	-8136
▁Institute	-8137
▁behaviors	-8138
▁collected	-8139
▁mechanism	-8140
▁movements	-8141
▁neighbors	-8142
▁radiation	-8143
▁spiritual	-8144
▁yesterday	-8145
▁department	-8146
▁discussion	-8147
▁Shakespeare	-8148
▁applications	-8149
▁entrepreneur	-8150
▁conversations	-8151
ủa	-8152
obi	-8153
via	-8154
▁Ol	-8155
▁rẽ	-8156
adic	-8157
keep	-8158
resp	-8159
weet	-8160
▁Cor	-8161
▁DVD	-8162
▁Hoà	-8163
▁Kar	-8164
▁Mil	-8165
▁Pac	-8166
▁agg	-8167
▁bee	-8168
▁bin	-8169
▁ren	-8170
▁Lang	-8171
▁Only	-8172
▁Pole	-8173
▁Time	-8174
▁bare	-8175
▁eggs	-8176
▁hide	-8177
▁joke	-8178
▁loud	-8179
▁milk	-8180
▁prem	-8181
▁Đồng	-8182
arrass	-8183
▁Gener	-8184
▁Laden	-8185
▁Power	-8186
▁Tưởng	-8187
▁atoms	-8188
▁frank	-8189
▁label	-8190
▁memor	-8191
▁navig	-8192
▁obser	-8193
▁plays	-8194
▁reven	-8195
▁tests	-8196
▁Joshua	-8197
▁Virgin	-8198
▁critic	-8199
▁khoáng	-8200
▁proced	-8201
▁autonom	-8202
▁burning	-8203
▁cameras	-8204
▁circuit	-8205
▁cooking	-8206
▁harvest	-8207
▁convince	-8208
▁instinct	-8209
▁somewhat	-8210
▁symptoms	-8211
▁Christmas	-8212
▁authority	-8213
▁determine	-8214
▁footprint	-8215
▁generally	-8216
▁increased	-8217
▁Revolution	-8218
▁collecting	-8219
▁productive	-8220
▁agriculture	-8221
▁appropriate	-8222
▁sophisticated	-8223
NC	-8224
mit	-8225
tit	-8226
ờng	-8227
▁vỗ	-8228
appy	-8229
osph	-8230
▁Ram	-8231
▁Tem	-8232
▁Trẻ	-8233
▁gũi	-8234
▁hét	-8235
▁reh	-8236
▁súc	-8237
▁wel	-8238
level	-8239
▁1900	-8240
▁1930	-8241
▁busy	-8242
▁bỗng	-8243
▁dict	-8244
▁foss	-8245
▁nano	-8246
▁suit	-8247
▁trán	-8248
▁trừu	-8249
iminal	-8250
▁goals	-8251
▁shell	-8252
▁Joseph	-8253
▁Lester	-8254
▁Nobody	-8255
▁clever	-8256
▁pulled	-8257
▁storyt	-8258
▁survey	-8259
▁thanks	-8260
▁Montana	-8261
▁borders	-8262
▁empower	-8263
▁illegal	-8264
▁samples	-8265
▁therapy	-8266
▁unknown	-8267
abilities	-8268
connected	-8269
▁Everyone	-8270
▁apparent	-8271
▁identical	-8272
▁technique	-8273
▁controlled	-8274
▁foundation	-8275
▁represents	-8276
▁situations	-8277
▁wheelchair	-8278
▁entertainment	-8279
ẳm	-8280
ugg	-8281
▁Bh	-8282
▁Sk	-8283
▁lơ	-8284
oked	-8285
over	-8286
roph	-8287
▁Eas	-8288
▁Hom	-8289
▁Jay	-8290
▁Mag	-8291
▁Nan	-8292
▁dội	-8293
▁fro	-8294
▁gìn	-8295
▁lân	-8296
pring	-8297
stand	-8298
▁Coll	-8299
▁Miss	-8300
▁bicy	-8301
▁bold	-8302
▁brib	-8303
▁chợt	-8304
▁desk	-8305
▁furn	-8306
▁hits	-8307
▁obst	-8308
▁plus	-8309
▁wake	-8310
ilding	-8311
ortion	-8312
rition	-8313
▁Prize	-8314
▁dense	-8315
▁horiz	-8316
▁keeps	-8317
▁pound	-8318
▁signs	-8319
▁stere	-8320
▁stret	-8321
▁Before	-8322
▁Health	-8323
▁Yorker	-8324
▁arrest	-8325
▁church	-8326
▁devast	-8327
▁garden	-8328
▁mainly	-8329
▁reject	-8330
etically	-8331
▁however	-8332
▁options	-8333
▁hypothes	-8334
▁romantic	-8335
▁animation	-8336
▁arguments	-8337
▁continent	-8338
▁embarrass	-8339
▁spreading	-8340
▁activities	-8341
▁processing	-8342
▁transplant	-8343
▁implications	-8344
▁+	-8345
ila	-8346
nia	-8347
▁Đi	-8348
▁ốc	-8349
agos	-8350
▁IBM	-8351
▁Med	-8352
▁Ted	-8353
▁bẩn	-8354
▁fif	-8355
▁hóc	-8356
▁lều	-8357
▁mad	-8358
▁sáo	-8359
▁tím	-8360
▁2002	-8361
▁Chào	-8362
▁Mary	-8363
▁Sept	-8364
▁asse	-8365
▁fert	-8366
▁gest	-8367
▁mộng	-8368
▁phun	-8369
▁ring	-8370
▁rỗng	-8371
▁sets	-8372
▁suic	-8373
ctions	-8374
icious	-8375
▁Kevin	-8376
▁Nghĩa	-8377
▁angry	-8378
▁globe	-8379
▁opera	-8380
▁steal	-8381
▁storm	-8382
▁tráng	-8383
▁xướng	-8384
▁Newton	-8385
▁boring	-8386
▁contem	-8387
▁offers	-8388
▁pocket	-8389
▁stayed	-8390
▁writer	-8391
▁Science	-8392
▁Silicon	-8393
▁Stephen	-8394
▁implant	-8395
▁metabol	-8396
▁overall	-8397
▁stretch	-8398
▁viruses	-8399
▁download	-8400
▁Basically	-8401
▁President	-8402
▁September	-8403
▁implement	-8404
▁measuring	-8405
▁sensitive	-8406
▁greenhouse	-8407
▁laboratory	-8408
▁advertising	-8409
▁challenging	-8410
OL	-8411
ux	-8412
ras	-8413
ris	-8414
▁Vo	-8415
▁rô	-8416
▁rũ	-8417
▁xỉ	-8418
asks	-8419
cont	-8420
hour	-8421
orus	-8422
tery	-8423
▁---	-8424
▁Gen	-8425
▁Giá	-8426
▁Lew	-8427
▁Pop	-8428
▁asp	-8429
▁bấm	-8430
▁gar	-8431
▁irr	-8432
▁luỹ	-8433
▁mim	-8434
▁mến	-8435
▁độn	-8436
acles	-8437
arant	-8438
▁Carl	-8439
▁High	-8440
▁Jane	-8441
▁beet	-8442
▁diss	-8443
▁flex	-8444
▁lánh	-8445
▁ment	-8446
▁nồng	-8447
▁ruồi	-8448
▁thin	-8449
▁thẳm	-8450
▁trig	-8451
▁Điện	-8452
▁5,000	-8453
▁Jesus	-8454
▁River	-8455
▁admit	-8456
▁phase	-8457
▁truck	-8458
▁upper	-8459
▁50,000	-8460
▁Phương	-8461
▁conver	-8462
▁divide	-8463
▁immune	-8464
▁nurses	-8465
▁owners	-8466
▁rating	-8467
▁replic	-8468
▁sphere	-8469
▁suffer	-8470
▁breathe	-8471
▁centers	-8472
▁command	-8473
▁discipl	-8474
▁embrace	-8475
▁tonight	-8476
▁allowing	-8477
▁brothers	-8478
▁distinct	-8479
▁horrible	-8480
▁vaccines	-8481
▁conflicts	-8482
▁existence	-8483
▁explained	-8484
▁religions	-8485
▁conclusion	-8486
▁physically	-8487
▁antibiotics	-8488
▁combination	-8489
▁inspiration	-8490
▁potentially	-8491
ima	-8492
nel	-8493
vas	-8494
▁mổ	-8495
▁sô	-8496
▁đệ	-8497
▁ốm	-8498
abin	-8499
ette	-8500
illa	-8501
umin	-8502
viol	-8503
▁Boy	-8504
▁Lak	-8505
▁Lấy	-8506
▁McC	-8507
▁Rad	-8508
▁Tam	-8509
▁alb	-8510
▁bes	-8511
▁chẽ	-8512
▁cài	-8513
▁sắm	-8514
▁vit	-8515
▁vụn	-8516
hythm	-8517
ictor	-8518
scale	-8519
▁Bern	-8520
▁Zimb	-8521
▁acts	-8522
▁chôn	-8523
▁cord	-8524
▁cous	-8525
▁cược	-8526
▁cống	-8527
▁exec	-8528
▁mượn	-8529
▁quặc	-8530
▁wash	-8531
lation	-8532
▁broke	-8533
▁digit	-8534
▁elder	-8535
▁grain	-8536
▁quyến	-8537
▁remem	-8538
▁sheep	-8539
▁stock	-8540
▁thumb	-8541
▁thung	-8542
▁wings	-8543
▁Anyway	-8544
▁Museum	-8545
▁formed	-8546
▁repair	-8547
▁closely	-8548
▁designs	-8549
▁kitchen	-8550
▁painful	-8551
▁instruct	-8552
▁apartment	-8553
▁continued	-8554
▁insurance	-8555
▁prototype	-8556
▁uncertain	-8557
▁incentives	-8558
▁literature	-8559
▁underwater	-8560
▁astonishing	-8561
▁mathematical	-8562
-2	-8563
BI	-8564
ca	-8565
xim	-8566
▁44	-8567
▁BJ	-8568
▁Sĩ	-8569
▁ah	-8570
▁cọ	-8571
▁hò	-8572
▁nô	-8573
aven	-8574
case	-8575
erry	-8576
gent	-8577
ingu	-8578
plom	-8579
rors	-8580
utch	-8581
▁Ann	-8582
▁Ham	-8583
▁Met	-8584
▁Sus	-8585
▁hãm	-8586
▁raw	-8587
akers	-8588
erial	-8589
isher	-8590
opath	-8591
quare	-8592
▁Five	-8593
▁Hell	-8594
▁Hill	-8595
▁News	-8596
▁Next	-8597
▁diox	-8598
▁mãnh	-8599
▁ngẫm	-8600
▁nhào	-8601
▁nhạt	-8602
▁outc	-8603
▁rush	-8604
▁thấm	-8605
▁tort	-8606
▁wise	-8607
iosity	-8608
isters	-8609
titles	-8610
▁About	-8611
▁clock	-8612
▁coral	-8613
▁dedic	-8614
▁liver	-8615
▁lying	-8616
▁ought	-8617
▁recyc	-8618
▁refer	-8619
▁taste	-8620
▁20,000	-8621
▁Disney	-8622
▁Valley	-8623
▁acknow	-8624
▁aftern	-8625
▁deaths	-8626
▁desper	-8627
▁diplom	-8628
▁galaxy	-8629
▁handle	-8630
▁perman	-8631
▁phosph	-8632
▁phrase	-8633
▁season	-8634
▁whales	-8635
▁Perhaps	-8636
▁careful	-8637
▁collaps	-8638
▁dropped	-8639
▁fingers	-8640
▁younger	-8641
▁Republic	-8642
▁Research	-8643
▁agencies	-8644
▁transfer	-8645
▁diagnosed	-8646
▁establish	-8647
▁naturally	-8648
▁properties	-8649
▁vulnerability	-8650
do	-8651
tô	-8652
cil	-8653
iev	-8654
ivi	-8655
see	-8656
▁WK	-8657
▁đc	-8658
▁ẩm	-8659
etch	-8660
iday	-8661
ione	-8662
ocal	-8663
▁Get	-8664
▁Qua	-8665
▁Roy	-8666
▁Wil	-8667
▁bám	-8668
▁mat	-8669
▁meg	-8670
▁quạ	-8671
▁rub	-8672
▁tap	-8673
ician	-8674
lobal	-8675
worth	-8676
▁Bell	-8677
▁Give	-8678
▁Jord	-8679
▁Leon	-8680
▁List	-8681
▁Love	-8682
▁bias	-8683
▁ears	-8684
▁vạch	-8685
▁vịnh	-8686
arency	-8687
ietnam	-8688
▁Antar	-8689
▁Delhi	-8690
▁Union	-8691
▁chrom	-8692
▁faced	-8693
▁hotel	-8694
▁judge	-8695
▁prost	-8696
▁roads	-8697
▁songs	-8698
▁theme	-8699
▁uncom	-8700
▁Nguyên	-8701
▁Victor	-8702
▁frozen	-8703
▁neuron	-8704
▁spoken	-8705
▁Eastern	-8706
▁Mandela	-8707
▁Wolfram	-8708
▁advance	-8709
▁attacks	-8710
▁classes	-8711
▁equally	-8712
▁feature	-8713
▁finance	-8714
▁frankly	-8715
▁mystery	-8716
▁offered	-8717
▁outcome	-8718
▁reached	-8719
▁records	-8720
▁violent	-8721
▁visible	-8722
▁windows	-8723
▁academic	-8724
▁advanced	-8725
▁recorded	-8726
▁Palestine	-8727
▁component	-8728
▁providing	-8729
▁controvers	-8730
▁dictionary	-8731
▁efficiency	-8732
▁distributed	-8733
eo	-8734
ani	-8735
bal	-8736
nik	-8737
▁38	-8738
▁46	-8739
▁48	-8740
▁CP	-8741
▁SM	-8742
▁Si	-8743
▁dỗ	-8744
▁km	-8745
▁ôm	-8746
ague	-8747
enda	-8748
etti	-8749
gend	-8750
hile	-8751
icks	-8752
ifer	-8753
lete	-8754
opes	-8755
usal	-8756
yard	-8757
ylon	-8758
▁Nhĩ	-8759
▁ben	-8760
▁dop	-8761
▁ped	-8762
▁sét	-8763
▁ván	-8764
▁xăm	-8765
▁Jill	-8766
▁Walk	-8767
▁giọt	-8768
▁gray	-8769
▁knee	-8770
▁pill	-8771
▁tack	-8772
▁vert	-8773
asseng	-8774
owered	-8775
struct	-8776
▁Bible	-8777
▁Giọng	-8778
▁Hawai	-8779
▁Peace	-8780
▁curve	-8781
▁dress	-8782
▁pharm	-8783
▁plate	-8784
▁seeds	-8785
▁shake	-8786
▁stack	-8787
▁tribe	-8788
▁Wright	-8789
▁acting	-8790
▁defend	-8791
▁encoun	-8792
▁heroes	-8793
▁portra	-8794
▁puzzle	-8795
▁relate	-8796
▁retire	-8797
▁Vietnam	-8798
▁cheaper	-8799
▁chromos	-8800
▁clothes	-8801
▁conserv	-8802
▁happier	-8803
▁largely	-8804
▁passeng	-8805
▁sensors	-8806
▁whereas	-8807
▁Scotland	-8808
▁refriger	-8809
▁required	-8810
▁furniture	-8811
▁selection	-8812
▁contribute	-8813
▁volunteers	-8814
▁educational	-8815
eps	-8816
pet	-8817
rah	-8818
▁JH	-8819
▁Ku	-8820
▁Tư	-8821
▁lỡ	-8822
▁mỳ	-8823
▁tê	-8824
▁vờ	-8825
abet	-8826
aran	-8827
burg	-8828
utan	-8829
zler	-8830
▁Che	-8831
▁Cur	-8832
▁Net	-8833
▁Sức	-8834
▁Ten	-8835
▁Tre	-8836
▁ath	-8837
▁hur	-8838
▁kìa	-8839
▁nếp	-8840
▁tuỷ	-8841
▁đóm	-8842
elson	-8843
field	-8844
icked	-8845
icted	-8846
onald	-8847
osaur	-8848
stage	-8849
▁1999	-8850
▁2030	-8851
▁Budd	-8852
▁Cons	-8853
▁Kenn	-8854
▁Loài	-8855
▁acid	-8856
▁army	-8857
▁club	-8858
▁hiếp	-8859
▁logo	-8860
▁lùng	-8861
▁lồng	-8862
▁mươi	-8863
▁surf	-8864
▁tube	-8865
▁xuân	-8866
▁Đảng	-8867
osaurs	-8868
usions	-8869
yright	-8870
▁Clint	-8871
▁Moore	-8872
▁White	-8873
▁blank	-8874
▁flood	-8875
▁likes	-8876
▁shark	-8877
▁whale	-8878
▁Đường	-8879
▁France	-8880
▁Johnny	-8881
▁Julian	-8882
▁assume	-8883
▁deploy	-8884
▁elimin	-8885
▁fossil	-8886
▁hearts	-8887
▁hungry	-8888
▁latest	-8889
▁nhường	-8890
▁papers	-8891
▁surely	-8892
▁thượng	-8893
▁worker	-8894
▁existed	-8895
▁methods	-8896
▁pushing	-8897
▁receive	-8898
▁touched	-8899
▁equation	-8900
▁pregnant	-8901
▁presence	-8902
▁traveled	-8903
▁vehicles	-8904
▁Parkinson	-8905
▁Subtitles	-8906
▁afternoon	-8907
▁elections	-8908
▁functions	-8909
▁intuitive	-8910
▁statement	-8911
▁strangers	-8912
▁Transcript	-8913
▁engagement	-8914
▁fascinated	-8915
▁historical	-8916
GO	-8917
HA	-8918
tt	-8919
ava	-8920
nic	-8921
▁Ev	-8922
▁mi	-8923
anes	-8924
anny	-8925
okes	-8926
ooth	-8927
rous	-8928
▁Far	-8929
▁Mir	-8930
▁Tah	-8931
▁hụt	-8932
▁lam	-8933
▁ron	-8934
▁tựu	-8935
edded	-8936
house	-8937
irect	-8938
iters	-8939
itors	-8940
mates	-8941
▁Cháu	-8942
▁cast	-8943
▁chằm	-8944
▁iPod	-8945
▁leap	-8946
▁mail	-8947
▁móng	-8948
▁pool	-8949
▁ruột	-8950
▁sacr	-8951
▁tape	-8952
Global	-8953
▁Human	-8954
▁angle	-8955
▁beach	-8956
▁boxes	-8957
▁compl	-8958
▁datab	-8959
▁enemy	-8960
▁initi	-8961
▁kiêng	-8962
▁walks	-8963
▁waves	-8964
▁yield	-8965
▁Thường	-8966
▁adoles	-8967
▁button	-8968
▁chuông	-8969
▁drives	-8970
▁multip	-8971
▁remove	-8972
▁Central	-8973
▁Finally	-8974
▁Teszler	-8975
▁evening	-8976
▁extinct	-8977
▁housing	-8978
▁nowhere	-8979
▁achieved	-8980
▁concepts	-8981
▁criminal	-8982
▁district	-8983
▁maintain	-8984
▁meetings	-8985
▁obsessed	-8986
▁occasion	-8987
▁stations	-8988
▁Alexander	-8989
▁Tasmanian	-8990
▁destroyed	-8991
▁pollution	-8992
▁accessible	-8993
▁healthcare	-8994
▁ingredients	-8995
▁photography	-8996
▁conservation	-8997
▁evolutionary	-8998
▁interactions	-8999
200	-9000
gly	-9001
ups	-9002
uts	-9003
vey	-9004
▁Du	-9005
▁Os	-9006
▁rã	-9007
▁uy	-9008
▁Đo	-9009
aeda	-9010
fish	-9011
illy	-9012
mble	-9013
olar	-9014
▁000	-9015
▁Aug	-9016
▁Jud	-9017
▁Mom	-9018
▁Syl	-9019
▁Tay	-9020
▁Unf	-9021
▁Văn	-9022
▁bướ	-9023
▁lui	-9024
▁léo	-9025
openh	-9026
▁1984	-9027
▁Cont	-9028
▁Fort	-9029
▁Giai	-9030
▁Giải	-9031
▁Hung	-9032
▁Play	-9033
▁Star	-9034
▁blow	-9035
▁lăng	-9036
▁lưỡi	-9037
▁tivi	-9038
veness	-9039
▁crash	-9040
▁fixed	-9041
▁huynh	-9042
▁infin	-9043
▁jihad	-9044
▁pitch	-9045
▁proof	-9046
▁proto	-9047
▁split	-9048
forward	-9049
inction	-9050
▁Argent	-9051
▁Copenh	-9052
▁Fellow	-9053
▁Intern	-9054
▁assist	-9055
▁border	-9056
▁extent	-9057
▁heaven	-9058
▁inject	-9059
▁interf	-9060
▁limits	-9061
▁narrow	-9062
▁spinal	-9063
▁tribes	-9064
▁volume	-9065
▁bicycle	-9066
▁charity	-9067
▁guarant	-9068
▁license	-9069
▁quarter	-9070
▁scratch	-9071
▁Virginia	-9072
▁breaking	-9073
▁dopamine	-9074
▁mosquito	-9075
▁outcomes	-9076
▁wherever	-9077
▁Christian	-9078
▁TEDGlobal	-9079
▁customers	-9080
▁increases	-9081
▁Copenhagen	-9082
▁commitment	-9083
▁journalist	-9084
▁exploration	-9085
▁interactive	-9086
▁successfully	-9087
▁technological	-9088
ado	-9089
asm	-9090
isy	-9091
rid	-9092
▁Wa	-9093
▁mỡ	-9094
▁ox	-9095
bits	-9096
irds	-9097
lims	-9098
uity	-9099
▁Mur	-9100
▁Six	-9101
▁Sky	-9102
▁Thì	-9103
▁Tác	-9104
▁aim	-9105
▁bon	-9106
▁bóc	-9107
▁bốc	-9108
▁der	-9109
▁gor	-9110
▁vứt	-9111
▁đúc	-9112
cence	-9113
eness	-9114
stone	-9115
think	-9116
▁Beij	-9117
▁Ethi	-9118
▁Nick	-9119
▁Rand	-9120
▁Thưa	-9121
▁chọc	-9122
▁cock	-9123
▁hoãn	-9124
▁icon	-9125
▁ngẩn	-9126
▁võng	-9127
▁đôla	-9128
Americ	-9129
▁Julia	-9130
▁Lewis	-9131
▁Ngoài	-9132
▁Qatar	-9133
▁Super	-9134
▁absor	-9135
▁advoc	-9136
▁banks	-9137
▁hemis	-9138
▁hoành	-9139
▁luồng	-9140
▁polar	-9141
▁tight	-9142
imately	-9143
related	-9144
▁Econom	-9145
▁Nathan	-9146
▁Nelson	-9147
▁Really	-9148
▁behave	-9149
▁eradic	-9150
▁explos	-9151
▁needle	-9152
▁plenty	-9153
▁signed	-9154
▁silent	-9155
▁January	-9156
▁airport	-9157
▁causing	-9158
▁classic	-9159
▁decline	-9160
▁disturb	-9161
▁library	-9162
▁poorest	-9163
▁wanting	-9164
▁captured	-9165
▁embedded	-9166
▁morality	-9167
▁reaching	-9168
▁trillion	-9169
▁classical	-9170
▁describes	-9171
▁precisely	-9172
▁protected	-9173
▁reference	-9174
▁appreciate	-9175
▁populations	-9176
▁dramatically	-9177
▁Unfortunately	-9178
ni	-9179
ât	-9180
Sah	-9181
cal	-9182
hop	-9183
pro	-9184
sec	-9185
▁Up	-9186
▁ái	-9187
agon	-9188
oman	-9189
rawn	-9190
xies	-9191
▁10-	-9192
▁350	-9193
▁Chị	-9194
▁Cần	-9195
▁Hợp	-9196
▁Mod	-9197
▁Ush	-9198
▁ate	-9199
▁gậy	-9200
▁lắc	-9201
▁ngớ	-9202
▁đậm	-9203
usive	-9204
▁Bước	-9205
▁Camp	-9206
▁Luật	-9207
▁Matt	-9208
▁Moon	-9209
▁Nico	-9210
▁Quay	-9211
▁ants	-9212
▁chap	-9213
▁chớp	-9214
▁kiss	-9215
▁lets	-9216
▁nhóc	-9217
▁zoom	-9218
hammad	-9219
inistr	-9220
usalem	-9221
▁Alpha	-9222
▁court	-9223
▁decre	-9224
▁drone	-9225
▁fluid	-9226
▁innoc	-9227
▁khiêm	-9228
▁toler	-9229
▁tries	-9230
▁triệt	-9231
▁Tanzan	-9232
▁oldest	-9233
▁sports	-9234
▁spring	-9235
▁struck	-9236
▁tested	-9237
▁abandon	-9238
▁conclud	-9239
▁constit	-9240
▁dioxide	-9241
▁feeding	-9242
▁imaging	-9243
▁orchest	-9244
▁regener	-9245
▁savings	-9246
▁section	-9247
▁surgeon	-9248
▁Brooklyn	-9249
▁Muhammad	-9250
▁appeared	-9251
▁combined	-9252
▁occurred	-9253
▁villages	-9254
ologically	-9255
▁Jerusalem	-9256
▁instantly	-9257
▁presented	-9258
▁inequality	-9259
▁mechanical	-9260
▁application	-9261
▁instruments	-9262
▁conventional	-9263
▁participants	-9264
▁sustainability	-9265
CA	-9266
ba	-9267
ẽn	-9268
▁Ừ	-9269
cel	-9270
iny	-9271
ửng	-9272
▁Sn	-9273
▁Uy	-9274
▁bê	-9275
▁ub	-9276
airs	-9277
imal	-9278
lies	-9279
oust	-9280
rich	-9281
roke	-9282
tail	-9283
ulse	-9284
▁Moz	-9285
▁coc	-9286
▁dịp	-9287
▁gon	-9288
▁Đơn	-9289
▁Đấy	-9290
▁Đứa	-9291
aving	-9292
ennis	-9293
inate	-9294
rence	-9295
while	-9296
xiety	-9297
▁2012	-9298
▁Dian	-9299
▁Doug	-9300
▁Jenn	-9301
▁June	-9302
▁Turn	-9303
▁Việt	-9304
▁ages	-9305
▁biom	-9306
▁bull	-9307
▁file	-9308
▁gạch	-9309
▁pour	-9310
▁đoạt	-9311
called	-9312
unning	-9313
▁Sarah	-9314
▁abund	-9315
▁colum	-9316
▁flour	-9317
▁rooms	-9318
▁title	-9319
erences	-9320
ription	-9321
▁Columb	-9322
▁Nature	-9323
▁Sylvia	-9324
▁agenda	-9325
▁appeal	-9326
▁crying	-9327
▁genius	-9328
▁intrig	-9329
▁invite	-9330
▁lovely	-9331
▁placed	-9332
▁slides	-9333
aneously	-9334
▁appears	-9335
▁comprom	-9336
▁consume	-9337
▁prosper	-9338
▁speaker	-9339
▁suicide	-9340
▁unclear	-9341
▁Children	-9342
▁Palestin	-9343
▁cartoons	-9344
▁disorder	-9345
▁galaxies	-9346
▁measured	-9347
▁speakers	-9348
▁algorithm	-9349
▁household	-9350
▁inspiring	-9351
▁teenagers	-9352
▁translate	-9353
▁optimistic	-9354
▁performing	-9355
▁rainforest	-9356
▁surrounded	-9357
▁institution	-9358
▁expectations	-9359
▁International	-9360
RA	-9361
sp	-9362
bru	-9363
rol	-9364
▁Cá	-9365
▁rỉ	-9366
▁ấu	-9367
aire	-9368
east	-9369
fast	-9370
hips	-9371
oing	-9372
quar	-9373
uyến	-9374
▁Hir	-9375
▁Mel	-9376
▁Mer	-9377
▁NGO	-9378
▁Vật	-9379
▁Xem	-9380
▁bầy	-9381
▁ghê	-9382
▁gom	-9383
▁hận	-9384
▁tro	-9385
cohol	-9386
flies	-9387
izoph	-9388
otion	-9389
ounce	-9390
▁Bert	-9391
▁Phot	-9392
▁Sand	-9393
▁cake	-9394
▁cens	-9395
▁dang	-9396
▁rely	-9397
▁tatt	-9398
▁thắt	-9399
▁zone	-9400
▁Động	-9401
▁đuối	-9402
▁ương	-9403
ivered	-9404
▁4,000	-9405
▁House	-9406
▁Jones	-9407
▁Leban	-9408
▁accum	-9409
▁apple	-9410
▁cards	-9411
▁chest	-9412
▁dozen	-9413
▁khoăn	-9414
▁nghẽn	-9415
▁ngưng	-9416
▁nhiễu	-9417
▁Bosnia	-9418
▁Mother	-9419
▁Zimbab	-9420
▁agreed	-9421
▁chuyền	-9422
▁drones	-9423
▁missed	-9424
▁rising	-9425
▁scenar	-9426
▁thrown	-9427
▁beliefs	-9428
▁divided	-9429
▁efforts	-9430
▁figures	-9431
▁herself	-9432
▁imagery	-9433
▁privacy	-9434
▁remains	-9435
▁sensory	-9436
▁Remember	-9437
▁northern	-9438
▁paradigm	-9439
▁celebrate	-9440
▁copyright	-9441
▁dinosaurs	-9442
▁exploring	-9443
▁intention	-9444
▁resistance	-9445
▁demonstrate	-9446
▁explanation	-9447
▁represented	-9448
wr	-9449
ECD	-9450
PTC	-9451
aks	-9452
erd	-9453
opa	-9454
▁42	-9455
▁72	-9456
▁AK	-9457
▁Ir	-9458
▁bể	-9459
▁bồ	-9460
▁na	-9461
oton	-9462
▁130	-9463
▁192	-9464
▁Ell	-9465
▁Khá	-9466
▁Les	-9467
▁Nat	-9468
▁Quỹ	-9469
▁Sir	-9470
▁hít	-9471
▁mầm	-9472
▁quỷ	-9473
▁sed	-9474
▁tam	-9475
▁vòi	-9476
▁vội	-9477
adesh	-9478
ading	-9479
allow	-9480
capes	-9481
class	-9482
eters	-9483
itory	-9484
▁Chưa	-9485
▁Math	-9486
▁OECD	-9487
▁Ross	-9488
▁Show	-9489
▁beer	-9490
▁fool	-9491
▁hamb	-9492
▁lens	-9493
▁pupp	-9494
▁reli	-9495
▁tiệm	-9496
▁ugly	-9497
▁điền	-9498
arents	-9499
ommend	-9500
ournal	-9501
▁Ushah	-9502
▁album	-9503
▁bones	-9504
▁champ	-9505
▁depth	-9506
▁fifth	-9507
▁grows	-9508
▁orbit	-9509
▁pilot	-9510
▁pione	-9511
▁smoke	-9512
▁weigh	-9513
Saharan	-9514
iveness	-9515
▁Venice	-9516
▁evolve	-9517
▁finger	-9518
▁halluc	-9519
▁intent	-9520
▁locked	-9521
▁orange	-9522
▁reveal	-9523
▁sticks	-9524
▁thiêng	-9525
▁Babylon	-9526
▁Muslims	-9527
▁anxiety	-9528
▁balloon	-9529
▁corresp	-9530
▁granted	-9531
▁neither	-9532
▁removed	-9533
▁Zimbabwe	-9534
▁director	-9535
▁distract	-9536
▁dolphins	-9537
▁illusion	-9538
▁imagined	-9539
▁minister	-9540
▁properly	-9541
▁schizoph	-9542
▁unlikely	-9543
▁Greenland	-9544
▁curiosity	-9545
▁depending	-9546
▁practices	-9547
▁sculpture	-9548
▁standards	-9549
▁affordable	-9550
▁connecting	-9551
▁expectancy	-9552
▁functional	-9553
▁microscope	-9554
▁struggling	-9555
▁presentation	-9556
▁surprisingly	-9557
ali	-9558
aza	-9559
ema	-9560
▁UC	-9561
▁sọ	-9562
▁vả	-9563
▁xé	-9564
bing	-9565
cred	-9566
mbly	-9567
oded	-9568
osen	-9569
roid	-9570
rome	-9571
▁Acc	-9572
▁Bud	-9573
▁Est	-9574
▁Men	-9575
▁Nhờ	-9576
▁Trở	-9577
▁ink	-9578
▁ngư	-9579
▁nhủ	-9580
▁nón	-9581
▁đốm	-9582
achel	-9583
alian	-9584
berry	-9585
esity	-9586
ierra	-9587
isons	-9588
power	-9589
pping	-9590
riend	-9591
▁Hành	-9592
▁Phát	-9593
▁axis	-9594
▁boom	-9595
▁cafe	-9596
▁canh	-9597
▁cats	-9598
▁debt	-9599
▁flew	-9600
▁gien	-9601
▁nets	-9602
▁phốt	-9603
engine	-9604
ounced	-9605
▁Broad	-9606
▁Phòng	-9607
▁Santa	-9608
▁chaos	-9609
▁crops	-9610
▁flies	-9611
▁hydro	-9612
▁nhánh	-9613
▁reson	-9614
▁scary	-9615
▁sheet	-9616
▁spell	-9617
▁vital	-9618
▁youth	-9619
iminals	-9620
through	-9621
▁August	-9622
▁attrib	-9623
▁branch	-9624
▁chosen	-9625
▁combat	-9626
▁ignore	-9627
▁paraly	-9628
▁richer	-9629
▁rocket	-9630
▁stages	-9631
▁Clinton	-9632
▁Nothing	-9633
▁Somalia	-9634
▁alcohol	-9635
▁aspects	-9636
▁concert	-9637
▁letting	-9638
▁raising	-9639
▁vessels	-9640
▁Jonathan	-9641
▁Ushahidi	-9642
▁baseball	-9643
▁contains	-9644
▁returned	-9645
▁shopping	-9646
▁breathing	-9647
▁consumers	-9648
▁delivered	-9649
▁depressed	-9650
▁generated	-9651
▁musicians	-9652
▁paintings	-9653
▁separated	-9654
▁Geographic	-9655
▁boundaries	-9656
▁underground	-9657
▁neuroscience	-9658
▁transparency	-9659
gu	-9660
hh	-9661
nes	-9662
▁AR	-9663
▁Sử	-9664
adel	-9665
atom	-9666
coln	-9667
gers	-9668
phia	-9669
ulum	-9670
▁193	-9671
▁2.0	-9672
▁Cap	-9673
▁Chú	-9674
▁Giả	-9675
▁Hắn	-9676
▁Màu	-9677
▁Out	-9678
▁Rog	-9679
▁Tok	-9680
▁Tun	-9681
▁băn	-9682
▁bẩm	-9683
▁bồi	-9684
▁phô	-9685
▁rạp	-9686
▁sle	-9687
▁tuỵ	-9688
▁wip	-9689
PTCHA	-9690
bered	-9691
cover	-9692
iform	-9693
leton	-9694
urger	-9695
using	-9696
▁Hong	-9697
▁Rome	-9698
▁Thêm	-9699
▁chày	-9700
▁dies	-9701
▁dign	-9702
▁firm	-9703
▁pace	-9704
▁tent	-9705
▁tùng	-9706
astics	-9707
opardy	-9708
▁Colle	-9709
▁anger	-9710
▁cryst	-9711
▁drill	-9712
▁foods	-9713
▁miser	-9714
▁pleas	-9715
▁score	-9716
▁usual	-9717
▁utter	-9718
▁yours	-9719
aghetti	-9720
century	-9721
▁Arctic	-9722
▁Colomb	-9723
▁Square	-9724
▁Steven	-9725
▁adjust	-9726
▁anonym	-9727
▁monkey	-9728
▁robust	-9729
▁stable	-9730
▁stroke	-9731
▁talent	-9732
▁trends	-9733
▁Lincoln	-9734
▁Pacific	-9735
▁anticip	-9736
▁failing	-9737
▁fishing	-9738
▁impacts	-9739
▁restore	-9740
▁silicon	-9741
▁Ethiopia	-9742
▁involves	-9743
▁lighting	-9744
▁shocking	-9745
▁permanent	-9746
▁protocell	-9747
▁recommend	-9748
▁afterwards	-9749
▁architects	-9750
▁electronic	-9751
▁motivation	-9752
▁ridiculous	-9753
▁Neanderthal	-9754
▁controlling	-9755
▁recognition	-9756
▁agricultural	-9757
LA	-9758
arp	-9759
iza	-9760
rix	-9761
ura	-9762
▁86	-9763
▁Ig	-9764
▁Po	-9765
▁lọ	-9766
ache	-9767
aine	-9768
gged	-9769
oven	-9770
yram	-9771
▁1.5	-9772
▁Ach	-9773
▁Dub	-9774
▁Kam	-9775
▁Str	-9776
▁Vẫn	-9777
▁cas	-9778
▁dow	-9779
▁gel	-9780
▁ghé	-9781
▁hat	-9782
▁nàn	-9783
▁ooh	-9784
▁rộn	-9785
▁uốn	-9786
▁vất	-9787
▁vặt	-9788
▁Đặc	-9789
allel	-9790
archy	-9791
ested	-9792
otton	-9793
uting	-9794
▁Benj	-9795
▁Edin	-9796
▁Marc	-9797
▁Norm	-9798
▁Quân	-9799
▁Shir	-9800
▁Sput	-9801
▁Sund	-9802
▁enzy	-9803
▁giáp	-9804
▁giật	-9805
▁hoan	-9806
▁hổng	-9807
▁perm	-9808
▁till	-9809
▁whis	-9810
▁xách	-9811
▁đụng	-9812
azeera	-9813
▁Apoll	-9814
▁Matth	-9815
▁Simon	-9816
▁Starb	-9817
▁Tokyo	-9818
▁bears	-9819
▁coord	-9820
▁craft	-9821
▁falls	-9822
▁finds	-9823
▁guide	-9824
▁honey	-9825
▁ignor	-9826
▁khùng	-9827
▁minor	-9828
▁nutri	-9829
▁renew	-9830
▁sướng	-9831
▁tasks	-9832
▁units	-9833
▁Church	-9834
▁Copern	-9835
▁agency	-9836
▁cheese	-9837
▁curric	-9838
▁injury	-9839
▁linked	-9840
▁marath	-9841
▁myster	-9842
▁repeat	-9843
▁shadow	-9844
▁tricks	-9845
▁Cameron	-9846
▁Through	-9847
▁amongst	-9848
▁carried	-9849
▁defense	-9850
▁density	-9851
▁disrupt	-9852
▁muscles	-9853
▁prepare	-9854
▁vitamin	-9855
▁Tanzania	-9856
▁features	-9857
▁homeless	-9858
▁parallel	-9859
▁policies	-9860
▁reported	-9861
▁sleeping	-9862
▁textbook	-9863
▁wireless	-9864
▁Argentina	-9865
▁Edinburgh	-9866
▁Something	-9867
▁administr	-9868
▁spaghetti	-9869
▁Department	-9870
▁apparently	-9871
▁directions	-9872
▁explaining	-9873
▁automatically	-9874
hr	-9875
dam	-9876
isa	-9877
oli	-9878
▁AM	-9879
▁Av	-9880
▁Kr	-9881
▁SO	-9882
▁Sa	-9883
▁xà	-9884
▁ào	-9885
abul	-9886
aint	-9887
amas	-9888
urse	-9889
▁140	-9890
▁187	-9891
▁Han	-9892
▁McD	-9893
▁Não	-9894
▁Que	-9895
▁Scr	-9896
▁Win	-9897
▁cig	-9898
▁dệt	-9899
▁gãy	-9900
▁hal	-9901
▁hol	-9902
▁nhị	-9903
▁spr	-9904
adays	-9905
ctica	-9906
inger	-9907
maker	-9908
negie	-9909
puter	-9910
▁Marg	-9911
▁Tính	-9912
▁biếm	-9913
▁chíp	-9914
▁chóc	-9915
▁dump	-9916
▁east	-9917
▁hông	-9918
▁ngột	-9919
▁seek	-9920
▁thắn	-9921
phones	-9922
▁Bangl	-9923
▁Voice	-9924
▁actor	-9925
▁adopt	-9926
▁favel	-9927
▁males	-9928
▁march	-9929
▁sales	-9930
▁tired	-9931
▁veter	-9932
liament	-9933
unction	-9934
uration	-9935
▁Hawaii	-9936
▁Luther	-9937
▁Should	-9938
▁barely	-9939
▁neural	-9940
▁output	-9941
▁rescue	-9942
▁secure	-9943
▁upload	-9944
adelphia	-9945
▁Everest	-9946
▁General	-9947
▁Sputnik	-9948
▁distant	-9949
▁elderly	-9950
▁entered	-9951
▁essence	-9952
▁instant	-9953
▁obesity	-9954
▁painted	-9955
▁recover	-9956
▁suppose	-9957
▁Carnegie	-9958
▁Minister	-9959
▁estimate	-9960
▁floating	-9961
▁football	-9962
▁laughing	-9963
▁overcome	-9964
▁provided	-9965
▁provides	-9966
▁treating	-9967
▁Starbucks	-9968
▁calculate	-9969
▁encounter	-9970
▁recording	-9971
▁virtually	-9972
▁Antarctica	-9973
▁hemisphere	-9974
▁phosphorus	-9975
▁protecting	-9976
▁recognized	-9977
▁vegetables	-9978
▁disappeared	-9979
▁predictions	-9980
▁uncertainty	-9981
▁Philadelphia	-9982
▁psychological	-9983
sex	-9984
usi	-9985
uum	-9986
▁DJ	-9987
▁UN	-9988
▁kẽ	-9989
▁ủi	-9990
amie	-9991
anna	-9992
arre	-9993
itud	-9994
lear	-9995
sell	-9996
▁1,5	-9997
▁185	-9998
▁Had	-9999
▁Lab	-10000
▁Nền	-10001
▁Quy	-10002
▁Sel	-10003
▁Sud	-10004
▁blo	-10005
▁cáp	-10006
▁dại	-10007
▁dập	-10008
▁gee	-10009
▁kẹp	-10010
▁lột	-10011
▁phe	-10012
▁toy	-10013
▁ven	-10014
▁Đạo	-10015
acies	-10016
esign	-10017
essor	-10018
itous	-10019
licit	-10020
▁3000	-10021
▁Anas	-10022
▁Coke	-10023
▁Fred	-10024
▁Nair	-10025
▁Nike	-10026
▁Tell	-10027
▁dive	-10028
▁emer	-10029
▁flip	-10030
▁fung	-10031
▁glac	-10032
▁huýt	-10033
▁meal	-10034
▁nhàm	-10035
▁nhấp	-10036
▁sulf	-10037
▁sườn	-10038
▁tied	-10039
▁tịch	-10040
bruary	-10041
ptions	-10042
▁Inter	-10043
▁Korea	-10044
▁Mount	-10045
▁Never	-10046
▁Stage	-10047
▁Third	-10048
▁Tunis	-10049
▁aside	-10050
▁civic	-10051
▁dynam	-10052
▁evalu	-10053
▁explo	-10054
▁gonna	-10055
▁links	-10056
▁loves	-10057
▁mixed	-10058
▁phiêu	-10059
▁purch	-10060
▁stone	-10061
▁style	-10062
▁tears	-10063
▁therm	-10064
▁traum	-10065
▁vương	-10066
▁capita	-10067
▁escape	-10068
▁mining	-10069
▁prices	-10070
▁rarely	-10071
▁scores	-10072
▁served	-10073
▁Israeli	-10074
▁Jazeera	-10075
▁closing	-10076
▁diverse	-10077
▁lawyers	-10078
▁leather	-10079
▁lecture	-10080
▁printed	-10081
▁scanner	-10082
▁February	-10083
▁Leonardo	-10084
▁darkness	-10085
▁drinking	-10086
▁external	-10087
▁repeated	-10088
▁colleague	-10089
▁constrain	-10090
▁continues	-10091
▁emergency	-10092
▁highlight	-10093
▁searching	-10094
▁researcher	-10095
▁schizophren	-10096
▁instructions	-10097
▁productivity	-10098
▁characteristics	-10099
IA	-10100
asa	-10101
bie	-10102
▁2,	-10103
▁96	-10104
▁BR	-10105
▁NL	-10106
▁Nữ	-10107
▁bẻ	-10108
▁mớ	-10109
conf	-10110
igan	-10111
itus	-10112
ngue	-10113
osal	-10114
▁Nin	-10115
▁Sib	-10116
▁aes	-10117
▁gạt	-10118
▁rìa	-10119
▁tăm	-10120
▁đom	-10121
keley	-10122
lings	-10123
ontal	-10124
otter	-10125
state	-10126
▁Khan	-10127
▁Rose	-10128
▁anes	-10129
▁bend	-10130
▁biod	-10131
▁cảng	-10132
▁degr	-10133
▁diam	-10134
▁emph	-10135
▁iPad	-10136
▁laid	-10137
▁plot	-10138
▁sits	-10139
▁thốt	-10140
▁trùm	-10141
▁tạng	-10142
▁wing	-10143
▁đinh	-10144
ements	-10145
opatch	-10146
▁Alice	-10147
▁Fried	-10148
▁Tesla	-10149
▁delic	-10150
▁dough	-10151
▁drawn	-10152
▁holds	-10153
▁hyper	-10154
▁immun	-10155
▁opens	-10156
▁outer	-10157
▁plain	-10158
▁prime	-10159
▁redef	-10160
▁roots	-10161
▁stops	-10162
▁toxic	-10163
▁trash	-10164
▁triều	-10165
▁trúng	-10166
▁tweet	-10167
▁unbel	-10168
▁Sierra	-10169
▁chairs	-10170
▁ending	-10171
▁funded	-10172
▁sensor	-10173
▁shaped	-10174
▁stores	-10175
▁traged	-10176
▁victim	-10177
▁College	-10178
▁Olympic	-10179
▁anthrop	-10180
▁crucial	-10181
▁diagram	-10182
▁footage	-10183
▁hitting	-10184
▁magical	-10185
▁monitor	-10186
▁parties	-10187
▁persist	-10188
▁synthes	-10189
▁visited	-10190
▁Colombia	-10191
▁Jeopardy	-10192
▁attached	-10193
▁detailed	-10194
▁elephant	-10195
▁facility	-10196
▁hormones	-10197
▁organize	-10198
▁produces	-10199
▁recovery	-10200
▁stereoty	-10201
▁Nanopatch	-10202
▁telephone	-10203
▁uncomfort	-10204
▁identified	-10205
▁inevitable	-10206
▁resilience	-10207
▁strategies	-10208
▁improvement	-10209
▁photographed	-10210
▁demonstration	-10211
OX	-10212
hm	-10213
rr	-10214
va	-10215
ía	-10216
las	-10217
len	-10218
tes	-10219
ulu	-10220
wen	-10221
▁3.	-10222
▁98	-10223
▁kề	-10224
▁kệ	-10225
▁xứ	-10226
▁Đỏ	-10227
izab	-10228
pass	-10229
pper	-10230
▁Ash	-10231
▁Bet	-10232
▁Ear	-10233
▁FOX	-10234
▁Fed	-10235
▁Hol	-10236
▁Ire	-10237
▁Ooh	-10238
▁Sur	-10239
▁Sáu	-10240
▁Toà	-10241
▁biz	-10242
▁búa	-10243
▁dồn	-10244
▁enh	-10245
▁hàn	-10246
▁mép	-10247
▁ngụ	-10248
▁ngừ	-10249
▁nom	-10250
▁vịt	-10251
obile	-10252
orous	-10253
osure	-10254
owers	-10255
rency	-10256
▁....	-10257
▁Back	-10258
▁Hoàn	-10259
▁Ivan	-10260
▁Make	-10261
▁Phật	-10262
▁Turk	-10263
▁dism	-10264
▁eleg	-10265
▁gieo	-10266
▁grat	-10267
▁hier	-10268
▁khen	-10269
▁limb	-10270
▁melt	-10271
▁mile	-10272
▁ngục	-10273
▁prev	-10274
▁reef	-10275
▁suck	-10276
▁trèo	-10277
▁tống	-10278
▁vent	-10279
acular	-10280
apagos	-10281
edding	-10282
employ	-10283
mental	-10284
mented	-10285
▁Space	-10286
▁Water	-10287
▁abuse	-10288
▁brown	-10289
▁burst	-10290
▁imper	-10291
▁legit	-10292
▁lions	-10293
▁prize	-10294
▁sauce	-10295
▁tempt	-10296
▁thiền	-10297
▁ubiqu	-10298
▁wheat	-10299
izabeth	-10300
parents	-10301
▁Apollo	-10302
▁borrow	-10303
▁choáng	-10304
▁ensure	-10305
▁excell	-10306
▁farmer	-10307
▁fertil	-10308
▁filter	-10309
▁fusion	-10310
▁script	-10311
▁violin	-10312
ventions	-10313
▁affects	-10314
▁drivers	-10315
▁exposed	-10316
▁hormone	-10317
▁initial	-10318
▁quantum	-10319
▁rebuild	-10320
▁reduced	-10321
▁session	-10322
▁Berkeley	-10323
▁Columbia	-10324
▁Movember	-10325
▁category	-10326
▁controls	-10327
▁creature	-10328
▁improved	-10329
▁microbes	-10330
▁Elizabeth	-10331
▁Galapagos	-10332
▁accidents	-10333
▁corporate	-10334
▁dependent	-10335
▁healthier	-10336
▁reduction	-10337
▁transcend	-10338
▁curriculum	-10339
▁personality	-10340
▁translation	-10341
▁collaborative	-10342
▁professionals	-10343
▁uncomfortable	-10344
12	-10345
BA	-10346
kg	-10347
vy	-10348
yd	-10349
ym	-10350
ịt	-10351
izz	-10352
lor	-10353
oma	-10354
two	-10355
uba	-10356
▁41	-10357
▁43	-10358
▁64	-10359
▁AO	-10360
▁Er	-10361
▁IM	-10362
▁rỡ	-10363
▁âu	-10364
ares	-10365
aves	-10366
fall	-10367
lock	-10368
pest	-10369
ship	-10370
uces	-10371
west	-10372
▁180	-10373
▁Khu	-10374
▁Mùa	-10375
▁SMS	-10376
▁Tạo	-10377
▁Unt	-10378
▁Vol	-10379
▁bực	-10380
▁dịu	-10381
▁gai	-10382
▁ion	-10383
▁môt	-10384
▁mốc	-10385
▁râu	-10386
▁tẩy	-10387
▁vòm	-10388
▁vần	-10389
▁xộn	-10390
aping	-10391
emics	-10392
▁1998	-10393
▁Army	-10394
▁Emma	-10395
▁Giới	-10396
▁Joel	-10397
▁atom	-10398
▁bars	-10399
▁demo	-10400
▁khan	-10401
▁lamp	-10402
▁neat	-10403
▁nhét	-10404
▁prec	-10405
▁rats	-10406
▁sửng	-10407
▁thơm	-10408
inated	-10409
itudes	-10410
weeney	-10411
▁Susan	-10412
▁coach	-10413
▁dirty	-10414
▁doors	-10415
▁eaten	-10416
▁fuels	-10417
▁legis	-10418
▁nurse	-10419
▁persu	-10420
▁phiến	-10421
▁recru	-10422
▁relax	-10423
▁silly	-10424
▁spots	-10425
▁views	-10426
section	-10427
▁30,000	-10428
▁Arabic	-10429
▁Bhutan	-10430
▁Kansas	-10431
▁Lakota	-10432
▁Rachel	-10433
▁Sunday	-10434
▁Within	-10435
▁comedy	-10436
▁conven	-10437
▁enable	-10438
▁extend	-10439
▁hardly	-10440
▁observ	-10441
▁powers	-10442
▁pushed	-10443
▁senior	-10444
▁subtle	-10445
▁thoáng	-10446
▁trucks	-10447
▁Lebanon	-10448
▁Obvious	-10449
▁Siberia	-10450
▁chimpan	-10451
▁dignity	-10452
▁graphic	-10453
▁microph	-10454
▁paradox	-10455
▁robotic	-10456
▁staying	-10457
▁texting	-10458
▁welcome	-10459
▁colonies	-10460
▁dominant	-10461
▁engaging	-10462
▁keyboard	-10463
▁perceive	-10464
▁refugees	-10465
▁shoulder	-10466
▁unbeliev	-10467
▁committed	-10468
▁dedicated	-10469
▁frequency	-10470
▁hamburger	-10471
▁passenger	-10472
▁physicist	-10473
▁supermark	-10474
▁disappoint	-10475
▁influenced	-10476
▁psychopath	-10477
▁assumptions	-10478
▁expressions	-10479
▁manufacture	-10480
▁philosopher	-10481
▁restaurants	-10482
gi	-10483
ẹo	-10484
ịa	-10485
▁Í	-10486
▁Ư	-10487
bby	-10488
bod	-10489
har	-10490
hry	-10491
iac	-10492
iva	-10493
kin	-10494
uff	-10495
ấng	-10496
▁CS	-10497
▁Id	-10498
▁Tế	-10499
▁Vô	-10500
aska	-10501
eart	-10502
itic	-10503
kend	-10504
onic	-10505
oral	-10506
uten	-10507
viet	-10508
wind	-10509
▁1.2	-10510
▁2.5	-10511
▁30-	-10512
▁Oak	-10513
▁Oct	-10514
▁Rod	-10515
▁Tib	-10516
▁ain	-10517
▁bón	-10518
▁cub	-10519
▁cồn	-10520
▁gre	-10521
▁hâm	-10522
▁les	-10523
▁mưu	-10524
▁súp	-10525
▁trễ	-10526
▁xay	-10527
▁Địa	-10528
▁đòn	-10529
▁đệm	-10530
anish	-10531
olars	-10532
▁Comp	-10533
▁Cour	-10534
▁Hall	-10535
▁Rằng	-10536
▁Yves	-10537
▁banh	-10538
▁clar	-10539
▁drum	-10540
▁gear	-10541
▁hill	-10542
▁khẩn	-10543
▁labs	-10544
▁mall	-10545
▁nurt	-10546
▁pand	-10547
▁phơi	-10548
▁pink	-10549
▁Beach	-10550
▁Organ	-10551
▁Sudan	-10552
▁disag	-10553
▁drove	-10554
▁helic	-10555
▁khoai	-10556
▁pyram	-10557
▁unpre	-10558
attered	-10559
keepers	-10560
▁40,000	-10561
▁Berlin	-10562
▁Number	-10563
▁Samuel	-10564
▁Soviet	-10565
▁assess	-10566
▁assets	-10567
▁inches	-10568
▁makers	-10569
▁muscle	-10570
▁scream	-10571
▁settle	-10572
osterone	-10573
▁Jackson	-10574
▁Johnson	-10575
▁bizarre	-10576
▁chances	-10577
▁cigaret	-10578
▁clients	-10579
▁delight	-10580
▁federal	-10581
▁nonviol	-10582
▁opposed	-10583
▁passing	-10584
▁picking	-10585
▁pulling	-10586
▁refugee	-10587
▁revenue	-10588
▁statist	-10589
▁suspect	-10590
▁Benjamin	-10591
▁Michigan	-10592
▁choosing	-10593
▁crossing	-10594
▁dialogue	-10595
▁globally	-10596
▁insights	-10597
▁optimism	-10598
▁plastics	-10599
▁shooting	-10600
▁strongly	-10601
▁suffered	-10602
▁adventure	-10603
▁breakfast	-10604
▁confident	-10605
▁forgotten	-10606
▁improving	-10607
▁privilege	-10608
▁suspended	-10609
▁telescope	-10610
▁determined	-10611
▁frustrated	-10612
▁industries	-10613
▁translated	-10614
▁cooperation	-10615
▁probability	-10616
▁programming	-10617
▁breakthrough	-10618
▁globalization	-10619
cô	-10620
ek	-10621
asp	-10622
lan	-10623
low	-10624
xin	-10625
▁Kì	-10626
▁PH	-10627
▁RS	-10628
▁Vũ	-10629
eman	-10630
keys	-10631
laim	-10632
part	-10633
▁160	-10634
▁Gar	-10635
▁Isn	-10636
▁Mot	-10637
▁Seb	-10638
▁Tài	-10639
▁bộc	-10640
▁cóc	-10641
▁dẹp	-10642
▁kem	-10643
▁nha	-10644
▁rèn	-10645
▁rỗi	-10646
▁spo	-10647
▁upd	-10648
▁vạn	-10649
▁ôtô	-10650
aceut	-10651
ademy	-10652
awatt	-10653
ffect	-10654
gging	-10655
ifice	-10656
itage	-10657
itate	-10658
night	-10659
oding	-10660
unter	-10661
ureau	-10662
uster	-10663
▁Clay	-10664
▁Fore	-10665
▁None	-10666
▁Prof	-10667
▁Rick	-10668
▁Wait	-10669
▁bask	-10670
▁brut	-10671
▁cath	-10672
▁củng	-10673
▁earn	-10674
▁fulf	-10675
▁glad	-10676
▁hưng	-10677
▁mood	-10678
▁peer	-10679
▁pige	-10680
▁pref	-10681
▁publ	-10682
▁toys	-10683
▁trag	-10684
▁woke	-10685
▁xoắn	-10686
estion	-10687
minute	-10688
▁Hoàng	-10689
▁Italy	-10690
▁Larry	-10691
▁Leone	-10692
▁Tháng	-10693
▁Under	-10694
▁begun	-10695
▁chief	-10696
▁fires	-10697
▁fruit	-10698
▁lifes	-10699
▁naked	-10700
▁skull	-10701
▁troub	-10702
▁tubes	-10703
▁wider	-10704
itating	-10705
▁Jordan	-10706
▁Listen	-10707
▁adding	-10708
▁arrive	-10709
▁legacy	-10710
▁profit	-10711
▁smooth	-10712
▁tunnel	-10713
aughters	-10714
children	-10715
▁Beijing	-10716
▁CAPTCHA	-10717
▁Sweeney	-10718
▁Whether	-10719
▁citizen	-10720
▁concern	-10721
▁consult	-10722
▁enables	-10723
▁fathers	-10724
▁fortune	-10725
▁ongoing	-10726
▁penguin	-10727
▁pretend	-10728
▁promote	-10729
▁protest	-10730
▁serving	-10731
▁weekend	-10732
▁winning	-10733
aceutical	-10734
▁Atlantic	-10735
▁answered	-10736
▁focusing	-10737
▁includes	-10738
▁marathon	-10739
▁mobility	-10740
▁openness	-10741
▁proposed	-10742
▁shifting	-10743
▁unemploy	-10744
▁Obviously	-10745
▁elsewhere	-10746
▁headlines	-10747
▁immediate	-10748
▁nutrition	-10749
▁paralyzed	-10750
▁Bangladesh	-10751
▁facilities	-10752
▁hypothesis	-10753
▁originally	-10754
▁electronics	-10755
▁photographer	-10756
▁testosterone	-10757
EA	-10758
ES	-10759
ếm	-10760
ớc	-10761
asy	-10762
aws	-10763
een	-10764
fly	-10765
lar	-10766
top	-10767
▁34	-10768
▁52	-10769
▁CC	-10770
▁CN	-10771
▁IP	-10772
▁Ni	-10773
▁Wi	-10774
▁dê	-10775
▁vớ	-10776
▁Ít	-10777
ault	-10778
ding	-10779
eren	-10780
ingo	-10781
olic	-10782
zens	-10783
▁FGM	-10784
▁awk	-10785
▁dưa	-10786
▁gut	-10787
▁hái	-10788
▁nâu	-10789
▁obl	-10790
▁ray	-10791
ashed	-10792
cking	-10793
eping	-10794
ibati	-10795
tical	-10796
usted	-10797
▁1995	-10798
▁Bali	-10799
▁Dave	-10800
▁Jean	-10801
▁Mass	-10802
▁Ngôi	-10803
▁Same	-10804
▁bind	-10805
▁butt	-10806
▁clay	-10807
▁gang	-10808
▁mice	-10809
▁nhện	-10810
▁sexy	-10811
▁sink	-10812
▁taxi	-10813
▁túng	-10814
▁watt	-10815
iously	-10816
makers	-10817
▁Elect	-10818
▁Watch	-10819
▁armed	-10820
▁banjo	-10821
▁chips	-10822
▁delay	-10823
▁exped	-10824
▁maxim	-10825
▁meals	-10826
▁nodes	-10827
▁ultra	-10828
▁wound	-10829
astroph	-10830
▁10.000	-10831
▁County	-10832
▁Friday	-10833
▁Norway	-10834
▁chướng	-10835
▁clinic	-10836
▁commod	-10837
▁compos	-10838
▁dozens	-10839
▁fought	-10840
▁killer	-10841
▁landed	-10842
▁merely	-10843
▁phthal	-10844
▁poison	-10845
▁regime	-10846
▁sketch	-10847
▁trains	-10848
▁voting	-10849
▁Ireland	-10850
▁Islands	-10851
▁Journal	-10852
▁Kennedy	-10853
▁Seattle	-10854
▁analyze	-10855
▁awkward	-10856
▁bedroom	-10857
▁ceiling	-10858
▁engines	-10859
▁ethical	-10860
▁founded	-10861
▁helicop	-10862
▁manager	-10863
▁smarter	-10864
▁smiling	-10865
▁Kiribati	-10866
▁TEDTalks	-10867
▁accepted	-10868
▁aircraft	-10869
▁attitude	-10870
▁conclude	-10871
▁domestic	-10872
▁drawings	-10873
▁figuring	-10874
▁inherent	-10875
▁magnetic	-10876
▁organism	-10877
▁precious	-10878
▁remained	-10879
▁disorders	-10880
▁factories	-10881
▁interrupt	-10882
▁miserable	-10883
▁nonprofit	-10884
▁ownership	-10885
▁procedure	-10886
▁suggested	-10887
▁additional	-10888
▁attractive	-10889
▁catastroph	-10890
▁categories	-10891
▁compelling	-10892
▁governance	-10893
▁remembered	-10894
▁retirement	-10895
▁suggesting	-10896
▁genetically	-10897
▁transparent	-10898
▁experimental	-10899
▁grandparents	-10900
▁intervention	-10901
▁neighborhoods	-10902
▁pharmaceutical	-10903
80	-10904
wl	-10905
ìu	-10906
úm	-10907
alt	-10908
bar	-10909
dig	-10910
roc	-10911
yon	-10912
▁Od	-10913
▁Xô	-10914
▁hé	-10915
▁xế	-10916
▁đè	-10917
▁ấp	-10918
cean	-10919
icer	-10920
list	-10921
mill	-10922
raig	-10923
reme	-10924
▁Aut	-10925
▁Bot	-10926
▁Dad	-10927
▁Fif	-10928
▁Fox	-10929
▁Hon	-10930
▁Hot	-10931
▁Pan	-10932
▁Put	-10933
▁Sad	-10934
▁bưu	-10935
▁bẩy	-10936
▁bến	-10937
▁bồn	-10938
▁fet	-10939
▁kìm	-10940
▁nạp	-10941
▁tảo	-10942
▁vẩn	-10943
▁xen	-10944
▁xảo	-10945
allet	-10946
epher	-10947
icial	-10948
iment	-10949
istor	-10950
umbai	-10951
▁Dece	-10952
▁Mama	-10953
▁Post	-10954
▁Pret	-10955
▁Romo	-10956
▁Stef	-10957
▁Wind	-10958
▁bỏng	-10959
▁dece	-10960
▁irre	-10961
▁mini	-10962
▁pile	-10963
▁quit	-10964
▁quận	-10965
▁radi	-10966
▁soup	-10967
▁summ	-10968
arbage	-10969
ndrome	-10970
▁Beeth	-10971
▁Giáng	-10972
▁Jonas	-10973
▁Kelly	-10974
▁Skype	-10975
▁Stone	-10976
▁Trông	-10977
▁agent	-10978
▁amate	-10979
▁ambig	-10980
▁annoy	-10981
▁array	-10982
▁audio	-10983
▁biote	-10984
▁buồng	-10985
▁chiêm	-10986
▁chron	-10987
▁funds	-10988
▁joint	-10989
▁knock	-10990
▁monit	-10991
▁ngươi	-10992
▁pause	-10993
▁shine	-10994
▁skept	-10995
▁threw	-10996
▁virút	-10997
ogether	-10998
▁Global	-10999
▁Jewish	-11000
▁Ladies	-11001
▁Mumbai	-11002
▁Philip	-11003
▁Scient	-11004
▁athlet	-11005
▁attend	-11006
▁burden	-11007
▁colony	-11008
▁emerge	-11009
▁emphas	-11010
▁expans	-11011
▁firing	-11012
▁freely	-11013
▁garage	-11014
▁lawyer	-11015
▁layers	-11016
▁recept	-11017
▁silver	-11018
▁traits	-11019
▁triang	-11020
▁weapon	-11021
idential	-11022
▁200,000	-11023
▁Academy	-11024
▁Iranian	-11025
▁Nations	-11026
▁Russian	-11027
▁Without	-11028
▁bubbles	-11029
▁dressed	-11030
▁females	-11031
▁formula	-11032
▁habitat	-11033
▁healing	-11034
▁helpful	-11035
▁involve	-11036
▁liberal	-11037
▁nghiêng	-11038
▁onstage	-11039
▁printer	-11040
▁sisters	-11041
▁writers	-11042
▁Anderson	-11043
▁December	-11044
▁Margaret	-11045
▁Northern	-11046
▁Somebody	-11047
▁articles	-11048
▁calories	-11049
▁confused	-11050
▁generous	-11051
▁innocent	-11052
▁isolated	-11053
▁judgment	-11054
▁peaceful	-11055
▁reminded	-11056
▁southern	-11057
▁Beethoven	-11058
▁economist	-11059
▁infection	-11060
▁objective	-11061
▁preparing	-11062
▁primarily	-11063
▁responses	-11064
▁sentences	-11065
▁substance	-11066
▁supported	-11067
▁synthetic	-11068
▁integrated	-11069
▁newspapers	-11070
▁proportion	-11071
▁ubiquitous	-11072
▁interacting	-11073
▁specialized	-11074
▁conservative	-11075
ga	-11076
ốp	-11077
▁=	-11078
agg	-11079
bye	-11080
iêm	-11081
mod	-11082
▁47	-11083
▁58	-11084
▁74	-11085
▁93	-11086
▁97	-11087
▁DP	-11088
airo	-11089
doll	-11090
epal	-11091
fold	-11092
half	-11093
inea	-11094
mony	-11095
onto	-11096
opic	-11097
ords	-11098
ylac	-11099
▁190	-11100
▁20-	-11101
▁Kib	-11102
▁Map	-11103
▁Ngu	-11104
▁Val	-11105
▁bẫy	-11106
▁chì	-11107
▁lux	-11108
▁mur	-11109
▁phế	-11110
▁pir	-11111
▁rốt	-11112
▁tag	-11113
▁tao	-11114
▁tôm	-11115
▁vọt	-11116
▁wet	-11117
otted	-11118
phony	-11119
▁1975	-11120
▁1994	-11121
▁Penn	-11122
▁Yout	-11123
▁bell	-11124
▁boss	-11125
▁crop	-11126
▁diều	-11127
▁dose	-11128
▁duck	-11129
▁junk	-11130
▁leaf	-11131
▁load	-11132
▁lone	-11133
▁murd	-11134
▁nerd	-11135
▁ngây	-11136
▁odds	-11137
▁outs	-11138
▁pháo	-11139
▁rail	-11140
▁rice	-11141
▁subs	-11142
▁thuỳ	-11143
▁trop	-11144
▁trọn	-11145
▁vắng	-11146
iences	-11147
imalay	-11148
soever	-11149
▁Craig	-11150
▁Medic	-11151
▁Nepal	-11152
▁Saudi	-11153
▁Shang	-11154
▁Titus	-11155
▁Young	-11156
▁alien	-11157
▁cabin	-11158
▁intim	-11159
▁items	-11160
▁route	-11161
▁wired	-11162
ascular	-11163
▁Chương	-11164
▁Europa	-11165
▁Indeed	-11166
▁Mathem	-11167
▁errors	-11168
▁geomet	-11169
▁improv	-11170
▁insist	-11171
▁waters	-11172
andering	-11173
changing	-11174
▁Atlanta	-11175
▁Himalay	-11176
▁Nairobi	-11177
▁Spanish	-11178
▁Tempest	-11179
▁briefly	-11180
▁clinics	-11181
▁despair	-11182
▁emerged	-11183
▁enterpr	-11184
▁fastest	-11185
▁hanging	-11186
▁inspire	-11187
▁mindset	-11188
▁miracle	-11189
▁offices	-11190
▁rehabil	-11191
▁request	-11192
▁routine	-11193
▁soldier	-11194
▁targets	-11195
▁wealthy	-11196
▁Secondly	-11197
▁activist	-11198
▁currency	-11199
▁delivery	-11200
▁educated	-11201
▁infinite	-11202
▁musician	-11203
▁nowadays	-11204
▁pointing	-11205
▁preserve	-11206
▁ancestors	-11207
▁broadcast	-11208
▁daughters	-11209
▁intuition	-11210
▁performed	-11211
▁physician	-11212
▁stability	-11213
▁variation	-11214
▁Industrial	-11215
▁Lesterland	-11216
▁comparison	-11217
▁ecosystems	-11218
▁microphone	-11219
▁previously	-11220
▁prosperity	-11221
▁underlying	-11222
▁whatsoever	-11223
▁observation	-11224
bec	-11225
bul	-11226
ctu	-11227
ift	-11228
lli	-11229
opy	-11230
sch	-11231
tim	-11232
▁AV	-11233
▁Ca	-11234
▁Pu	-11235
▁cộ	-11236
▁je	-11237
▁Đế	-11238
ails	-11239
bule	-11240
celi	-11241
chia	-11242
enly	-11243
eton	-11244
eyer	-11245
four	-11246
real	-11247
rics	-11248
umes	-11249
▁1.3	-11250
▁125	-11251
▁900	-11252
▁Aur	-11253
▁Aye	-11254
▁CNN	-11255
▁Cru	-11256
▁DAR	-11257
▁Len	-11258
▁Luc	-11259
▁Lại	-11260
▁Quả	-11261
▁Sen	-11262
▁Tối	-11263
▁USA	-11264
▁ads	-11265
▁bat	-11266
▁bát	-11267
▁cyl	-11268
▁lậu	-11269
▁rực	-11270
▁sin	-11271
▁Đột	-11272
▁đắm	-11273
▁Ước	-11274
▁ướt	-11275
erved	-11276
hamed	-11277
inity	-11278
izers	-11279
press	-11280
▁1996	-11281
▁Alan	-11282
▁Arch	-11283
▁Chad	-11284
▁Dean	-11285
▁Lịch	-11286
▁Mạch	-11287
▁Sudd	-11288
▁Sure	-11289
▁Vịnh	-11290
▁batt	-11291
▁bond	-11292
▁bổng	-11293
▁crew	-11294
▁dâng	-11295
▁hire	-11296
▁luân	-11297
▁nuốt	-11298
▁outr	-11299
▁panc	-11300
▁sùng	-11301
▁thèm	-11302
▁thắp	-11303
▁Đoạn	-11304
abetes	-11305
celium	-11306
dollar	-11307
epherd	-11308
uctive	-11309
▁Dutch	-11310
▁Kyoto	-11311
▁Laure	-11312
▁Ngược	-11313
▁Plato	-11314
▁Princ	-11315
▁Quyền	-11316
▁Robot	-11317
▁Roger	-11318
▁Swiss	-11319
▁Teach	-11320
▁brush	-11321
▁conce	-11322
▁crows	-11323
▁donor	-11324
▁gotta	-11325
▁guerr	-11326
▁khăng	-11327
▁proph	-11328
▁spark	-11329
▁tends	-11330
▁thiếp	-11331
▁tooth	-11332
▁trinh	-11333
▁trừng	-11334
▁upset	-11335
▁valid	-11336
athered	-11337
inarily	-11338
lfriend	-11339
reating	-11340
▁Alaska	-11341
▁Graham	-11342
▁Oliver	-11343
▁Social	-11344
▁basket	-11345
▁claims	-11346
▁correl	-11347
▁denial	-11348
▁endang	-11349
▁habits	-11350
▁hiding	-11351
▁kidney	-11352
▁native	-11353
▁retina	-11354
▁speaks	-11355
▁tackle	-11356
▁uncons	-11357
cedented	-11358
▁Youtube	-11359
▁arguing	-11360
▁authors	-11361
▁beneath	-11362
▁bottles	-11363
▁convert	-11364
▁elected	-11365
▁flowing	-11366
▁fragile	-11367
▁harness	-11368
▁located	-11369
▁percept	-11370
▁puzzles	-11371
▁rethink	-11372
▁rituals	-11373
▁rolling	-11374
▁tragedy	-11375
▁warning	-11376
▁backyard	-11377
▁ceremony	-11378
▁disabled	-11379
▁listened	-11380
▁mycelium	-11381
▁shipping	-11382
▁tendency	-11383
▁transmit	-11384
▁vertical	-11385
▁Princeton	-11386
▁backwards	-11387
▁candidate	-11388
▁collapsed	-11389
▁completed	-11390
▁extension	-11391
▁gathering	-11392
▁qualities	-11393
▁realizing	-11394
▁remaining	-11395
▁temporary	-11396
▁exhibition	-11397
▁profoundly	-11398
▁simplicity	-11399
▁supporting	-11400
▁threatened	-11401
▁treatments	-11402
▁description	-11403
▁spectacular	-11404
▁unconscious	-11405
▁experiencing	-11406
▁unprecedented	-11407
▁communications	-11408
▁interconnected	-11409
▁representation	-11410
Ch	-11411
IS	-11412
fi	-11413
RNA	-11414
dri	-11415
han	-11416
ili	-11417
rir	-11418
spe	-11419
uty	-11420
▁CL	-11421
▁Ec	-11422
▁Hu	-11423
▁Ze	-11424
▁lô	-11425
▁oy	-11426
▁xô	-11427
▁xả	-11428
abad	-11429
apor	-11430
enez	-11431
enix	-11432
free	-11433
izer	-11434
made	-11435
pace	-11436
pled	-11437
ugal	-11438
▁450	-11439
▁Bốn	-11440
▁Has	-11441
▁Khả	-11442
▁Lớn	-11443
▁McG	-11444
▁Reg	-11445
▁Ron	-11446
▁Sea	-11447
▁Tai	-11448
▁Tob	-11449
▁gập	-11450
▁hân	-11451
▁keo	-11452
▁lin	-11453
▁nhã	-11454
▁nín	-11455
▁sói	-11456
▁unp	-11457
▁via	-11458
▁voc	-11459
aware	-11460
eller	-11461
idges	-11462
izona	-11463
regon	-11464
three	-11465
▁Conf	-11466
▁Homo	-11467
▁Hunt	-11468
▁Katr	-11469
▁Mall	-11470
▁Nhóm	-11471
▁Peru	-11472
▁Stir	-11473
▁Thôi	-11474
▁Tiền	-11475
▁Toán	-11476
▁bags	-11477
▁caps	-11478
▁chay	-11479
▁chec	-11480
▁cute	-11481
▁damn	-11482
▁dood	-11483
▁gate	-11484
▁memb	-11485
▁neoc	-11486
▁ours	-11487
▁plug	-11488
▁salt	-11489
▁xoáy	-11490
otonin	-11491
timore	-11492
▁Emily	-11493
▁Hello	-11494
▁March	-11495
▁Ocean	-11496
▁Stand	-11497
▁Stock	-11498
▁Using	-11499
▁blame	-11500
▁brows	-11501
▁chiên	-11502
▁edges	-11503
▁gases	-11504
▁khiếu	-11505
▁nerve	-11506
▁nhuộm	-11507
▁paras	-11508
▁phồng	-11509
▁schem	-11510
▁sharp	-11511
▁spill	-11512
▁spons	-11513
▁Đương	-11514
▁Bertie	-11515
▁Jersey	-11516
▁Oregon	-11517
▁Sobule	-11518
▁Things	-11519
▁Turkey	-11520
▁actors	-11521
▁astero	-11522
▁buried	-11523
▁burned	-11524
▁cousin	-11525
▁covers	-11526
▁domain	-11527
▁ethnic	-11528
▁hacker	-11529
▁marker	-11530
▁recipe	-11531
▁stimul	-11532
American	-11533
▁Arizona	-11534
▁Toronto	-11535
▁Whereas	-11536
▁barrier	-11537
▁beating	-11538
▁demands	-11539
▁garbage	-11540
▁glasses	-11541
▁lottery	-11542
▁monkeys	-11543
▁pursuit	-11544
▁reveals	-11545
▁secrets	-11546
▁tissues	-11547
▁wedding	-11548
▁McDonald	-11549
▁Shanghai	-11550
▁Suddenly	-11551
▁believes	-11552
▁circuits	-11553
▁fabulous	-11554
▁incident	-11555
▁presents	-11556
▁reducing	-11557
▁scenario	-11558
▁sciences	-11559
▁Jefferson	-11560
▁authentic	-11561
▁diagnosis	-11562
▁dimension	-11563
▁documents	-11564
▁prisoners	-11565
▁volunteer	-11566
▁accomplish	-11567
▁compromise	-11568
▁illustrate	-11569
▁mainstream	-11570
▁operations	-11571
▁satellites	-11572
▁terrifying	-11573
▁consequence	-11574
▁constraints	-11575
▁devastating	-11576
▁overwhelming	-11577
▁personalized	-11578
▁storytelling	-11579
▁universities	-11580
▁schizophrenia	-11581
▁significantly	-11582
▁straightforward	-11583
.9	-11584
ki	-11585
aud	-11586
cip	-11587
law	-11588
nut	-11589
omp	-11590
reh	-11591
rút	-11592
yal	-11593
ượm	-11594
▁Cụ	-11595
▁Uk	-11596
▁bế	-11597
▁xá	-11598
acre	-11599
amed	-11600
aron	-11601
asty	-11602
away	-11603
brid	-11604
coli	-11605
grad	-11606
mail	-11607
mart	-11608
oves	-11609
rian	-11610
road	-11611
unes	-11612
▁Abs	-11613
▁Aim	-11614
▁Ast	-11615
▁FDA	-11616
▁Gab	-11617
▁Lev	-11618
▁Lời	-11619
▁Mas	-11620
▁Old	-11621
▁Pho	-11622
▁aug	-11623
▁bốt	-11624
▁cuả	-11625
▁gig	-11626
▁hán	-11627
▁mọt	-11628
▁ngô	-11629
▁ngộ	-11630
▁sav	-11631
▁soi	-11632
▁urg	-11633
▁Đưa	-11634
▁đục	-11635
digit	-11636
▁1945	-11637
▁Cath	-11638
▁Doha	-11639
▁FOXO	-11640
▁Food	-11641
▁Gall	-11642
▁Half	-11643
▁Hind	-11644
▁Kính	-11645
▁Lake	-11646
▁Nghĩ	-11647
▁Read	-11648
▁Sáng	-11649
▁Vent	-11650
▁cert	-11651
▁chùm	-11652
▁dear	-11653
▁dust	-11654
▁guid	-11655
▁impr	-11656
▁khốn	-11657
▁mate	-11658
▁ngợi	-11659
▁nhăn	-11660
▁sett	-11661
▁tear	-11662
▁tone	-11663
▁tune	-11664
▁viêm	-11665
atever	-11666
friend	-11667
▁Cairo	-11668
▁Coast	-11669
▁Julie	-11670
▁Ngoại	-11671
▁Until	-11672
▁award	-11673
▁bored	-11674
▁diver	-11675
▁divor	-11676
▁downt	-11677
▁guard	-11678
▁incor	-11679
▁khoán	-11680
▁meter	-11681
▁rocks	-11682
▁safer	-11683
▁tower	-11684
▁twist	-11685
essions	-11686
ometown	-11687
rasound	-11688
▁Cambod	-11689
▁Sebast	-11690
▁Ukrain	-11691
▁breaks	-11692
▁caring	-11693
▁editor	-11694
▁immigr	-11695
▁marine	-11696
▁matrix	-11697
▁partly	-11698
▁potato	-11699
▁rivers	-11700
▁simult	-11701
▁thylac	-11702
▁trương	-11703
▁widely	-11704
▁Develop	-11705
▁deliber	-11706
▁ignored	-11707
▁observe	-11708
▁package	-11709
▁patents	-11710
▁symbols	-11711
▁threats	-11712
▁whistle	-11713
▁Tasmania	-11714
▁Whatever	-11715
▁accounts	-11716
▁artistic	-11717
▁bathroom	-11718
▁comments	-11719
▁database	-11720
▁genetics	-11721
▁hardware	-11722
▁homework	-11723
▁measures	-11724
▁microRNA	-11725
▁navigate	-11726
▁pandemic	-11727
▁prostate	-11728
▁surfaces	-11729
▁exception	-11730
▁fortunate	-11731
▁guarantee	-11732
▁mosquitos	-11733
▁nutrients	-11734
▁predicted	-11735
▁radically	-11736
▁reactions	-11737
▁sacrifice	-11738
▁serotonin	-11739
▁strategic	-11740
▁difficulty	-11741
▁endangered	-11742
▁interviews	-11743
▁structural	-11744
▁traditions	-11745
▁yourselves	-11746
▁surrounding	-11747
▁contemporary	-11748
▁dictionaries	-11749
▁architectural	-11750
▁grandchildren	-11751
▁interventions	-11752
-3	-11753
fa	-11754
êt	-11755
boo	-11756
ira	-11757
opo	-11758
ses	-11759
▁RG	-11760
▁TS	-11761
▁hả	-11762
▁lê	-11763
agan	-11764
anth	-11765
eday	-11766
edge	-11767
husi	-11768
inda	-11769
ober	-11770
oted	-11771
uine	-11772
▁Abu	-11773
▁Ark	-11774
▁Bah	-11775
▁Bir	-11776
▁Bru	-11777
▁Bọn	-11778
▁Dam	-11779
▁Gay	-11780
▁Gil	-11781
▁Mới	-11782
▁Pap	-11783
▁Tìm	-11784
▁cai	-11785
▁cay	-11786
▁lit	-11787
▁ria	-11788
▁rải	-11789
▁tụt	-11790
▁vặn	-11791
▁Ánh	-11792
▁Đan	-11793
alore	-11794
clock	-11795
erals	-11796
ichol	-11797
insky	-11798
oshop	-11799
owitz	-11800
thals	-11801
▁2020	-11802
▁Band	-11803
▁Case	-11804
▁Chất	-11805
▁Gary	-11806
▁Gene	-11807
▁Gwen	-11808
▁Lord	-11809
▁Prot	-11810
▁cash	-11811
▁decl	-11812
▁groc	-11813
▁nhồi	-11814
▁nhộn	-11815
▁pigs	-11816
▁prol	-11817
▁rope	-11818
▁sảnh	-11819
▁tech	-11820
▁trêu	-11821
▁verb	-11822
oliath	-11823
▁Aimee	-11824
▁Alber	-11825
▁Court	-11826
▁Dubai	-11827
▁Jerry	-11828
▁Keith	-11829
▁Light	-11830
▁Louis	-11831
▁Marco	-11832
▁Thống	-11833
▁Venez	-11834
▁Vương	-11835
▁deals	-11836
▁excit	-11837
▁fiber	-11838
▁genoc	-11839
▁kills	-11840
▁lanes	-11841
▁mayor	-11842
▁ratio	-11843
▁spray	-11844
▁stamp	-11845
igation	-11846
illance	-11847
percent	-11848
▁Compan	-11849
▁Guinea	-11850
▁Little	-11851
▁Nichol	-11852
▁Taylor	-11853
▁Walker	-11854
▁Warren	-11855
▁arrang	-11856
▁asleep	-11857
▁butter	-11858
▁contag	-11859
▁crimes	-11860
▁cultiv	-11861
▁headed	-11862
▁insane	-11863
▁manual	-11864
▁nearby	-11865
▁nghiền	-11866
▁punish	-11867
▁sevent	-11868
▁sheets	-11869
▁stored	-11870
▁Oakland	-11871
▁October	-11872
▁artwork	-11873
▁besides	-11874
▁chapter	-11875
▁condoms	-11876
▁destiny	-11877
▁drought	-11878
▁genuine	-11879
▁immense	-11880
▁pockets	-11881
▁profile	-11882
▁readers	-11883
▁reminds	-11884
▁uniform	-11885
▁washing	-11886
▁Lawrence	-11887
▁Treasure	-11888
▁Venezuel	-11889
▁autistic	-11890
▁barriers	-11891
▁climbing	-11892
▁diabetes	-11893
▁historic	-11894
▁included	-11895
▁managers	-11896
▁Baltimore	-11897
▁Bangalore	-11898
▁affecting	-11899
▁gradually	-11900
▁graduated	-11901
▁locations	-11902
▁obstacles	-11903
▁biologists	-11904
▁correspond	-11905
▁ecological	-11906
▁elementary	-11907
▁mathematic	-11908
▁mechanisms	-11909
▁reconstruct	-11910
▁capabilities	-11911
▁transmission	-11912
bu	-11913
apy	-11914
ffe	-11915
ias	-11916
lad	-11917
nee	-11918
▁54	-11919
▁57	-11920
▁82	-11921
▁BM	-11922
▁Cố	-11923
▁Fa	-11924
▁Rh	-11925
▁YR	-11926
▁rổ	-11927
▁uỷ	-11928
▁xơ	-11929
▁Đô	-11930
,500	-11931
acci	-11932
hall	-11933
ibon	-11934
icus	-11935
irts	-11936
kind	-11937
lers	-11938
lves	-11939
outs	-11940
quis	-11941
walk	-11942
xual	-11943
▁Def	-11944
▁Kle	-11945
▁Sol	-11946
▁Sou	-11947
▁Teh	-11948
▁Vin	-11949
▁bug	-11950
▁bóp	-11951
▁bùn	-11952
▁bội	-11953
▁bới	-11954
▁gộp	-11955
▁hàu	-11956
▁hẻo	-11957
▁khe	-11958
▁len	-11959
▁mẹo	-11960
▁oct	-11961
▁sếp	-11962
▁sỏi	-11963
▁tip	-11964
▁vẫy	-11965
▁wid	-11966
▁đồn	-11967
Point	-11968
asses	-11969
osity	-11970
rance	-11971
umble	-11972
▁Coch	-11973
▁Gaza	-11974
▁Home	-11975
▁July	-11976
▁Kiểu	-11977
▁Kong	-11978
▁Lear	-11979
▁Ngôn	-11980
▁Sher	-11981
▁bite	-11982
▁bướm	-11983
▁chat	-11984
▁clot	-11985
▁dumb	-11986
▁gluc	-11987
▁heal	-11988
▁khép	-11989
▁lượn	-11990
▁nest	-11991
▁ngơi	-11992
▁nuts	-11993
▁palm	-11994
▁quạt	-11995
▁rặng	-11996
▁sail	-11997
▁ties	-11998
▁wrap	-11999
ashing	-12000
rowing	-12001
▁Asian	-12002
▁Cloud	-12003
▁Diana	-12004
▁Fibon	-12005
▁Grace	-12006
▁Mitch	-12007
▁Niger	-12008
▁Queen	-12009
▁acids	-12010
▁arrow	-12011
▁blend	-12012
▁bucks	-12013
▁camps	-12014
▁candy	-12015
▁chặng	-12016
▁drown	-12017
▁inhab	-12018
▁inher	-12019
▁intro	-12020
▁jelly	-12021
▁juice	-12022
▁khiết	-12023
▁liêng	-12024
▁manif	-12025
▁nhược	-12026
▁punch	-12027
▁trace	-12028
eration	-12029
▁Anyone	-12030
▁Govern	-12031
▁Tehran	-12032
▁Truyền	-12033
▁cycles	-12034
▁deadly	-12035
▁immort	-12036
▁linear	-12037
▁orient	-12038
▁posted	-12039
▁sacred	-12040
▁selves	-12041
▁static	-12042
▁suburb	-12043
▁subway	-12044
▁thresh	-12045
▁ticket	-12046
▁wheels	-12047
▁Phoenix	-12048
▁circles	-12049
▁cybercr	-12050
▁educate	-12051
▁folding	-12052
▁happily	-12053
▁hunting	-12054
▁pointed	-12055
▁prisons	-12056
▁pyramid	-12057
▁shelter	-12058
▁smoking	-12059
▁spreads	-12060
▁stepped	-12061
▁Franklin	-12062
▁November	-12063
▁Stirling	-12064
▁arrested	-12065
▁charming	-12066
▁covering	-12067
▁explicit	-12068
▁flexible	-12069
▁gathered	-12070
▁graphics	-12071
▁invested	-12072
▁magnific	-12073
▁offering	-12074
▁particle	-12075
▁restrict	-12076
▁scholars	-12077
▁simplest	-12078
▁syndrome	-12079
▁throwing	-12080
▁Fibonacci	-12081
▁agreement	-12082
▁announced	-12083
▁audiences	-12084
▁bacterial	-12085
▁estimates	-12086
▁excellent	-12087
▁expanding	-12088
▁expertise	-12089
▁ignorance	-12090
▁orchestra	-12091
▁positions	-12092
▁signature	-12093
▁PowerPoint	-12094
▁continuing	-12095
▁determines	-12096
▁electrodes	-12097
▁excitement	-12098
▁landscapes	-12099
▁prosthetic	-12100
▁telescopes	-12101
▁democracies	-12102
▁Neanderthals	-12103
▁occasionally	-12104
▁concentration	-12105
▁hallucinations	-12106
AS	-12107
kh	-12108
ko	-12109
tz	-12110
ụa	-12111
aga	-12112
cin	-12113
erb	-12114
hal	-12115
iro	-12116
▁77	-12117
▁LH	-12118
▁dỡ	-12119
▁xi	-12120
▁ân	-12121
aman	-12122
aste	-12123
born	-12124
fred	-12125
icit	-12126
lean	-12127
neys	-12128
obyl	-12129
▁110	-12130
▁404	-12131
▁CAD	-12132
▁Chu	-12133
▁Eli	-12134
▁LOL	-12135
▁Mấy	-12136
▁Rec	-12137
▁Tâm	-12138
▁cẩu	-12139
▁dil	-12140
▁dys	-12141
▁dời	-12142
▁eur	-12143
▁jew	-12144
▁nap	-12145
▁nhí	-12146
▁nắp	-12147
▁rip	-12148
▁sew	-12149
▁yog	-12150
▁đan	-12151
▁đun	-12152
adian	-12153
effic	-12154
enses	-12155
geous	-12156
itzer	-12157
pless	-12158
▁1800	-12159
▁1992	-12160
▁1997	-12161
▁Bart	-12162
▁Both	-12163
▁Chim	-12164
▁Cảnh	-12165
▁Fire	-12166
▁Gard	-12167
▁Greg	-12168
▁Jama	-12169
▁Kiến	-12170
▁Mach	-12171
▁MoMA	-12172
▁Open	-12173
▁Palm	-12174
▁Peps	-12175
▁SOPA	-12176
▁Sara	-12177
▁Wiki	-12178
▁Yale	-12179
▁alle	-12180
▁blah	-12181
▁buck	-12182
▁buff	-12183
▁bump	-12184
▁bênh	-12185
▁carr	-12186
▁chốn	-12187
▁dawn	-12188
▁dent	-12189
▁fate	-12190
▁fits	-12191
▁guns	-12192
▁hors	-12193
▁keys	-12194
▁khâu	-12195
▁neck	-12196
▁rang	-12197
▁sake	-12198
▁seal	-12199
▁shit	-12200
▁stom	-12201
▁tale	-12202
▁vách	-12203
▁Đáng	-12204
▁Định	-12205
▁đàng	-12206
▁đọng	-12207
iatric	-12208
occoli	-12209
ometer	-12210
rhythm	-12211
rolled	-12212
thesia	-12213
▁1,500	-12214
▁Buddh	-12215
▁Gando	-12216
▁Mario	-12217
▁Quảng	-12218
▁Radio	-12219
▁Sorry	-12220
▁bench	-12221
▁boost	-12222
▁boots	-12223
▁cheat	-12224
▁demos	-12225
▁hopes	-12226
▁khuất	-12227
▁lungs	-12228
▁mimic	-12229
▁pairs	-12230
▁slums	-12231
▁spont	-12232
▁stake	-12233
▁wires	-12234
looking	-12235
ndering	-12236
▁25,000	-12237
▁Albert	-12238
▁brands	-12239
▁criter	-12240
▁fallen	-12241
▁gained	-12242
▁infant	-12243
▁nitric	-12244
▁packed	-12245
▁pursue	-12246
▁recall	-12247
▁surviv	-12248
▁theore	-12249
▁tomato	-12250
▁tragic	-12251
▁tumors	-12252
▁typing	-12253
▁worthy	-12254
▁carries	-12255
▁deserve	-12256
▁enthusi	-12257
▁gesture	-12258
▁kingdom	-12259
▁methane	-12260
▁neutral	-12261
▁portion	-12262
▁resolve	-12263
▁rewards	-12264
▁simpler	-12265
▁traject	-12266
▁unhappy	-12267
▁Jennifer	-12268
▁breeding	-12269
▁channels	-12270
▁cocktail	-12271
▁connects	-12272
▁division	-12273
▁failures	-12274
▁hometown	-12275
▁leverage	-12276
▁proposal	-12277
▁purposes	-12278
▁recycled	-12279
▁reinvent	-12280
▁socially	-12281
▁surgeons	-12282
▁visually	-12283
ographical	-12284
▁Venezuela	-12285
▁acknowled	-12286
▁airplanes	-12287
▁expansion	-12288
▁initially	-12289
▁intensive	-12290
▁mushrooms	-12291
▁primitive	-12292
engineering	-12293
forestation	-12294
▁adolescent	-12295
▁approaches	-12296
▁challenged	-12297
▁classrooms	-12298
▁intriguing	-12299
▁medication	-12300
▁responding	-12301
▁smartphone	-12302
▁Christopher	-12303
▁achievement	-12304
▁demographic	-12305
▁fortunately	-12306
▁foundations	-12307
▁innovations	-12308
▁neuroscient	-12309
▁supermarket	-12310
▁calculations	-12311
▁corporations	-12312
▁representative	-12313
IC	-12314
ju	-12315
MED	-12316
atz	-12317
dis	-12318
kel	-12319
log	-12320
▁53	-12321
▁Gô	-12322
▁Kế	-12323
▁PC	-12324
▁PI	-12325
▁Xã	-12326
▁nu	-12327
▁nạ	-12328
anka	-12329
cers	-12330
cost	-12331
crib	-12332
lets	-12333
ller	-12334
long	-12335
ocke	-12336
riel	-12337
stan	-12338
star	-12339
xter	-12340
▁15-	-12341
▁Bor	-12342
▁Bảy	-12343
▁Chữ	-12344
▁Hop	-12345
▁Thú	-12346
▁dâu	-12347
▁fib	-12348
▁loa	-12349
▁lứa	-12350
▁nãy	-12351
▁nếm	-12352
▁nứt	-12353
▁tie	-12354
▁xài	-12355
▁Đàn	-12356
agger	-12357
aired	-12358
aming	-12359
ancou	-12360
bling	-12361
ffiti	-12362
iders	-12363
ocity	-12364
oning	-12365
orted	-12366
reens	-12367
ushed	-12368
▁Anth	-12369
▁Băng	-12370
▁Dưới	-12371
▁Less	-12372
▁NGOs	-12373
▁Pink	-12374
▁Prob	-12375
▁Rory	-12376
▁Ryan	-12377
▁deaf	-12378
▁gods	-12379
▁khốc	-12380
▁kick	-12381
▁lake	-12382
▁lawn	-12383
▁lượm	-12384
▁lửng	-12385
▁muôn	-12386
▁ngào	-12387
▁ngắt	-12388
▁ngửi	-12389
▁nhạo	-12390
▁nuối	-12391
▁phôi	-12392
▁sale	-12393
▁silk	-12394
▁suối	-12395
▁tact	-12396
▁triv	-12397
▁trội	-12398
▁util	-12399
aneous	-12400
itated	-12401
manuel	-12402
tained	-12403
▁Chern	-12404
▁Child	-12405
▁Nguồn	-12406
▁Titan	-12407
▁bills	-12408
▁elite	-12409
▁grave	-12410
▁mines	-12411
▁owned	-12412
▁physi	-12413
▁pills	-12414
▁quăng	-12415
▁strip	-12416
▁trail	-12417
osaurus	-12418
▁12,000	-12419
▁Mozart	-12420
▁Murray	-12421
▁Norman	-12422
▁Saturn	-12423
▁Secret	-12424
▁TEDMED	-12425
▁annual	-12426
▁builds	-12427
▁bullet	-12428
▁column	-12429
▁decent	-12430
▁flavor	-12431
▁format	-12432
▁helium	-12433
▁khoang	-12434
▁panels	-12435
▁pigeon	-12436
▁proven	-12437
▁raises	-12438
▁strict	-12439
▁syring	-12440
▁tongue	-12441
▁topics	-12442
▁truths	-12443
ancouver	-12444
interest	-12445
quarters	-12446
standing	-12447
▁Caltech	-12448
▁Connect	-12449
▁Goliath	-12450
▁Katrina	-12451
▁Scratch	-12452
▁banking	-12453
▁compreh	-12454
▁counsel	-12455
▁genomes	-12456
▁mapping	-12457
▁neocort	-12458
▁officer	-12459
imination	-12460
▁Catholic	-12461
▁Olympics	-12462
▁Williams	-12463
▁criteria	-12464
▁cylinder	-12465
▁downtown	-12466
▁equality	-12467
▁findings	-12468
▁fraction	-12469
▁friendly	-12470
▁genocide	-12471
▁graffiti	-12472
▁improvis	-12473
▁portrait	-12474
▁reliable	-12475
▁replaced	-12476
▁robotics	-12477
▁stunning	-12478
▁teenager	-12479
▁wildlife	-12480
▁Chernobyl	-12481
▁Professor	-12482
▁abandoned	-12483
▁bombsight	-12484
▁conducted	-12485
▁explosion	-12486
▁fireflies	-12487
▁installed	-12488
▁investing	-12489
▁officials	-12490
▁perceived	-12491
▁terrorism	-12492
▁Copernicus	-12493
▁Technology	-12494
▁appearance	-12495
▁autonomous	-12496
▁candidates	-12497
▁capability	-12498
▁girlfriend	-12499
▁prevention	-12500
▁consciously	-12501
▁desperately	-12502
▁frightening	-12503
▁projections	-12504
▁collectively	-12505
▁contribution	-12506
▁historically	-12507
▁humanitarian	-12508
▁independence	-12509
▁psychologist	-12510
▁transforming	-12511
▁unbelievable	-12512
▁participation	-12513
▁psychologists	-12514
.7	-12515
▁ơ	-12516
100	-12517
600	-12518
aha	-12519
can	-12520
hea	-12521
hen	-12522
ibo	-12523
oko	-12524
orr	-12525
oux	-12526
rus	-12527
▁78	-12528
▁84	-12529
▁Az	-12530
▁Ur	-12531
▁hở	-12532
▁od	-12533
▁ôi	-12534
▁Đồ	-12535
▁ỏi	-12536
ador	-12537
aken	-12538
atem	-12539
clop	-12540
door	-12541
eryl	-12542
gian	-12543
igma	-12544
iley	-12545
ilty	-12546
imag	-12547
itar	-12548
moud	-12549
ocol	-12550
olby	-12551
pril	-12552
rier	-12553
rior	-12554
rypt	-12555
scar	-12556
zees	-12557
▁186	-12558
▁Ali	-12559
▁Haz	-12560
▁McK	-12561
▁Mid	-12562
▁Naz	-12563
▁Off	-12564
▁Sin	-12565
▁Thí	-12566
▁Woo	-12567
▁awe	-12568
▁cra	-12569
▁cua	-12570
▁fis	-12571
▁jet	-12572
▁lót	-12573
▁lội	-12574
▁mac	-12575
▁nin	-12576
▁quỵ	-12577
▁shy	-12578
▁thề	-12579
▁tạc	-12580
▁vàn	-12581
▁váy	-12582
▁đứt	-12583
annah	-12584
atics	-12585
emies	-12586
ennes	-12587
evity	-12588
gence	-12589
orage	-12590
ribly	-12591
sized	-12592
urday	-12593
▁Buổi	-12594
▁Move	-12595
▁Nhạc	-12596
▁Odys	-12597
▁Soph	-12598
▁Stop	-12599
▁Tora	-12600
▁Vide	-12601
▁Whit	-12602
▁Wond	-12603
▁clue	-12604
▁cube	-12605
▁excl	-12606
▁extr	-12607
▁gaps	-12608
▁mars	-12609
▁oven	-12610
▁pole	-12611
▁rape	-12612
▁trói	-12613
▁turb	-12614
▁ward	-12615
ancers	-12616
iverse	-12617
▁April	-12618
▁Bruce	-12619
▁Color	-12620
▁Dolby	-12621
▁Essex	-12622
▁Gehry	-12623
▁Guard	-12624
▁Moses	-12625
▁Pepsi	-12626
▁Tibet	-12627
▁amino	-12628
▁bribe	-12629
▁caves	-12630
▁cello	-12631
▁clues	-12632
▁discr	-12633
▁grasp	-12634
▁hired	-12635
▁minus	-12636
▁owner	-12637
▁realm	-12638
▁shout	-12639
▁stead	-12640
▁straw	-12641
▁viral	-12642
▁voted	-12643
▁worms	-12644
▁yards	-12645
theless	-12646
▁Alfred	-12647
▁Almost	-12648
▁Archie	-12649
▁Edward	-12650
▁Guatem	-12651
▁Harlem	-12652
▁Tahrir	-12653
▁chuộng	-12654
▁iconic	-12655
▁immers	-12656
▁inevit	-12657
▁jumped	-12658
▁marvel	-12659
▁nights	-12660
▁passes	-12661
▁racing	-12662
▁strike	-12663
▁summar	-12664
▁unable	-12665
▁vacuum	-12666
computer	-12667
otherapy	-12668
▁Langley	-12669
▁Mahmoud	-12670
▁Matthew	-12671
▁analogy	-12672
▁colored	-12673
▁compete	-12674
▁damaged	-12675
▁dolphin	-12676
▁enjoyed	-12677
▁forming	-12678
▁inmates	-12679
▁logical	-12680
▁minimum	-12681
▁periods	-12682
▁planted	-12683
▁shocked	-12684
▁staring	-12685
▁talents	-12686
▁Saturday	-12687
▁cheating	-12688
▁contrary	-12689
▁customer	-12690
▁democrat	-12691
▁gorgeous	-12692
▁helpless	-12693
▁heritage	-12694
▁randomly	-12695
▁redesign	-12696
▁stopping	-12697
▁supplies	-12698
▁survived	-12699
▁versions	-12700
▁Vancouver	-12701
▁answering	-12702
▁batteries	-12703
▁detection	-12704
▁gentleman	-12705
▁medicines	-12706
▁replicate	-12707
▁statistic	-12708
▁threshold	-12709
▁discipline	-12710
▁engineered	-12711
▁manipulate	-12712
▁prediction	-12713
▁reasonable	-12714
▁resolution	-12715
▁simulation	-12716
▁authorities	-12717
▁discovering	-12718
▁instruction	-12719
▁limitations	-12720
▁magnificent	-12721
▁overwhelmed	-12722
▁surveillance	-12723
▁civilizations	-12724
▁compassionate	-12725
▁interestingly	-12726
▁simultaneously	-12727
CO	-12728
dr	-12729
oe	-12730
ti	-12731
ỉa	-12732
▁ủ	-12733
awi	-12734
bốt	-12735
jev	-12736
oks	-12737
ươc	-12738
▁68	-12739
▁Aw	-12740
▁MP	-12741
▁MR	-12742
▁Mô	-12743
▁SA	-12744
▁Uỷ	-12745
▁rh	-12746
▁rò	-12747
▁tơ	-12748
acks	-12749
arin	-12750
enth	-12751
fire	-12752
olen	-12753
olum	-12754
omin	-12755
redd	-12756
rett	-12757
ties	-12758
ules	-12759
zero	-12760
▁Agn	-12761
▁Blo	-12762
▁Bra	-12763
▁Dai	-12764
▁Ext	-12765
▁Fil	-12766
▁Ill	-12767
▁Its	-12768
▁Kay	-12769
▁MBA	-12770
▁Mối	-12771
▁Mộc	-12772
▁Ott	-12773
▁Rus	-12774
▁Say	-12775
▁Sev	-12776
▁Shi	-12777
▁Suy	-12778
▁bam	-12779
▁cạo	-12780
▁cọc	-12781
▁lấn	-12782
▁nến	-12783
▁nộp	-12784
▁rệt	-12785
▁rớt	-12786
▁toa	-12787
▁tát	-12788
impse	-12789
nders	-12790
storm	-12791
ulses	-12792
under	-12793
world	-12794
xious	-12795
▁1989	-12796
▁Aust	-12797
▁Line	-12798
▁Mạng	-12799
▁Neil	-12800
▁PIPA	-12801
▁Pear	-12802
▁Phía	-12803
▁Plan	-12804
▁Poll	-12805
▁Thần	-12806
▁aunt	-12807
▁beef	-12808
▁bush	-12809
▁chui	-12810
▁chạp	-12811
▁cuts	-12812
▁dirt	-12813
▁epis	-12814
▁găng	-12815
▁hiếu	-12816
▁hăng	-12817
▁inex	-12818
▁kiềm	-12819
▁mode	-12820
▁ngủi	-12821
▁nhát	-12822
▁node	-12823
▁quẩn	-12824
▁soap	-12825
▁tước	-12826
acking	-12827
driven	-12828
ington	-12829
lihood	-12830
orious	-12831
▁Billy	-12832
▁Brend	-12833
▁Denis	-12834
▁Media	-12835
▁Meyer	-12836
▁Qaeda	-12837
▁Serge	-12838
▁Small	-12839
▁Thuật	-12840
▁align	-12841
▁badly	-12842
▁blogs	-12843
▁chuối	-12844
▁cliff	-12845
▁coinc	-12846
▁conqu	-12847
▁couch	-12848
▁cruel	-12849
▁fancy	-12850
▁inhib	-12851
▁maker	-12852
▁messy	-12853
▁ngoạn	-12854
▁nguội	-12855
▁panel	-12856
▁paste	-12857
▁phích	-12858
▁pride	-12859
▁reass	-12860
▁recre	-12861
▁remix	-12862
▁scaff	-12863
▁shelf	-12864
▁squee	-12865
▁stair	-12866
▁sweat	-12867
▁winds	-12868
sterdam	-12869
umented	-12870
ureaucr	-12871
▁Barack	-12872
▁Chuyến	-12873
▁Greece	-12874
▁Kibera	-12875
▁Online	-12876
▁Pretty	-12877
▁agents	-12878
▁anatom	-12879
▁beetle	-12880
▁client	-12881
▁cotton	-12882
▁formal	-12883
▁fundra	-12884
▁guilty	-12885
▁hybrid	-12886
▁lonely	-12887
▁magnet	-12888
▁motors	-12889
▁namely	-12890
▁shrimp	-12891
▁tattoo	-12892
▁troops	-12893
▁Absolut	-12894
▁Philipp	-12895
▁beetles	-12896
▁corrupt	-12897
▁doubled	-12898
▁enemies	-12899
▁favelas	-12900
▁glucose	-12901
▁hacking	-12902
▁highway	-12903
▁intrins	-12904
▁labeled	-12905
▁mammals	-12906
▁propose	-12907
▁reclaim	-12908
▁reports	-12909
▁secular	-12910
▁seeking	-12911
▁someday	-12912
▁stomach	-12913
▁teenage	-12914
▁terrain	-12915
▁wrapped	-12916
▁Africans	-12917
▁Southern	-12918
▁TEDsters	-12919
▁accompan	-12920
▁approved	-12921
▁broccoli	-12922
▁compound	-12923
▁counting	-12924
▁defining	-12925
▁extended	-12926
▁honestly	-12927
▁injuries	-12928
▁interven	-12929
▁kindness	-12930
▁lifespan	-12931
▁opinions	-12932
▁progeria	-12933
▁relation	-12934
▁substant	-12935
▁switched	-12936
▁Guatemala	-12937
▁believing	-12938
▁blindness	-12939
▁competing	-12940
▁correctly	-12941
▁disasters	-12942
▁favorites	-12943
▁hierarchy	-12944
▁incentive	-12945
▁judgments	-12946
▁longevity	-12947
▁mechanics	-12948
▁motivated	-12949
▁phenomena	-12950
▁recession	-12951
▁regularly	-12952
▁succeeded	-12953
▁therapies	-12954
▁universes	-12955
▁workforce	-12956
▁assignment	-12957
▁assumption	-12958
▁continuous	-12959
▁disturbing	-12960
▁expedition	-12961
▁helicopter	-12962
▁likelihood	-12963
▁mysterious	-12964
▁permission	-12965
▁physicians	-12966
▁suggestion	-12967
▁trajectory	-12968
▁ultrasound	-12969
▁chimpanzees	-12970
▁computation	-12971
▁constructed	-12972
▁interviewed	-12973
▁investments	-12974
▁Organization	-12975
▁installation	-12976
▁authoritarian	-12977
▁computational	-12978
▁rehabilitation	-12979
99	-12980
ET	-12981
ez	-12982
gl	-12983
zo	-12984
ùn	-12985
mun	-12986
rod	-12987
syl	-12988
urf	-12989
▁00	-12990
▁67	-12991
▁AG	-12992
▁BP	-12993
▁DD	-12994
▁IQ	-12995
▁Li	-12996
▁Ut	-12997
▁ZK	-12998
▁eB	-12999
▁ft	-13000
▁tẻ	-13001
▁tớ	-13002
▁vã	-13003
▁ôn	-13004
▁ắc	-13005
ched	-13006
enny	-13007
ieve	-13008
itra	-13009
lend	-13010
oned	-13011
opus	-13012
plus	-13013
seen	-13014
uate	-13015
▁12-	-13016
▁189	-13017
▁Bil	-13018
▁Căn	-13019
▁Cứu	-13020
▁Dal	-13021
▁FBI	-13022
▁Git	-13023
▁Gra	-13024
▁INC	-13025
▁Kep	-13026
▁Kos	-13027
▁Nik	-13028
▁Nỗi	-13029
▁Pen	-13030
▁Pic	-13031
▁Row	-13032
▁Sri	-13033
▁Thủ	-13034
▁USD	-13035
▁Ult	-13036
▁Xây	-13037
▁bọt	-13038
▁daf	-13039
▁dồi	-13040
▁hun	-13041
▁jan	-13042
▁khử	-13043
▁ngả	-13044
▁sir	-13045
▁xốp	-13046
▁đãi	-13047
ilton	-13048
leans	-13049
umara	-13050
vania	-13051
▁Chân	-13052
▁Coun	-13053
▁Càng	-13054
▁Dick	-13055
▁Educ	-13056
▁Evan	-13057
▁Ferr	-13058
▁Full	-13059
▁Jake	-13060
▁Joey	-13061
▁Karl	-13062
▁Kate	-13063
▁Kent	-13064
▁Năng	-13065
▁Soci	-13066
▁Viết	-13067
▁calm	-13068
▁cham	-13069
▁chọi	-13070
▁marg	-13071
▁mast	-13072
▁solo	-13073
▁sưởi	-13074
▁tiệt	-13075
▁unst	-13076
elines	-13077
icient	-13078
ograms	-13079
reatic	-13080
urable	-13081
usters	-13082
weight	-13083
▁Ahmed	-13084
▁Carib	-13085
▁Creat	-13086
▁Greek	-13087
▁Harry	-13088
▁Jacqu	-13089
▁Maria	-13090
▁Sleep	-13091
▁Spain	-13092
▁Start	-13093
▁Tarah	-13094
▁Thula	-13095
▁Weibo	-13096
▁ambit	-13097
▁ambul	-13098
▁cares	-13099
▁flows	-13100
▁hated	-13101
▁ingen	-13102
▁loose	-13103
▁overl	-13104
▁revel	-13105
▁screw	-13106
▁ships	-13107
▁spare	-13108
▁thừng	-13109
▁vướng	-13110
▁yeast	-13111
ilation	-13112
itative	-13113
ruption	-13114
▁60,000	-13115
▁Kepler	-13116
▁Miller	-13117
▁Potter	-13118
▁Spring	-13119
▁Tennes	-13120
▁Thương	-13121
▁advent	-13122
▁apples	-13123
▁campus	-13124
▁grains	-13125
▁loving	-13126
▁modest	-13127
▁nerves	-13128
▁nightm	-13129
▁overse	-13130
▁propag	-13131
▁stolen	-13132
▁tempor	-13133
▁tribal	-13134
▁valley	-13135
▁viewer	-13136
sylvania	-13137
▁Anybody	-13138
▁Orleans	-13139
▁deepest	-13140
▁easiest	-13141
▁fantasy	-13142
▁glacier	-13143
▁glimpse	-13144
▁hardest	-13145
▁jumping	-13146
▁origins	-13147
▁outrage	-13148
▁passive	-13149
▁shaking	-13150
▁storage	-13151
▁trigger	-13152
▁useless	-13153
▁venture	-13154
▁Although	-13155
▁Arkansas	-13156
▁Maryland	-13157
▁Ministry	-13158
▁Nicholas	-13159
▁Victoria	-13160
▁activate	-13161
▁applying	-13162
▁cellular	-13163
▁concerns	-13164
▁coverage	-13165
▁detector	-13166
▁earliest	-13167
▁ideology	-13168
▁momentum	-13169
▁rejected	-13170
▁scanning	-13171
▁shepherd	-13172
▁stranger	-13173
▁theories	-13174
▁worrying	-13175
ustainable	-13176
▁Biosphere	-13177
▁Sebastian	-13178
▁abilities	-13179
▁abundance	-13180
▁aesthetic	-13181
▁associate	-13182
▁attitudes	-13183
▁biologist	-13184
▁container	-13185
▁electrons	-13186
▁eliminate	-13187
▁empowered	-13188
▁expecting	-13189
▁illusions	-13190
▁investors	-13191
▁involving	-13192
▁parenting	-13193
▁resistant	-13194
▁seemingly	-13195
▁tolerance	-13196
▁Mathematic	-13197
▁Tarahumara	-13198
▁aggressive	-13199
▁courageous	-13200
▁disability	-13201
▁frequently	-13202
▁impression	-13203
▁ingredient	-13204
▁meditation	-13205
▁narratives	-13206
▁physicists	-13207
▁reflection	-13208
▁sculptures	-13209
▁systematic	-13210
▁Palestinian	-13211
▁approaching	-13212
▁beautifully	-13213
▁chromosomes	-13214
▁documentary	-13215
▁established	-13216
▁legislation	-13217
▁programmers	-13218
▁proposition	-13219
▁Pennsylvania	-13220
▁embarrassing	-13221
▁refrigerator	-13222
▁significance	-13223
▁temperatures	-13224
▁controversial	-13225
▁extraordinarily	-13226
sa	-13227
su	-13228
201	-13229
agu	-13230
aro	-13231
eds	-13232
isc	-13233
lav	-13234
oes	-13235
omi	-13236
pos	-13237
vin	-13238
ệch	-13239
▁94	-13240
▁Pa	-13241
▁Xe	-13242
▁Xu	-13243
▁cớ	-13244
▁dy	-13245
▁kg	-13246
▁mị	-13247
▁ol	-13248
▁sờ	-13249
▁ts	-13250
bean	-13251
bris	-13252
ergy	-13253
gram	-13254
imet	-13255
ints	-13256
jevo	-13257
mate	-13258
pres	-13259
ulty	-13260
uman	-13261
ynth	-13262
▁Age	-13263
▁Bow	-13264
▁Buy	-13265
▁Của	-13266
▁Dig	-13267
▁Joh	-13268
▁Môi	-13269
▁Pet	-13270
▁RNA	-13271
▁Spe	-13272
▁Trí	-13273
▁Wol	-13274
▁bời	-13275
▁cưa	-13276
▁cằn	-13277
▁dào	-13278
▁lex	-13279
▁lon	-13280
▁lụa	-13281
▁mìn	-13282
▁rìu	-13283
▁sod	-13284
▁sứa	-13285
▁xấp	-13286
▁đạm	-13287
actic	-13288
arten	-13289
illas	-13290
▁1986	-13291
▁Beat	-13292
▁Chúc	-13293
▁Hard	-13294
▁Hope	-13295
▁Keep	-13296
▁Limb	-13297
▁Mell	-13298
▁Saul	-13299
▁Supp	-13300
▁Type	-13301
▁UCLA	-13302
▁Whoa	-13303
▁ampl	-13304
▁apps	-13305
▁chật	-13306
▁dẳng	-13307
▁forb	-13308
▁gram	-13309
▁incl	-13310
▁infl	-13311
▁loan	-13312
▁rent	-13313
▁rong	-13314
▁seas	-13315
▁sons	-13316
▁thạo	-13317
arians	-13318
ilated	-13319
income	-13320
istory	-13321
olitan	-13322
person	-13323
rained	-13324
spring	-13325
uously	-13326
▁Being	-13327
▁Brand	-13328
▁Dalai	-13329
▁Dường	-13330
▁Norwe	-13331
▁Oprah	-13332
▁Oscar	-13333
▁Phong	-13334
▁Psych	-13335
▁Sioux	-13336
▁Thỉnh	-13337
▁Tranh	-13338
▁artic	-13339
▁brave	-13340
▁dilem	-13341
▁entry	-13342
▁farms	-13343
▁giáng	-13344
▁grace	-13345
▁jewel	-13346
▁khinh	-13347
▁knife	-13348
▁lists	-13349
▁marry	-13350
▁obese	-13351
▁oxide	-13352
▁phanh	-13353
▁prose	-13354
▁raped	-13355
▁thiêu	-13356
▁toast	-13357
▁vivid	-13358
ulative	-13359
usiness	-13360
▁Arabia	-13361
▁Browne	-13362
▁Carter	-13363
▁Dennis	-13364
▁During	-13365
▁Justin	-13366
▁Rather	-13367
▁Stefan	-13368
▁Studio	-13369
▁Yellow	-13370
▁bother	-13371
▁canvas	-13372
▁chains	-13373
▁convey	-13374
▁khuếch	-13375
▁legend	-13376
▁luxury	-13377
▁mentor	-13378
▁pedest	-13379
▁retail	-13380
▁safely	-13381
▁scales	-13382
▁smells	-13383
▁stabil	-13384
▁upside	-13385
▁wooden	-13386
clopedia	-13387
elescope	-13388
▁Anthony	-13389
▁Environ	-13390
▁Freedom	-13391
▁Liberia	-13392
▁Mexican	-13393
▁Similar	-13394
▁Switzer	-13395
▁Tunisia	-13396
▁basking	-13397
▁beloved	-13398
▁cancers	-13399
▁cooling	-13400
▁courses	-13401
▁crossed	-13402
▁descend	-13403
▁follows	-13404
▁generic	-13405
▁heading	-13406
▁honesty	-13407
▁horizon	-13408
▁islands	-13409
▁profits	-13410
▁selfish	-13411
▁squared	-13412
▁strings	-13413
▁trapped	-13414
▁visions	-13415
▁Cochrane	-13416
▁Egyptian	-13417
▁accuracy	-13418
▁attacked	-13419
▁autonomy	-13420
▁boundary	-13421
▁clothing	-13422
▁diagnost	-13423
▁dynamics	-13424
▁exposure	-13425
▁informed	-13426
▁overhead	-13427
▁pleasant	-13428
▁striking	-13429
▁websites	-13430
▁Tennessee	-13431
▁amazingly	-13432
▁ambitious	-13433
▁anonymous	-13434
▁convicted	-13435
▁filmmaker	-13436
▁isolation	-13437
▁receiving	-13438
▁automobile	-13439
▁chromosome	-13440
▁confronted	-13441
▁consistent	-13442
▁destroying	-13443
▁impressive	-13444
▁infections	-13445
▁monitoring	-13446
▁nonviolent	-13447
▁politician	-13448
▁practicing	-13449
▁professors	-13450
▁regardless	-13451
▁sanitation	-13452
▁Switzerland	-13453
▁acknowledge	-13454
▁discoveries	-13455
▁partnership	-13456
▁realization	-13457
▁regulations	-13458
▁technically	-13459
▁understands	-13460
▁authenticity	-13461
▁measurements	-13462
▁philosophical	-13463
▁interpretation	-13464
40	-13465
Pr	-13466
ui	-13467
và	-13468
arg	-13469
dad	-13470
eem	-13471
ori	-13472
shi	-13473
wan	-13474
yre	-13475
▁76	-13476
▁Cy	-13477
▁HP	-13478
▁Kỹ	-13479
▁SB	-13480
▁bì	-13481
▁êm	-13482
▁Ảo	-13483
acon	-13484
alin	-13485
asso	-13486
bitr	-13487
colm	-13488
erto	-13489
fund	-13490
holm	-13491
itha	-13492
mann	-13493
mond	-13494
moor	-13495
ulin	-13496
▁CIA	-13497
▁Cla	-13498
▁Cây	-13499
▁Cục	-13500
▁Dor	-13501
▁Lyn	-13502
▁Naj	-13503
▁Sum	-13504
▁Thị	-13505
▁Try	-13506
▁Trò	-13507
▁Tso	-13508
▁Voy	-13509
▁bio	-13510
▁cán	-13511
▁giế	-13512
▁gạo	-13513
▁hao	-13514
▁hen	-13515
▁háo	-13516
▁jam	-13517
▁lụt	-13518
▁méo	-13519
▁nới	-13520
▁pad	-13521
▁thỏ	-13522
▁trá	-13523
▁tua	-13524
▁tít	-13525
▁vel	-13526
adium	-13527
atops	-13528
chron	-13529
erior	-13530
lfare	-13531
oting	-13532
▁Beau	-13533
▁Bono	-13534
▁Brad	-13535
▁Cuba	-13536
▁Diet	-13537
▁Dịch	-13538
▁Hiệu	-13539
▁Kids	-13540
▁Lama	-13541
▁Maya	-13542
▁Mong	-13543
▁Pers	-13544
▁Phục	-13545
▁Pitt	-13546
▁alph	-13547
▁axit	-13548
▁bowl	-13549
▁buồm	-13550
▁cass	-13551
▁chốc	-13552
▁cope	-13553
▁dens	-13554
▁kiều	-13555
▁láng	-13556
▁mask	-13557
▁mesh	-13558
▁ngạo	-13559
▁ngọc	-13560
▁nhại	-13561
▁nhấc	-13562
▁nhục	-13563
▁obsc	-13564
▁pays	-13565
▁rose	-13566
▁subt	-13567
▁thus	-13568
▁thảy	-13569
▁tuộc	-13570
▁unle	-13571
▁urge	-13572
▁vary	-13573
▁vành	-13574
▁đính	-13575
active	-13576
eaking	-13577
effect	-13578
estone	-13579
inking	-13580
usting	-13581
vasive	-13582
vation	-13583
▁6,000	-13584
▁Bayes	-13585
▁Freud	-13586
▁Jason	-13587
▁Jimmy	-13588
▁Linux	-13589
▁Seven	-13590
▁Video	-13591
▁aspir	-13592
▁chess	-13593
▁chích	-13594
▁embod	-13595
▁gamma	-13596
▁khoác	-13597
▁lever	-13598
▁lifel	-13599
▁nhúng	-13600
▁orang	-13601
▁pulse	-13602
▁reput	-13603
▁sands	-13604
▁scans	-13605
▁sched	-13606
▁shots	-13607
▁towel	-13608
▁woods	-13609
▁zones	-13610
powered	-13611
thetics	-13612
▁Achill	-13613
▁Aurora	-13614
▁Donald	-13615
▁Michel	-13616
▁Rezero	-13617
▁accent	-13618
▁arbitr	-13619
▁calend	-13620
▁empath	-13621
▁fisher	-13622
▁frames	-13623
▁fruits	-13624
▁harbor	-13625
▁intact	-13626
▁manner	-13627
▁planes	-13628
▁puppet	-13629
▁relief	-13630
▁remitt	-13631
▁riding	-13632
▁scenes	-13633
▁tracks	-13634
▁underm	-13635
▁wasted	-13636
▁500,000	-13637
▁Country	-13638
▁Hawking	-13639
▁Italian	-13640
▁Malcolm	-13641
▁Russell	-13642
▁Society	-13643
▁adopted	-13644
▁blogger	-13645
▁counted	-13646
▁dancers	-13647
▁elegant	-13648
▁grocery	-13649
▁laptops	-13650
▁octopus	-13651
▁powered	-13652
▁rescued	-13653
▁squares	-13654
▁symptom	-13655
▁teaches	-13656
▁Cambodia	-13657
▁Mitchell	-13658
▁Sarajevo	-13659
▁actively	-13660
▁advances	-13661
▁blocking	-13662
▁entering	-13663
▁literacy	-13664
▁magician	-13665
▁managing	-13666
▁manifest	-13667
▁observed	-13668
▁overseas	-13669
▁passions	-13670
▁pathways	-13671
▁pipeline	-13672
▁tangible	-13673
▁touching	-13674
▁Amsterdam	-13675
▁Broadmoor	-13676
▁Photoshop	-13677
▁addiction	-13678
▁celebrity	-13679
▁comparing	-13680
▁criminals	-13681
▁diplomacy	-13682
▁dominated	-13683
▁estimated	-13684
▁inflation	-13685
▁integrate	-13686
▁massively	-13687
▁occurring	-13688
▁producers	-13689
▁reproduce	-13690
▁responded	-13691
▁terrified	-13692
▁vegetable	-13693
▁Absolutely	-13694
▁Christians	-13695
▁congestion	-13696
▁encouraged	-13697
▁extinction	-13698
▁friendship	-13699
▁generosity	-13700
▁metabolism	-13701
▁pancreatic	-13702
▁privileged	-13703
▁remarkably	-13704
▁Mathematica	-13705
▁astronomers	-13706
▁competitive	-13707
▁encouraging	-13708
▁accomplished	-13709
▁biodiversity	-13710
▁observations	-13711
▁perspectives	-13712
▁deforestation	-13713
▁systematically	-13714
▁entrepreneurial	-13715
,7	-13716
EG	-13717
yg	-13718
õm	-13719
ún	-13720
ợm	-13721
300	-13722
aba	-13723
bow	-13724
nat	-13725
rog	-13726
ỳnh	-13727
▁39	-13728
▁IK	-13729
▁Mi	-13730
▁Vị	-13731
▁bự	-13732
▁nộ	-13733
▁tở	-13734
▁yo	-13735
atma	-13736
corn	-13737
emon	-13738
food	-13739
icut	-13740
iece	-13741
iful	-13742
otte	-13743
teen	-13744
ucky	-13745
▁Alt	-13746
▁Báo	-13747
▁Emp	-13748
▁Hit	-13749
▁Leo	-13750
▁Mao	-13751
▁Max	-13752
▁Oxy	-13753
▁Sai	-13754
▁Tạp	-13755
▁Way	-13756
▁geo	-13757
▁gớm	-13758
▁hoi	-13759
▁hut	-13760
▁jaw	-13761
▁kit	-13762
▁kép	-13763
▁nob	-13764
▁nud	-13765
▁phả	-13766
▁rib	-13767
▁sib	-13768
▁tid	-13769
▁toạ	-13770
▁vùi	-13771
▁vắt	-13772
▁wow	-13773
▁Đâu	-13774
Qaeda	-13775
Women	-13776
ambia	-13777
eries	-13778
fting	-13779
icill	-13780
ifact	-13781
ighth	-13782
inent	-13783
verts	-13784
▁2013	-13785
▁Bach	-13786
▁Barb	-13787
▁Biết	-13788
▁Chết	-13789
▁Cuốn	-13790
▁Fall	-13791
▁Gord	-13792
▁Hosp	-13793
▁Juan	-13794
▁Kiva	-13795
▁Luke	-13796
▁Luân	-13797
▁Mond	-13798
▁Mười	-13799
▁Nhất	-13800
▁Pran	-13801
▁Sean	-13802
▁Shah	-13803
▁Virt	-13804
▁Wood	-13805
▁cage	-13806
▁calc	-13807
▁coat	-13808
▁cows	-13809
▁dare	-13810
▁disg	-13811
▁diễu	-13812
▁drew	-13813
▁dưng	-13814
▁hipp	-13815
▁hurd	-13816
▁jung	-13817
▁nhọn	-13818
▁nhốt	-13819
▁orph	-13820
▁phàn	-13821
▁span	-13822
▁subm	-13823
▁thốn	-13824
▁toll	-13825
▁tsun	-13826
▁tụng	-13827
▁vựng	-13828
▁wins	-13829
▁đươc	-13830
acious	-13831
asking	-13832
atical	-13833
coming	-13834
geries	-13835
ocracy	-13836
orters	-13837
utions	-13838
▁Agnes	-13839
▁Eight	-13840
▁Libya	-13841
▁Party	-13842
▁Still	-13843
▁Turns	-13844
▁altru	-13845
▁anten	-13846
▁balls	-13847
▁cared	-13848
▁chinh	-13849
▁choir	-13850
▁comic	-13851
▁drunk	-13852
▁expon	-13853
▁fatal	-13854
▁giếng	-13855
▁incom	-13856
▁knees	-13857
▁lingu	-13858
▁loyal	-13859
▁shirt	-13860
▁tiles	-13861
▁tràng	-13862
abulary	-13863
inguish	-13864
▁80,000	-13865
▁Notice	-13866
▁Wilson	-13867
▁amazed	-13868
▁apolog	-13869
▁beaten	-13870
▁casual	-13871
▁condom	-13872
▁cosmic	-13873
▁cracks	-13874
▁curves	-13875
▁enzyme	-13876
▁erotic	-13877
▁execut	-13878
▁exquis	-13879
▁golden	-13880
▁graphs	-13881
▁intang	-13882
▁lowest	-13883
▁masses	-13884
▁multin	-13885
▁murder	-13886
▁pestic	-13887
▁prepar	-13888
▁rhythm	-13889
▁tables	-13890
▁traces	-13891
▁viscer	-13892
▁winner	-13893
olumines	-13894
ximately	-13895
▁Council	-13896
▁Hungary	-13897
▁Mahatma	-13898
▁Someone	-13899
▁Walmart	-13900
▁altered	-13901
▁assumed	-13902
▁belongs	-13903
▁bridges	-13904
▁budgets	-13905
▁corners	-13906
▁exhibit	-13907
▁farming	-13908
▁founder	-13909
▁inhabit	-13910
▁planned	-13911
▁playful	-13912
▁reforms	-13913
▁regrets	-13914
▁shifted	-13915
▁telecom	-13916
▁torture	-13917
▁trusted	-13918
▁welfare	-13919
ographics	-13920
▁Security	-13921
▁altitude	-13922
▁artifact	-13923
▁cleaning	-13924
▁consumed	-13925
▁elevator	-13926
▁famously	-13927
▁freezing	-13928
▁geometry	-13929
▁membrane	-13930
▁scaffold	-13931
▁smallest	-13932
▁spinning	-13933
▁terribly	-13934
▁underest	-13935
▁veterans	-13936
▁Stockholm	-13937
▁Telescope	-13938
▁activists	-13939
▁ambulance	-13940
▁equations	-13941
▁offspring	-13942
▁platforms	-13943
▁portraits	-13944
▁realistic	-13945
▁reasoning	-13946
▁reflected	-13947
▁staircase	-13948
▁Parliament	-13949
▁Transition	-13950
▁apartments	-13951
▁commission	-13952
▁documented	-13953
▁frightened	-13954
▁inevitably	-13955
▁irrational	-13956
▁procedures	-13957
▁publishing	-13958
▁Connecticut	-13959
▁illustrates	-13960
▁journalists	-13961
▁predictable	-13962
▁replacement	-13963
▁researching	-13964
▁stimulation	-13965
▁institutional	-13966
▁multinational	-13967
▁administration	-13968
.2	-13969
Ar	-13970
OS	-13971
bi	-13972
ũa	-13973
ẹt	-13974
▁)	-13975
abs	-13976
apm	-13977
bot	-13978
dog	-13979
fur	-13980
gia	-13981
hio	-13982
nge	-13983
nov	-13984
obe	-13985
oos	-13986
ovo	-13987
rig	-13988
roç	-13989
run	-13990
▁89	-13991
▁AT	-13992
▁JR	-13993
▁KB	-13994
▁NO	-13995
▁SS	-13996
▁TD	-13997
▁TH	-13998
▁Vụ	-13999
▁bỉ	-14000
alie	-14001
amil	-14002
anas	-14003
aque	-14004
ashy	-14005
atan	-14006
eaks	-14007
etts	-14008
flix	-14009
iatr	-14010
iflu	-14011
ilot	-14012
itty	-14013
mass	-14014
oker	-14015
otes	-14016
owan	-14017
seus	-14018
usty	-14019
▁Add	-14020
▁Civ	-14021
▁Cầu	-14022
▁Dec	-14023
▁Dun	-14024
▁Hal	-14025
▁Hmm	-14026
▁Jen	-14027
▁MBI	-14028
▁Nội	-14029
▁Rub	-14030
▁Sex	-14031
▁Til	-14032
▁Tập	-14033
▁Viv	-14034
▁Wis	-14035
▁chổ	-14036
▁cum	-14037
▁cào	-14038
▁củi	-14039
▁fer	-14040
▁ger	-14041
▁gót	-14042
▁gắt	-14043
▁hey	-14044
▁lén	-14045
▁lọt	-14046
▁nấc	-14047
▁nực	-14048
▁ski	-14049
▁thy	-14050
▁von	-14051
▁woo	-14052
▁Đào	-14053
▁đầm	-14054
▁đốn	-14055
achus	-14056
ascal	-14057
berty	-14058
break	-14059
elect	-14060
found	-14061
inery	-14062
ipcar	-14063
oples	-14064
umann	-14065
▁Andy	-14066
▁Cape	-14067
▁Gapm	-14068
▁Jews	-14069
▁Lady	-14070
▁Laur	-14071
▁Lòng	-14072
▁Mard	-14073
▁Minh	-14074
▁Mull	-14075
▁Neur	-14076
▁Nghị	-14077
▁Quần	-14078
▁Tuần	-14079
▁Tuổi	-14080
▁USDA	-14081
▁Wang	-14082
▁blur	-14083
▁buzz	-14084
▁chop	-14085
▁craw	-14086
▁giàn	-14087
▁khoe	-14088
▁kiếp	-14089
▁lean	-14090
▁liêu	-14091
▁lách	-14092
▁lười	-14093
▁mold	-14094
▁penc	-14095
▁phớt	-14096
▁porn	-14097
▁quar	-14098
▁quầy	-14099
▁rays	-14100
▁rode	-14101
▁rảnh	-14102
▁slip	-14103
▁symp	-14104
ailand	-14105
ankton	-14106
bercul	-14107
emical	-14108
everly	-14109
lining	-14110
orough	-14111
orship	-14112
thirds	-14113
velope	-14114
▁Geoff	-14115
▁Glass	-14116
▁Grant	-14117
▁Helen	-14118
▁INCRA	-14119
▁Jamie	-14120
▁Karen	-14121
▁Osama	-14122
▁Point	-14123
▁arise	-14124
▁awake	-14125
▁bless	-14126
▁cable	-14127
▁consp	-14128
▁depos	-14129
▁feeds	-14130
▁femin	-14131
▁fract	-14132
▁gross	-14133
▁heter	-14134
▁huỳnh	-14135
▁laund	-14136
▁loses	-14137
▁patch	-14138
▁phiện	-14139
▁rises	-14140
▁salad	-14141
▁slept	-14142
▁stays	-14143
▁usage	-14144
▁wrest	-14145
icillin	-14146
itution	-14147
▁Baxter	-14148
▁Bonnet	-14149
▁Canyon	-14150
▁Cooper	-14151
▁Except	-14152
▁Friend	-14153
▁Garden	-14154
▁Gordon	-14155
▁Pascal	-14156
▁Tricer	-14157
▁Twenty	-14158
▁acoust	-14159
▁behalf	-14160
▁binary	-14161
▁choàng	-14162
▁dating	-14163
▁exotic	-14164
▁famine	-14165
▁helmet	-14166
▁lifted	-14167
▁mapped	-14168
▁marrow	-14169
▁mutual	-14170
▁occurs	-14171
▁plates	-14172
▁rolled	-14173
▁scarce	-14174
▁shifts	-14175
▁stigma	-14176
▁storms	-14177
▁unfair	-14178
▁voters	-14179
function	-14180
▁Bahamas	-14181
▁Beverly	-14182
▁Heather	-14183
▁Hopkins	-14184
▁Indiana	-14185
▁Natural	-14186
▁Stanley	-14187
▁Tamiflu	-14188
▁Voyager	-14189
▁absence	-14190
▁archive	-14191
▁blowing	-14192
▁browser	-14193
▁cousins	-14194
▁ecology	-14195
▁enabled	-14196
▁enlight	-14197
▁exagger	-14198
▁forgive	-14199
▁impress	-14200
▁injured	-14201
▁landing	-14202
▁laughed	-14203
▁luckily	-14204
▁melting	-14205
▁optical	-14206
▁passage	-14207
▁posters	-14208
▁screens	-14209
▁sensing	-14210
▁seventh	-14211
▁shining	-14212
▁stadium	-14213
▁streams	-14214
▁tension	-14215
▁texture	-14216
▁winners	-14217
ationally	-14218
efficient	-14219
sociation	-14220
wandering	-14221
▁Building	-14222
▁Guardian	-14223
▁Odysseus	-14224
▁Thailand	-14225
▁acquired	-14226
▁blogging	-14227
▁catching	-14228
▁contempl	-14229
▁deployed	-14230
▁dropping	-14231
▁envelope	-14232
▁explored	-14233
▁explores	-14234
▁headline	-14235
▁hopeless	-14236
▁intended	-14237
▁interior	-14238
▁lectures	-14239
▁minority	-14240
▁mustache	-14241
▁releases	-14242
▁selected	-14243
▁thinkers	-14244
▁vacation	-14245
berculosis	-14246
▁According	-14247
▁Economist	-14248
▁Gapminder	-14249
▁Himalayas	-14250
▁alongside	-14251
▁cigarette	-14252
▁compounds	-14253
▁embracing	-14254
▁intensity	-14255
▁jellyfish	-14256
▁mutations	-14257
▁neocortex	-14258
▁observing	-14259
▁obsession	-14260
▁processed	-14261
▁recycling	-14262
▁surgeries	-14263
▁accounting	-14264
▁accurately	-14265
▁anesthesia	-14266
▁antibodies	-14267
▁biolumines	-14268
▁calculated	-14269
▁capitalism	-14270
▁conscience	-14271
▁exceptions	-14272
▁penicillin	-14273
▁projection	-14274
▁suspicious	-14275
▁vocabulary	-14276
▁Triceratops	-14277
▁calculation	-14278
▁collaborate	-14279
▁destination	-14280
▁discussions	-14281
▁emotionally	-14282
▁integration	-14283
▁preparation	-14284
▁revolutions	-14285
▁concentrated	-14286
▁connectivity	-14287
▁presidential	-14288
▁experimenting	-14289
,1	-14290
,2	-14291
,8	-14292
.6	-14293
EF	-14294
NG	-14295
ww	-14296
êc	-14297
▁ả	-14298
Man	-14299
aki	-14300
awn	-14301
cam	-14302
ecd	-14303
jan	-14304
ker	-14305
vít	-14306
▁Bồ	-14307
▁MM	-14308
▁Uh	-14309
▁Yo	-14310
▁xì	-14311
▁xổ	-14312
auts	-14313
bees	-14314
bian	-14315
cano	-14316
erer	-14317
erey	-14318
eros	-14319
fare	-14320
five	-14321
horn	-14322
iate	-14323
ibri	-14324
inas	-14325
inch	-14326
oric	-14327
orse	-14328
page	-14329
phal	-14330
rays	-14331
▁1.4	-14332
▁Dur	-14333
▁EEG	-14334
▁Kin	-14335
▁LHC	-14336
▁Nov	-14337
▁Pur	-14338
▁Spl	-14339
▁Thư	-14340
▁Tấm	-14341
▁Tới	-14342
▁avo	-14343
▁bén	-14344
▁chk	-14345
▁chà	-14346
▁côi	-14347
▁cúi	-14348
▁cửu	-14349
▁dạn	-14350
▁gốm	-14351
▁gục	-14352
▁los	-14353
▁lãi	-14354
▁mud	-14355
▁mài	-14356
▁mác	-14357
▁mỉa	-14358
▁oxi	-14359
▁rùa	-14360
▁seg	-14361
▁trệ	-14362
▁tut	-14363
▁tỉa	-14364
▁vỉa	-14365
▁xào	-14366
▁Đặt	-14367
▁đặn	-14368
arest	-14369
iated	-14370
inter	-14371
ouses	-14372
udice	-14373
vable	-14374
▁1940	-14375
▁Berg	-14376
▁Best	-14377
▁Cass	-14378
▁Data	-14379
▁Diff	-14380
▁Fund	-14381
▁Giao	-14382
▁Hiển	-14383
▁IKEA	-14384
▁Jess	-14385
▁Judy	-14386
▁Khối	-14387
▁Mean	-14388
▁Niềm	-14389
▁Pass	-14390
▁Phân	-14391
▁Pier	-14392
▁Real	-14393
▁Sadd	-14394
▁Siêu	-14395
▁Troy	-14396
▁Wide	-14397
▁Xanh	-14398
▁bore	-14399
▁bugs	-14400
▁bulb	-14401
▁cups	-14402
▁ency	-14403
▁exha	-14404
▁herd	-14405
▁hook	-14406
▁lips	-14407
▁lump	-14408
▁merg	-14409
▁nháy	-14410
▁nhức	-14411
▁pron	-14412
▁spat	-14413
▁thối	-14414
▁tide	-14415
▁toes	-14416
▁unve	-14417
▁điểu	-14418
alysis	-14419
ennium	-14420
erving	-14421
inable	-14422
ologic	-14423
ynthia	-14424
▁7,000	-14425
▁Casey	-14426
▁Civil	-14427
▁Const	-14428
▁DARPA	-14429
▁Hirsh	-14430
▁Lanka	-14431
▁Lượng	-14432
▁Naomi	-14433
▁Stein	-14434
▁Trang	-14435
▁alert	-14436
▁arter	-14437
▁belly	-14438
▁boats	-14439
▁careg	-14440
▁chênh	-14441
▁crank	-14442
▁drops	-14443
▁embry	-14444
▁ethic	-14445
▁fails	-14446
▁fence	-14447
▁fungi	-14448
▁gramm	-14449
▁haunt	-14450
▁hoped	-14451
▁index	-14452
▁kilos	-14453
▁naive	-14454
▁neutr	-14455
▁norms	-14456
▁parag	-14457
▁parks	-14458
▁paths	-14459
▁radar	-14460
▁regul	-14461
▁risky	-14462
▁sends	-14463
▁sizes	-14464
▁spong	-14465
▁sương	-14466
▁taxes	-14467
centure	-14468
inating	-14469
ologies	-14470
version	-14471
▁Critic	-14472
▁Hitler	-14473
▁Hunter	-14474
▁Inside	-14475
▁Mellon	-14476
▁Nether	-14477
▁Office	-14478
▁Public	-14479
▁Thirty	-14480
▁Viking	-14481
▁alumin	-14482
▁bamboo	-14483
▁bypass	-14484
▁defeat	-14485
▁depart	-14486
▁dishes	-14487
▁donors	-14488
▁emails	-14489
▁excuse	-14490
▁export	-14491
▁fluctu	-14492
▁folded	-14493
▁hugely	-14494
▁insert	-14495
▁intric	-14496
▁lethal	-14497
▁metals	-14498
▁mixing	-14499
▁purple	-14500
▁reader	-14501
▁salary	-14502
▁submit	-14503
▁temple	-14504
▁tennis	-14505
▁thread	-14506
▁thrive	-14507
▁virtue	-14508
vascular	-14509
▁Cynthia	-14510
▁Freeman	-14511
▁Kingdom	-14512
▁Netflix	-14513
▁Rockett	-14514
▁Swedish	-14515
▁Virtual	-14516
▁anxious	-14517
▁captain	-14518
▁charged	-14519
▁closest	-14520
▁creator	-14521
▁default	-14522
▁earning	-14523
▁eastern	-14524
▁harmony	-14525
▁heating	-14526
▁heavily	-14527
▁leopard	-14528
▁lesbian	-14529
▁longest	-14530
▁matched	-14531
▁museums	-14532
▁peoples	-14533
▁pleased	-14534
▁premise	-14535
▁priorit	-14536
▁proceed	-14537
▁recruit	-14538
▁richest	-14539
▁swallow	-14540
▁syringe	-14541
▁trivial	-14542
▁undergo	-14543
▁utterly	-14544
▁warrior	-14545
achusetts	-14546
▁Canadian	-14547
▁Marshall	-14548
▁Monterey	-14549
▁Together	-14550
▁analyzed	-14551
▁assemble	-14552
▁branches	-14553
▁contamin	-14554
▁decrease	-14555
▁deserves	-14556
▁enjoying	-14557
▁estrogen	-14558
▁incorpor	-14559
▁intimacy	-14560
▁intimate	-14561
▁inventor	-14562
▁mentally	-14563
▁operates	-14564
▁sidewalk	-14565
▁targeted	-14566
▁variable	-14567
ifications	-14568
▁Accenture	-14569
▁Caribbean	-14570
▁Charlotte	-14571
▁Democracy	-14572
▁attracted	-14573
▁dictators	-14574
▁distances	-14575
▁elephants	-14576
▁emergence	-14577
▁expressed	-14578
▁microblog	-14579
▁relatives	-14580
▁residents	-14581
▁sexuality	-14582
▁stressful	-14583
▁territory	-14584
▁textbooks	-14585
▁witnessed	-14586
▁Democratic	-14587
▁celebrated	-14588
▁initiative	-14589
▁millimeter	-14590
▁networking	-14591
▁preventing	-14592
▁priorities	-14593
▁quantities	-14594
▁terrorists	-14595
▁Netherlands	-14596
▁expectation	-14597
▁transported	-14598
▁demonstrates	-14599
▁nevertheless	-14600
▁philosophers	-14601
▁tuberculosis	-14602
▁communicating	-14603
▁improvisation	-14604
▁participating	-14605
IP	-14606
In	-14607
ji	-14608
km	-14609
ơc	-14610
▁ừ	-14611
MRI	-14612
azo	-14613
bao	-14614
bet	-14615
bra	-14616
eav	-14617
elf	-14618
fig	-14619
mes	-14620
oxy	-14621
pat	-14622
rat	-14623
umi	-14624
▁3-	-14625
▁56	-14626
▁59	-14627
▁AC	-14628
▁Bỏ	-14629
▁JK	-14630
▁LG	-14631
▁Oz	-14632
▁Tỉ	-14633
▁cm	-14634
▁sộ	-14635
▁tý	-14636
▁tạ	-14637
▁xẻ	-14638
▁Áo	-14639
▁đự	-14640
▁ớt	-14641
ayer	-14642
burn	-14643
char	-14644
ickr	-14645
igen	-14646
iser	-14647
isol	-14648
otto	-14649
pera	-14650
plic	-14651
ufus	-14652
velt	-14653
wart	-14654
▁101	-14655
▁188	-14656
▁360	-14657
▁401	-14658
▁750	-14659
▁Arm	-14660
▁BBC	-14661
▁Dựa	-14662
▁IMF	-14663
▁Kap	-14664
▁Meg	-14665
▁Mob	-14666
▁Mức	-14667
▁Tel	-14668
▁Ter	-14669
▁Too	-14670
▁Toy	-14671
▁Tra	-14672
▁Tóm	-14673
▁Vis	-14674
▁căm	-14675
▁hức	-14676
▁mỉm	-14677
▁pit	-14678
▁pix	-14679
▁rac	-14680
▁rậm	-14681
▁thỉ	-14682
▁tòi	-14683
▁tởm	-14684
▁vầy	-14685
▁xoa	-14686
▁xót	-14687
▁xịt	-14688
▁Đời	-14689
▁ươi	-14690
aches	-14691
brush	-14692
elled	-14693
ensus	-14694
iance	-14695
idesp	-14696
mbled	-14697
omagn	-14698
omics	-14699
ourse	-14700
▁1918	-14701
▁1979	-14702
▁1991	-14703
▁2015	-14704
▁5000	-14705
▁Bare	-14706
▁Carr	-14707
▁Deep	-14708
▁Diễn	-14709
▁Gill	-14710
▁Glad	-14711
▁Head	-14712
▁Huck	-14713
▁Nhận	-14714
▁Noah	-14715
▁Phys	-14716
▁Rain	-14717
▁Robb	-14718
▁Stat	-14719
▁Thấy	-14720
▁Thầy	-14721
▁blew	-14722
▁chéo	-14723
▁chóp	-14724
▁chảo	-14725
▁cưỡi	-14726
▁deck	-14727
▁eBay	-14728
▁eats	-14729
▁folk	-14730
▁ghen	-14731
▁giầy	-14732
▁jack	-14733
▁mixt	-14734
▁mông	-14735
▁nguỵ	-14736
▁ngâm	-14737
▁obso	-14738
▁pond	-14739
▁quấn	-14740
▁reun	-14741
▁shoe	-14742
▁suýt	-14743
▁west	-14744
▁đười	-14745
aching	-14746
enberg	-14747
orient	-14748
oshima	-14749
ourced	-14750
redict	-14751
sburgh	-14752
strong	-14753
urning	-14754
▁Danny	-14755
▁Ellen	-14756
▁Gayla	-14757
▁Johns	-14758
▁Nhiệm	-14759
▁Papua	-14760
▁Phill	-14761
▁Riley	-14762
▁Roman	-14763
▁Royal	-14764
▁Rufus	-14765
▁Triều	-14766
▁Truth	-14767
▁Trắng	-14768
▁alarm	-14769
▁alike	-14770
▁breed	-14771
▁catad	-14772
▁clips	-14773
▁drama	-14774
▁folds	-14775
▁halls	-14776
▁handy	-14777
▁incar	-14778
▁lobby	-14779
▁mater	-14780
▁meets	-14781
▁myths	-14782
▁panic	-14783
▁pants	-14784
▁peers	-14785
▁piles	-14786
▁postc	-14787
▁probe	-14788
▁ruins	-14789
▁scann	-14790
▁seats	-14791
▁shops	-14792
▁shore	-14793
▁slope	-14794
▁valve	-14795
▁virut	-14796
▁votes	-14797
alities	-14798
frontal	-14799
massive	-14800
osexual	-14801
umbling	-14802
▁Bilbao	-14803
▁Flickr	-14804
▁Illino	-14805
▁Korean	-14806
▁Kosovo	-14807
▁Modern	-14808
▁Nicole	-14809
▁Sergey	-14810
▁Toyota	-14811
▁absorb	-14812
▁addict	-14813
▁argued	-14814
▁cathed	-14815
▁circul	-14816
▁copies	-14817
▁diving	-14818
▁endeav	-14819
▁equity	-14820
▁estate	-14821
▁evapor	-14822
▁guards	-14823
▁hypoth	-14824
▁losses	-14825
▁mature	-14826
▁orgasm	-14827
▁oyster	-14828
▁parach	-14829
▁penetr	-14830
▁refuse	-14831
▁regist	-14832
▁server	-14833
▁sovere	-14834
▁strand	-14835
assembly	-14836
breaking	-14837
conflict	-14838
▁100.000	-14839
▁400,000	-14840
▁Brother	-14841
▁History	-14842
▁Indians	-14843
▁Picasso	-14844
▁Ukraine	-14845
▁buttons	-14846
▁cardiac	-14847
▁chronic	-14848
▁cocaine	-14849
▁decides	-14850
▁dismiss	-14851
▁endless	-14852
▁filling	-14853
▁goodbye	-14854
▁hackers	-14855
▁mankind	-14856
▁novelty	-14857
▁nucleus	-14858
▁primate	-14859
▁princip	-14860
▁puberty	-14861
▁transit	-14862
▁tsunami	-14863
▁western	-14864
idespread	-14865
▁Friedman	-14866
▁Probably	-14867
▁Robinson	-14868
▁abundant	-14869
▁adaptive	-14870
▁announce	-14871
▁asteroid	-14872
▁bureaucr	-14873
▁cortisol	-14874
▁detected	-14875
▁disagree	-14876
▁displays	-14877
▁expanded	-14878
▁gestures	-14879
▁innovate	-14880
▁minerals	-14881
▁misunder	-14882
▁multiply	-14883
▁priority	-14884
▁publicly	-14885
▁reflects	-14886
▁regional	-14887
▁revealed	-14888
▁revenues	-14889
▁stressed	-14890
▁suppress	-14891
▁synchron	-14892
▁talented	-14893
▁weakness	-14894
▁youngest	-14895
▁Hiroshima	-14896
▁delicious	-14897
▁epidemics	-14898
▁geography	-14899
▁integrity	-14900
▁nightmare	-14901
▁processor	-14902
▁psychiatr	-14903
▁renewable	-14904
▁screening	-14905
▁sensation	-14906
▁shoulders	-14907
▁Pittsburgh	-14908
▁accelerate	-14909
▁acceptance	-14910
▁approached	-14911
▁beneficial	-14912
▁continents	-14913
▁critically	-14914
▁enterprise	-14915
▁Information	-14916
▁adolescence	-14917
▁contributed	-14918
▁controversy	-14919
▁cooperative	-14920
▁existential	-14921
▁functioning	-14922
▁fundraising	-14923
▁mammography	-14924
▁statistical	-14925
▁stereotypes	-14926
▁theoretical	-14927
▁appreciation	-14928
▁continuously	-14929
▁demonstrated	-14930
▁revolutionary	-14931
▁visualization	-14932
HO	-14933
IY	-14934
aby	-14935
auc	-14936
aug	-14937
eer	-14938
hot	-14939
mph	-14940
nhe	-14941
oit	-14942
opp	-14943
pur	-14944
uan	-14945
yth	-14946
zzy	-14947
ươm	-14948
▁66	-14949
▁Ka	-14950
▁MW	-14951
▁Mở	-14952
▁NI	-14953
▁TM	-14954
▁Wr	-14955
▁ao	-14956
▁bệ	-14957
▁rà	-14958
arak	-14959
city	-14960
coal	-14961
ctar	-14962
drop	-14963
eard	-14964
ffin	-14965
ileo	-14966
intu	-14967
neum	-14968
norm	-14969
oder	-14970
omed	-14971
orph	-14972
othy	-14973
pson	-14974
quez	-14975
ston	-14976
tông	-14977
umen	-14978
wick	-14979
▁202	-14980
▁Ask	-14981
▁Ass	-14982
▁Bea	-14983
▁Beh	-14984
▁Chi	-14985
▁DIY	-14986
▁Die	-14987
▁Gửi	-14988
▁Hẳn	-14989
▁Khó	-14990
▁Las	-14991
▁Mau	-14992
▁Mik	-14993
▁Mub	-14994
▁Mất	-14995
▁Pia	-14996
▁Pin	-14997
▁Quí	-14998
▁Run	-14999
▁Sup	-15000
▁Top	-15001
▁Ung	-15002
▁Von	-15003
▁báu	-15004
▁bôi	-15005
▁cày	-15006
▁cắn	-15007
▁dơi	-15008
▁esc	-15009
▁gal	-15010
▁lầy	-15011
▁mầu	-15012
▁ngự	-15013
▁nóc	-15014
▁pra	-15015
▁sáp	-15016
▁trớ	-15017
▁Đài	-15018
▁Đôn	-15019
eland	-15020
ifies	-15021
inema	-15022
iolet	-15023
matic	-15024
opoly	-15025
oured	-15026
plete	-15027
pling	-15028
ureka	-15029
▁1957	-15030
▁1982	-15031
▁1988	-15032
▁1993	-15033
▁Biển	-15034
▁Cart	-15035
▁Chop	-15036
▁Code	-15037
▁Cold	-15038
▁Diam	-15039
▁Expl	-15040
▁Free	-15041
▁Giữa	-15042
▁Help	-15043
▁Kend	-15044
▁Lead	-15045
▁Pros	-15046
▁Save	-15047
▁Step	-15048
▁Sách	-15049
▁Sống	-15050
▁Tinh	-15051
▁True	-15052
▁Tạng	-15053
▁Từng	-15054
▁Verm	-15055
▁aort	-15056
▁bướu	-15057
▁chải	-15058
▁cúng	-15059
▁cưng	-15060
▁fans	-15061
▁germ	-15062
▁ghim	-15063
▁giục	-15064
▁glow	-15065
▁impl	-15066
▁lúng	-15067
▁mand	-15068
▁mild	-15069
▁mánh	-15070
▁nail	-15071
▁nham	-15072
▁nhôm	-15073
▁odor	-15074
▁offe	-15075
▁pean	-15076
▁pops	-15077
▁quấy	-15078
▁rank	-15079
▁reck	-15080
▁rồng	-15081
▁semi	-15082
▁thản	-15083
▁upgr	-15084
▁vice	-15085
▁viền	-15086
▁điếc	-15087
▁đắng	-15088
boards	-15089
undred	-15090
verted	-15091
▁8,000	-15092
▁Actor	-15093
▁Bloom	-15094
▁Cohen	-15095
▁Death	-15096
▁Klein	-15097
▁Linus	-15098
▁Madag	-15099
▁Motor	-15100
▁Music	-15101
▁Ngành	-15102
▁Talks	-15103
▁algae	-15104
▁chase	-15105
▁creep	-15106
▁erect	-15107
▁fetus	-15108
▁ghost	-15109
▁incub	-15110
▁irony	-15111
▁loads	-15112
▁locom	-15113
▁merit	-15114
▁picks	-15115
▁pneum	-15116
▁poems	-15117
▁rains	-15118
▁recur	-15119
▁rigid	-15120
▁swing	-15121
▁tiger	-15122
▁token	-15123
▁trait	-15124
▁wiped	-15125
atories	-15126
ocative	-15127
ultural	-15128
▁15,000	-15129
▁Empire	-15130
▁Evelyn	-15131
▁Recent	-15132
▁System	-15133
▁Zipcar	-15134
▁abroad	-15135
▁admire	-15136
▁analyt	-15137
▁banned	-15138
▁bloody	-15139
▁brutal	-15140
▁cerebr	-15141
▁config	-15142
▁consol	-15143
▁counts	-15144
▁elabor	-15145
▁equals	-15146
▁excess	-15147
▁grades	-15148
▁guitar	-15149
▁jungle	-15150
▁labels	-15151
▁mating	-15152
▁nectar	-15153
▁pencil	-15154
▁revers	-15155
▁rubber	-15156
▁scheme	-15157
▁serves	-15158
▁shower	-15159
▁steady	-15160
▁sticky	-15161
▁subsid	-15162
▁tastes	-15163
▁toxins	-15164
▁treaty	-15165
▁unfold	-15166
▁unimag	-15167
ergarten	-15168
lessness	-15169
▁150,000	-15170
▁Barbara	-15171
▁Defense	-15172
▁Denisov	-15173
▁Galileo	-15174
▁Gillian	-15175
▁Lesters	-15176
▁Machine	-15177
▁Mubarak	-15178
▁Ottoman	-15179
▁Terence	-15180
▁ashamed	-15181
▁charges	-15182
▁chemist	-15183
▁clarity	-15184
▁compute	-15185
▁crushed	-15186
▁divorce	-15187
▁expense	-15188
▁exploit	-15189
▁locally	-15190
▁mirrors	-15191
▁mustard	-15192
▁neglect	-15193
▁pouring	-15194
▁ratings	-15195
▁refused	-15196
▁romance	-15197
▁surveys	-15198
▁volcano	-15199
conscious	-15200
▁Barefoot	-15201
▁Emmanuel	-15202
▁Hospital	-15203
▁Illinois	-15204
▁Interest	-15205
▁Medicine	-15206
▁aluminum	-15207
▁checking	-15208
▁clusters	-15209
▁fairness	-15210
▁feminist	-15211
▁goodness	-15212
▁motivate	-15213
▁mutation	-15214
▁notebook	-15215
▁obsolete	-15216
▁register	-15217
▁remotely	-15218
▁sections	-15219
▁sexually	-15220
▁siblings	-15221
▁sometime	-15222
▁thorough	-15223
▁tropical	-15224
▁visceral	-15225
controlled	-15226
▁Meanwhile	-15227
▁Norwegian	-15228
▁Riverside	-15229
▁activated	-15230
▁analyzing	-15231
▁charities	-15232
▁discussed	-15233
▁educating	-15234
▁machinery	-15235
▁magazines	-15236
▁metabolic	-15237
▁negotiate	-15238
▁phthalate	-15239
▁undergrad	-15240
▁unpredict	-15241
▁visualize	-15242
▁workplace	-15243
▁addressing	-15244
▁conceptual	-15245
▁disruptive	-15246
▁employment	-15247
▁empowering	-15248
▁globalized	-15249
▁horizontal	-15250
▁intangible	-15251
▁opposition	-15252
▁playground	-15253
▁prefrontal	-15254
▁reflective	-15255
▁regulation	-15256
▁reputation	-15257
▁spacecraft	-15258
▁sufficient	-15259
▁widespread	-15260
▁Association	-15261
▁calculating	-15262
▁distinction	-15263
▁electromagn	-15264
▁empowerment	-15265
▁implemented	-15266
▁perceptions	-15267
▁politically	-15268
▁catastrophic	-15269
▁demographics	-15270
▁improvements	-15271
▁satisfaction	-15272
▁Massachusetts	-15273
▁approximately	-15274
▁investigation	-15275
▁accountability	-15276
▁cybercriminals	-15277
▁discrimination	-15278
..	-15279
AA	-15280
CC	-15281
Fi	-15282
RC	-15283
RN	-15284
TO	-15285
eu	-15286
iy	-15287
zi	-15288
zơ	-15289
ụn	-15290
▁#	-15291
cho	-15292
epr	-15293
ifi	-15294
imi	-15295
jah	-15296
oac	-15297
occ	-15298
ods	-15299
ogh	-15300
omy	-15301
oul	-15302
rit	-15303
ryn	-15304
una	-15305
ềng	-15306
▁71	-15307
▁83	-15308
▁Bé	-15309
▁Bí	-15310
▁Eb	-15311
▁HC	-15312
▁Nô	-15313
▁RW	-15314
▁TB	-15315
▁Ti	-15316
▁dì	-15317
abel	-15318
arat	-15319
auth	-15320
bled	-15321
esty	-15322
gill	-15323
held	-15324
inid	-15325
mind	-15326
mudd	-15327
nick	-15328
onie	-15329
oren	-15330
ouri	-15331
pack	-15332
prov	-15333
raph	-15334
roch	-15335
size	-15336
verb	-15337
wall	-15338
yrne	-15339
yson	-15340
zone	-15341
▁365	-15342
▁Ath	-15343
▁Bit	-15344
▁Chờ	-15345
▁Der	-15346
▁Dàn	-15347
▁Fab	-15348
▁Gam	-15349
▁Ger	-15350
▁Hav	-15351
▁Hạt	-15352
▁Inf	-15353
▁Jup	-15354
▁Lạt	-15355
▁Mak	-15356
▁Mos	-15357
▁Mắt	-15358
▁NIH	-15359
▁Ola	-15360
▁Phố	-15361
▁Trị	-15362
▁Trừ	-15363
▁Wel	-15364
▁Zet	-15365
▁bip	-15366
▁bịt	-15367
▁caf	-15368
▁gầy	-15369
▁gật	-15370
▁heh	-15371
▁hid	-15372
▁lap	-15373
▁mes	-15374
▁mit	-15375
▁unw	-15376
▁vác	-15377
▁xáo	-15378
▁xắn	-15379
▁ăng	-15380
▁Đám	-15381
ancer	-15382
ascar	-15383
asive	-15384
clair	-15385
erend	-15386
graph	-15387
month	-15388
ndane	-15389
ogens	-15390
ority	-15391
ubble	-15392
works	-15393
▁1500	-15394
▁1858	-15395
▁1949	-15396
▁1973	-15397
▁Balk	-15398
▁Biểu	-15399
▁Buff	-15400
▁Bánh	-15401
▁CERN	-15402
▁Chen	-15403
▁Cost	-15404
▁Doct	-15405
▁Giám	-15406
▁Java	-15407
[...]
