<pad>	0
<unk>	0
<s>	0
</s>	0
<2en>	0
<2vi>	0
▁t	-0
ng	-1
▁c	-2
▁th	-3
▁,	-4
▁n	-5
▁đ	-6
▁.	-7
▁a	-8
▁s	-9
▁l	-10
▁m	-11
▁b	-12
▁h	-13
▁v	-14
▁the	-15
▁w	-16
▁i	-17
re	-18
▁ch	-19
▁o	-20
▁k	-21
▁p	-22
▁nh	-23
nd	-24
▁g	-25
at	-26
▁d	-27
er	-28
▁&	-29
▁tr	-30
ou	-31
nh	-32
os	-33
on	-34
▁kh	-35
▁to	-36
ing	-37
an	-38
en	-39
qu	-40
▁ng	-41
ap	-42
▁là	-43
ôi	-44
ot	-45
es	-46
▁r	-47
▁f	-48
or	-49
apos	-50
al	-51
▁of	-52
▁I	-53
▁T	-54
▁và	-55
▁in	-56
▁and	-57
is	-58
ed	-59
▁ph	-60
ác	-61
ông	-62
ar	-63
ột	-64
it	-65
in	-66
▁tôi	-67
▁y	-68
▁gi	-69
▁một	-70
▁có	-71
úng	-72
▁that	-73
om	-74
ay	-75
ên	-76
as	-77
ic	-78
le	-79
iệ	-80
▁A	-81
ững	-82
ời	-83
ll	-84
▁you	-85
ve	-86
quot	-87
▁e	-88
▁we	-89
ới	-90
▁những	-91
▁wh	-92
▁chúng	-93
▁củ	-94
▁của	-95
ow	-96
us	-97
iế	-98
▁qu	-99
▁ta	-100
ất	-101
ly	-102
▁is	-103
▁C	-104
ạn	-105
▁be	-106
ut	-107
ong	-108
ion	-109
▁N	-110
ch	-111
▁it	-112
▁các	-113
▁nà	-114
iề	-115
et	-116
▁không	-117
▁Th	-118
ượ	-119
▁V	-120
▁nó	-121
ười	-122
▁S	-123
▁đó	-124
▁x	-125
iều	-126
▁re	-127
ent	-128
▁người	-129
ct	-130
▁bạn	-131
▁ha	-132
ại	-133
▁B	-134
▁on	-135
ld	-136
uy	-137
▁ngh	-138
▁trong	-139
▁thể	-140
▁And	-141
ược	-142
▁?	-143
▁này	-144
▁đã	-145
id	-146
▁được	-147
ang	-148
▁như	-149
ây	-150
▁họ	-151
▁-	-152
am	-153
ur	-154
▁this	-155
ình	-156
ig	-157
▁ra	-158
▁cho	-159
▁với	-160
ấy	-161
▁st	-162
▁--	-163
▁do	-164
im	-165
ere	-166
▁W	-167
▁Và	-168
▁sự	-169
▁M	-170
ce	-171
op	-172
▁H	-173
ần	-174
▁mà	-175
▁for	-176
▁li	-177
ải	-178
ver	-179
▁làm	-180
▁1	-181
se	-182
ke	-183
▁con	-184
▁was	-185
ol	-186
▁ở	-187
ằng	-188
ir	-189
▁an	-190
ith	-191
▁để	-192
ực	-193
▁sa	-194
st	-195
▁về	-196
▁Đ	-197
▁sẽ	-198
▁are	-199
▁cả	-200
▁Ch	-201
ái	-202
▁u	-203
th	-204
ống	-205
ally	-206
ân	-207
iể	-208
ơn	-209
▁with	-210
▁ho	-211
ật	-212
iên	-213
▁:	-214
iết	-215
▁điều	-216
▁have	-217
▁thế	-218
▁lo	-219
ad	-220
ầu	-221
od	-222
▁ab	-223
▁pr	-224
▁they	-225
▁go	-226
▁can	-227
▁se	-228
ướ	-229
ến	-230
em	-231
▁từ	-232
▁khi	-233
ành	-234
uố	-235
ation	-236
ht	-237
▁Tôi	-238
▁as	-239
out	-240
▁nói	-241
▁so	-242
ết	-243
inh	-244
ức	-245
iện	-246
▁sh	-247
▁So	-248
▁wor	-249
▁nă	-250
▁he	-251
ter	-252
▁what	-253
▁đến	-254
il	-255
▁com	-256
ould	-257
ính	-258
ill	-259
▁ne	-260
▁phải	-261
ul	-262
iệc	-263
▁at	-264
▁about	-265
ant	-266
ước	-267
ườ	-268
▁rằng	-269
▁Nh	-270
▁vào	-271
▁not	-272
▁The	-273
▁me	-274
▁gì	-275
▁đang	-276
ore	-277
àn	-278
ường	-279
▁việc	-280
▁fr	-281
ers	-282
ag	-283
▁lại	-284
ản	-285
ận	-286
ust	-287
▁thấy	-288
▁all	-289
▁nghĩ	-290
▁độ	-291
▁j	-292
▁rất	-293
▁cách	-294
▁ex	-295
▁hơn	-296
▁di	-297
âu	-298
00	-299
▁us	-300
▁nhiều	-301
ac	-302
ight	-303
▁my	-304
▁L	-305
ùng	-306
▁som	-307
ươ	-308
ài	-309
▁pe	-310
art	-311
▁khác	-312
ain	-313
ear	-314
▁thực	-315
▁K	-316
iến	-317
▁đầu	-318
ương	-319
ậy	-320
▁P	-321
▁or	-322
ess	-323
▁We	-324
▁đây	-325
ople	-326
▁de	-327
ok	-328
▁học	-329
um	-330
▁there	-331
▁G	-332
ối	-333
ạo	-334
ist	-335
ổi	-336
ọi	-337
▁chỉ	-338
ate	-339
est	-340
ếu	-341
▁công	-342
▁people	-343
▁trên	-344
▁2	-345
▁It	-346
ure	-347
▁like	-348
▁D	-349
anh	-350
▁cái	-351
▁vì	-352
▁nào	-353
▁one	-354
ab	-355
and	-356
▁biết	-357
ies	-358
▁from	-359
nt	-360
ity	-361
▁Chúng	-362
▁chuy	-363
▁đề	-364
ao	-365
át	-366
ung	-367
àng	-368
el	-369
iệu	-370
ob	-371
ff	-372
▁năm	-373
ũng	-374
ơi	-375
ind	-376
▁kn	-377
▁our	-378
▁đi	-379
use	-380
▁bec	-381
uốn	-382
▁thứ	-383
▁but	-384
▁dụ	-385
▁thành	-386
ộc	-387
ect	-388
ia	-389
▁Y	-390
ắt	-391
▁al	-392
ink	-393
▁out	-394
og	-395
▁số	-396
▁int	-397
ause	-398
áng	-399
ery	-400
▁just	-401
un	-402
▁cũng	-403
▁ma	-404
ích	-405
▁nhà	-406
rou	-407
ive	-408
▁Như	-409
▁te	-410
uộc	-411
▁sp	-412
ie	-413
▁know	-414
all	-415
▁bị	-416
▁them	-417
▁thing	-418
▁kho	-419
▁quan	-420
ập	-421
▁R	-422
ci	-423
ăn	-424
▁muốn	-425
ồi	-426
▁But	-427
au	-428
ich	-429
ort	-430
▁E	-431
úc	-432
ởi	-433
▁these	-434
▁O	-435
▁if	-436
her	-437
▁mình	-438
ữa	-439
▁who	-440
▁up	-441
▁think	-442
▁nhưng	-443
▁very	-444
▁nhất	-445
one	-446
▁get	-447
▁Nhưng	-448
▁tạo	-449
ưở	-450
ưởng	-451
▁động	-452
án	-453
▁giới	-454
▁chính	-455
ặt	-456
▁nên	-457
▁by	-458
ấn	-459
▁when	-460
act	-461
▁pl	-462
▁vậy	-463
our	-464
▁Wh	-465
▁act	-466
▁your	-467
▁tim	-468
▁more	-469
▁im	-470
▁some	-471
▁going	-472
ày	-473
ền	-474
▁see	-475
ine	-476
òn	-477
▁year	-478
gh	-479
▁lớ	-480
ắc	-481
êu	-482
▁because	-483
▁hình	-484
ưa	-485
▁su	-486
ỏi	-487
ện	-488
ib	-489
ame	-490
▁had	-491
iểu	-492
▁giờ	-493
▁hiện	-494
ost	-495
▁sống	-496
▁F	-497
ack	-498
▁tiế	-499
▁would	-500
▁tại	-501
ard	-502
▁Tr	-503
▁nếu	-504
▁nhận	-505
▁mọi	-506
▁were	-507
▁how	-508
ose	-509
▁ever	-510
ượng	-511
ast	-512
âm	-513
▁their	-514
ứng	-515
ìn	-516
▁thu	-517
▁quy	-518
▁cuộc	-519
iz	-520
▁cần	-521
king	-522
▁hay	-523
are	-524
▁tố	-525
▁which	-526
▁tự	-527
ặc	-528
oc	-529
▁thì	-530
▁want	-531
▁really	-532
▁look	-533
ide	-534
ội	-535
ánh	-536
ually	-537
▁đị	-538
ôn	-539
▁comp	-540
áo	-541
ai	-542
▁tất	-543
ọng	-544
reat	-545
hi	-546
ous	-547
▁ông	-548
▁J	-549
òng	-550
▁way	-551
▁ấy	-552
▁bởi	-553
▁tới	-554
▁đồ	-555
▁le	-556
ment	-557
▁theo	-558
▁bắt	-559
ẫn	-560
ans	-561
▁tin	-562
▁còn	-563
▁nhìn	-564
iểm	-565
▁lớn	-566
hing	-567
ven	-568
▁world	-569
▁cùng	-570
▁bằng	-571
▁ý	-572
▁cảm	-573
▁sau	-574
iển	-575
▁tế	-576
▁You	-577
▁dụng	-578
▁thật	-579
▁cứ	-580
▁lên	-581
ace	-582
▁anh	-583
▁câu	-584
▁bản	-585
▁em	-586
▁br	-587
▁ag	-588
ảng	-589
iv	-590
▁exp	-591
ther	-592
▁sao	-593
▁bu	-594
▁thời	-595
▁chuyện	-596
▁here	-597
▁trở	-598
pp	-599
▁qua	-600
▁In	-601
▁then	-602
▁say	-603
iệm	-604
▁ngày	-605
▁3	-606
▁nhân	-607
▁cơ	-608
▁has	-609
▁time	-610
▁bộ	-611
▁This	-612
▁mu	-613
▁sinh	-614
age	-615
ions	-616
ỗi	-617
▁every	-618
app	-619
▁per	-620
▁lu	-621
ục	-622
ảnh	-623
ìm	-624
res	-625
▁năng	-626
ạt	-627
▁don	-628
▁actually	-629
▁sử	-630
▁trước	-631
▁man	-632
▁phát	-633
▁nước	-634
▁đổi	-635
▁Nó	-636
iệt	-637
▁into	-638
▁fe	-639
ild	-640
▁toàn	-641
ence	-642
▁could	-643
ud	-644
▁phần	-645
ảo	-646
ach	-647
áy	-648
▁nơi	-649
▁will	-650
▁work	-651
▁gia	-652
▁thông	-653
▁dự	-654
▁tìm	-655
▁nhau	-656
▁years	-657
▁mới	-658
▁thay	-659
▁did	-660
▁now	-661
▁vấn	-662
ra	-663
▁định	-664
▁en	-665
▁Now	-666
▁xu	-667
▁other	-668
fe	-669
ond	-670
▁hệ	-671
▁things	-672
itt	-673
▁trường	-674
▁nhiên	-675
▁tính	-676
▁Đây	-677
▁where	-678
ách	-679
▁trình	-680
▁tu	-681
▁mạ	-682
▁tốt	-683
▁tưởng	-684
▁kết	-685
ấu	-686
▁than	-687
ăng	-688
ical	-689
▁They	-690
▁somet	-691
ấp	-692
▁vật	-693
ãy	-694
▁cl	-695
ep	-696
ảy	-697
▁diff	-698
▁hàng	-699
▁lý	-700
▁happ	-701
▁make	-702
wo	-703
▁hỏi	-704
▁need	-705
▁any	-706
▁Bạn	-707
ợp	-708
ry	-709
▁un	-710
▁no	-711
▁máy	-712
▁ảnh	-713
ạc	-714
▁gr	-715
▁;	-716
▁been	-717
so	-718
út	-719
▁hợp	-720
ome	-721
áp	-722
▁Đó	-723
ge	-724
if	-725
ice	-726
▁imp	-727
▁mặt	-728
irst	-729
ắn	-730
ree	-731
▁tiếp	-732
▁hành	-733
ro	-734
▁said	-735
▁start	-736
red	-737
ite	-738
▁nữa	-739
▁ar	-740
▁kinh	-741
ory	-742
▁gian	-743
▁thức	-744
▁hội	-745
▁part	-746
alk	-747
▁vị	-748
own	-749
▁tuy	-750
▁thiết	-751
▁chiế	-752
▁rồi	-753
pt	-754
orm	-755
ào	-756
▁xem	-757
ves	-758
▁liệu	-759
ound	-760
ass	-761
▁trọng	-762
▁over	-763
▁something	-764
▁hoá	-765
▁thích	-766
▁two	-767
▁cô	-768
▁right	-769
▁dis	-770
ount	-771
ễn	-772
ồn	-773
ệnh	-774
ea	-775
▁đồng	-776
round	-777
▁back	-778
▁giải	-779
▁much	-780
ue	-781
▁differe	-782
iêu	-783
▁first	-784
▁new	-785
ens	-786
sel	-787
▁trẻ	-788
nder	-789
ell	-790
▁lượng	-791
ving	-792
▁call	-793
▁hai	-794
ắng	-795
▁prob	-796
▁ai	-797
▁co	-798
▁thường	-799
▁bất	-800
▁those	-801
▁vài	-802
▁đo	-803
▁đều	-804
ple	-805
▁she	-806
olog	-807
▁also	-808
▁tiên	-809
▁Một	-810
▁U	-811
ater	-812
ign	-813
▁đối	-814
▁sáng	-815
ộng	-816
ển	-817
▁ac	-818
▁got	-819
▁hiểu	-820
▁quá	-821
▁Kh	-822
▁nay	-823
cent	-824
▁id	-825
▁tâm	-826
▁life	-827
ốc	-828
▁cont	-829
ght	-830
▁loại	-831
ult	-832
▁po	-833
▁giống	-834
▁am	-835
▁lần	-836
▁Vì	-837
▁lot	-838
▁kind	-839
ittle	-840
▁cứu	-841
▁5	-842
vel	-843
way	-844
▁bao	-845
▁bệnh	-846
ber	-847
▁thống	-848
ịch	-849
▁little	-850
ảm	-851
ám	-852
able	-853
ody	-854
▁viên	-855
▁bet	-856
▁under	-857
êm	-858
oss	-859
ru	-860
▁his	-861
▁That	-862
ệt	-863
▁most	-864
▁nghệ	-865
▁mo	-866
iền	-867
▁chang	-868
▁điểm	-869
▁nghĩa	-870
000	-871
▁ngo	-872
▁gọi	-873
▁Có	-874
▁res	-875
▁4	-876
ick	-877
▁nhỏ	-878
▁day	-879
▁Vậy	-880
▁only	-881
ated	-882
▁even	-883
ations	-884
▁What	-885
▁her	-886
▁Họ	-887
ank	-888
▁đưa	-889
ec	-890
ial	-891
▁tương	-892
▁hoàn	-893
ict	-894
▁nghiệm	-895
▁bl	-896
▁may	-897
▁pro	-898
▁quả	-899
▁des	-900
▁ad	-901
▁tác	-902
▁10	-903
▁đường	-904
▁vẫn	-905
ade	-906
▁many	-907
uc	-908
▁Ng	-909
▁take	-910
tern	-911
▁xảy	-912
ăm	-913
▁different	-914
rough	-915
▁show	-916
▁chiếc	-917
▁good	-918
▁He	-919
▁bo	-920
▁nguy	-921
▁sy	-922
▁gen	-923
▁thuật	-924
ood	-925
ew	-926
▁biệt	-927
▁dùng	-928
ẳng	-929
ip	-930
▁đại	-931
▁hoặc	-932
▁19	-933
ance	-934
▁bên	-935
▁hum	-936
▁từng	-937
▁real	-938
lem	-939
▁20	-940
▁dân	-941
▁St	-942
ase	-943
ão	-944
uyền	-945
▁triển	-946
▁lúc	-947
▁chuyển	-948
iệp	-949
ọn	-950
▁diễn	-951
pl	-952
ord	-953
ẩn	-954
▁Điều	-955
ath	-956
ish	-957
int	-958
▁around	-959
▁through	-960
▁does	-961
▁trị	-962
▁quyết	-963
▁Những	-964
ừng	-965
#9	-966
▁&#9	-967
▁cố	-968
▁cao	-969
▁nghe	-970
other	-971
úp	-972
ning	-973
ark	-974
ents	-975
▁ăn	-976
▁There	-977
▁Q	-978
▁pre	-979
▁dạ	-980
▁comm	-981
▁tuyệt	-982
▁vi	-983
uốc	-984
ress	-985
▁mỗi	-986
▁tổ	-987
▁cầu	-988
▁khoảng	-989
uối	-990
▁talk	-991
▁Nếu	-992
form	-993
▁lực	-994
▁kế	-995
▁khu	-996
▁chất	-997
▁tell	-998
▁phụ	-999
▁down	-1000
▁being	-1001
▁off	-1002
▁hu	-1003
ary	-1004
▁lời	-1005
▁put	-1006
▁giáo	-1007
ép	-1008
ợi	-1009
ầm	-1010
▁giúp	-1011
▁đất	-1012
óng	-1013
▁use	-1014
ắp	-1015
▁ơn	-1016
ri	-1017
ful	-1018
▁wr	-1019
ible	-1020
▁thou	-1021
ne	-1022
ứa	-1023
▁trung	-1024
▁problem	-1025
ert	-1026
▁chủ	-1027
ẩm	-1028
▁bảo	-1029
wn	-1030
ors	-1031
▁nữ	-1032
▁giá	-1033
xt	-1034
▁tiến	-1035
▁hết	-1036
▁sc	-1037
▁sm	-1038
▁phòng	-1039
▁happen	-1040
ưới	-1041
ject	-1042
▁chưa	-1043
▁tình	-1044
▁nghiên	-1045
lect	-1046
▁inc	-1047
▁mang	-1048
▁xuất	-1049
ướng	-1050
ual	-1051
ether	-1052
ak	-1053
day	-1054
▁xe	-1055
▁phí	-1056
▁Well	-1057
▁fact	-1058
▁same	-1059
▁liên	-1060
▁count	-1061
▁phân	-1062
óc	-1063
▁Anh	-1064
▁tranh	-1065
▁bài	-1066
▁ro	-1067
▁đơn	-1068
ower	-1069
▁não	-1070
ars	-1071
▁tập	-1072
▁truyền	-1073
▁tuổi	-1074
▁đúng	-1075
▁phương	-1076
ile	-1077
▁điện	-1078
▁bình	-1079
ậu	-1080
end	-1081
▁đặt	-1082
av	-1083
▁try	-1084
▁tượng	-1085
▁come	-1086
▁big	-1087
▁biến	-1088
▁Khi	-1089
ian	-1090
stem	-1091
urn	-1092
▁tiền	-1093
▁giữa	-1094
we	-1095
▁yêu	-1096
ons	-1097
▁If	-1098
▁sản	-1099
ét	-1100
▁tay	-1101
▁dec	-1102
▁tiếng	-1103
ub	-1104
▁pers	-1105
▁cr	-1106
ting	-1107
▁fl	-1108
▁three	-1109
▁hãy	-1110
▁doing	-1111
▁find	-1112
ạnh	-1113
▁tho	-1114
▁ngay	-1115
▁khả	-1116
ặp	-1117
▁..	-1118
▁trả	-1119
ít	-1120
▁bé	-1121
ved	-1122
▁great	-1123
ED	-1124
▁khoa	-1125
▁sur	-1126
chn	-1127
▁Không	-1128
ft	-1129
▁thú	-1130
ically	-1131
▁bỏ	-1132
▁lấy	-1133
▁khó	-1134
▁!	-1135
ces	-1136
ửa	-1137
▁ty	-1138
ric	-1139
self	-1140
▁gần	-1141
▁human	-1142
ire	-1143
▁percent	-1144
▁xã	-1145
▁hoạt	-1146
▁stud	-1147
▁cá	-1148
fter	-1149
▁quest	-1150
▁chu	-1151
▁well	-1152
▁brain	-1153
▁chiến	-1154
fore	-1155
▁child	-1156
▁thị	-1157
▁đáng	-1158
▁system	-1159
▁sách	-1160
▁Trong	-1161
▁app	-1162
ail	-1163
▁lear	-1164
▁chí	-1165
▁phẩm	-1166
ics	-1167
igh	-1168
▁ind	-1169
▁let	-1170
▁thân	-1171
▁own	-1172
▁pháp	-1173
ấm	-1174
ates	-1175
▁hiệu	-1176
▁called	-1177
▁cuối	-1178
▁Ph	-1179
▁long	-1180
▁Sh	-1181
▁đời	-1182
▁techn	-1183
▁why	-1184
▁chơi	-1185
ating	-1186
ition	-1187
mer	-1188
▁soci	-1189
iver	-1190
▁sim	-1191
▁bel	-1192
▁inv	-1193
thing	-1194
▁Các	-1195
▁mất	-1196
▁sức	-1197
▁minh	-1198
▁TED	-1199
ọc	-1200
▁...	-1201
ology	-1202
,000	-1203
illion	-1204
▁build	-1205
▁kể	-1206
ious	-1207
▁made	-1208
▁wom	-1209
▁la	-1210
ẫu	-1211
▁rem	-1212
▁Mỹ	-1213
▁again	-1214
per	-1215
▁should	-1216
▁mạnh	-1217
con	-1218
▁import	-1219
▁nghiệp	-1220
▁end	-1221
▁col	-1222
▁ngoài	-1223
ool	-1224
óm	-1225
▁ít	-1226
▁dẫn	-1227
▁underst	-1228
▁khí	-1229
▁đấy	-1230
ren	-1231
▁lập	-1232
▁tài	-1233
ks	-1234
ize	-1235
▁mô	-1236
▁exper	-1237
▁hel	-1238
▁creat	-1239
▁sec	-1240
▁loài	-1241
ừa	-1242
les	-1243
▁kỳ	-1244
▁bức	-1245
ậm	-1246
▁ins	-1247
▁tinh	-1248
▁Gi	-1249
▁Thank	-1250
▁cour	-1251
▁luôn	-1252
▁6	-1253
▁dựng	-1254
▁xây	-1255
▁X	-1256
▁change	-1257
▁trí	-1258
▁dr	-1259
olut	-1260
▁tiêu	-1261
ities	-1262
▁person	-1263
▁phố	-1264
▁tên	-1265
▁vô	-1266
uyết	-1267
▁văn	-1268
▁cộng	-1269
▁today	-1270
▁âm	-1271
▁chứng	-1272
▁feel	-1273
▁cụ	-1274
▁sch	-1275
▁didn	-1276
ope	-1277
▁thought	-1278
▁tử	-1279
▁important	-1280
ầy	-1281
be	-1282
▁200	-1283
▁after	-1284
▁hướng	-1285
ys	-1286
▁car	-1287
▁nhạc	-1288
▁ask	-1289
▁ev	-1290
▁idea	-1291
ise	-1292
▁mean	-1293
▁thử	-1294
▁sci	-1295
ôm	-1296
▁Hãy	-1297
▁viết	-1298
te	-1299
▁ba	-1300
▁đâu	-1301
▁chức	-1302
▁nguyên	-1303
▁kiến	-1304
▁quốc	-1305
▁ob	-1306
▁giả	-1307
▁last	-1308
ạm	-1309
ull	-1310
▁ứng	-1311
▁vời	-1312
▁started	-1313
ogr	-1314
ave	-1315
▁exam	-1316
▁chọn	-1317
erest	-1318
▁giản	-1319
▁quyền	-1320
▁chế	-1321
az	-1322
▁trans	-1323
▁đặc	-1324
▁understand	-1325
body	-1326
ty	-1327
▁tư	-1328
▁bố	-1329
▁gl	-1330
▁suy	-1331
▁chết	-1332
▁help	-1333
als	-1334
▁bào	-1335
▁went	-1336
ạch	-1337
ese	-1338
iếm	-1339
▁mạng	-1340
▁bas	-1341
▁its	-1342
gan	-1343
▁cấp	-1344
▁rel	-1345
▁9	-1346
▁bà	-1347
▁vụ	-1348
▁triệu	-1349
ạp	-1350
▁How	-1351
▁tăng	-1352
▁ngu	-1353
▁inst	-1354
ough	-1355
ork	-1356
▁thần	-1357
ẹp	-1358
▁nền	-1359
▁before	-1360
▁story	-1361
▁đạo	-1362
▁lẽ	-1363
▁đứa	-1364
▁belie	-1365
▁might	-1366
▁design	-1367
▁7	-1368
▁phá	-1369
▁play	-1370
▁power	-1371
kes	-1372
▁tra	-1373
▁sĩ	-1374
▁prod	-1375
▁pol	-1376
▁khỏi	-1377
▁màu	-1378
ph	-1379
▁interest	-1380
▁him	-1381
▁never	-1382
▁art	-1383
▁đánh	-1384
▁inter	-1385
▁mẹ	-1386
▁give	-1387
lic	-1388
▁found	-1389
▁course	-1390
▁8	-1391
ular	-1392
▁better	-1393
▁ent	-1394
▁gặp	-1395
ắm	-1396
▁tháng	-1397
▁Thế	-1398
▁dưới	-1399
▁rec	-1400
▁kid	-1401
▁cons	-1402
▁school	-1403
▁turn	-1404
▁still	-1405
▁able	-1406
▁chút	-1407
▁fam	-1408
atch	-1409
ists	-1410
▁New	-1411
▁bit	-1412
▁xuống	-1413
ility	-1414
amp	-1415
ồng	-1416
ix	-1417
▁sl	-1418
ily	-1419
oth	-1420
▁gắng	-1421
▁hand	-1422
▁imag	-1423
▁point	-1424
âng	-1425
▁few	-1426
▁learn	-1427
ather	-1428
ience	-1429
ween	-1430
▁When	-1431
▁phép	-1432
▁khá	-1433
velop	-1434
ock	-1435
▁nhóm	-1436
▁quanh	-1437
▁mở	-1438
▁dịch	-1439
▁%	-1440
▁bay	-1441
▁came	-1442
▁acc	-1443
▁khiến	-1444
ata	-1445
▁vực	-1446
▁xác	-1447
▁dữ	-1448
▁Bây	-1449
▁án	-1450
▁commun	-1451
▁Af	-1452
▁next	-1453
ãi	-1454
▁str	-1455
▁chia	-1456
▁tog	-1457
▁together	-1458
erg	-1459
ness	-1460
▁duy	-1461
▁thêm	-1462
▁tham	-1463
iss	-1464
▁cell	-1465
▁trò	-1466
▁Ô	-1467
▁another	-1468
▁each	-1469
▁thuyết	-1470
▁mức	-1471
▁ke	-1472
▁nhanh	-1473
▁quay	-1474
▁comple	-1475
▁love	-1476
▁Ho	-1477
ited	-1478
▁dạng	-1479
read	-1480
alth	-1481
▁gây	-1482
▁rõ	-1483
▁cực	-1484
▁đàn	-1485
▁30	-1486
▁ext	-1487
ward	-1488
▁between	-1489
ction	-1490
▁vọng	-1491
ense	-1492
▁question	-1493
▁develop	-1494
▁cre	-1495
▁high	-1496
ized	-1497
▁mod	-1498
▁nguồn	-1499
▁ago	-1500
▁num	-1501
▁vùng	-1502
arch	-1503
▁cảnh	-1504
▁bây	-1505
▁dù	-1506
▁đẹp	-1507
▁báo	-1508
▁sort	-1509
▁tục	-1510
▁att	-1511
▁giác	-1512
▁place	-1513
pe	-1514
meric	-1515
▁chắc	-1516
▁min	-1517
▁ser	-1518
▁sát	-1519
▁word	-1520
▁mon	-1521
▁càng	-1522
▁dễ	-1523
iness	-1524
▁xa	-1525
▁đủ	-1526
ings	-1527
▁data	-1528
êng	-1529
▁used	-1530
▁bi	-1531
ied	-1532
ms	-1533
▁ví	-1534
▁cây	-1535
▁trang	-1536
aph	-1537
▁pat	-1538
▁nhớ	-1539
▁phía	-1540
▁phim	-1541
oney	-1542
▁chú	-1543
▁four	-1544
ures	-1545
áu	-1546
▁biểu	-1547
▁hôm	-1548
▁hưởng	-1549
ways	-1550
▁vide	-1551
ưu	-1552
▁grow	-1553
▁đoạn	-1554
▁50	-1555
ote	-1556
co	-1557
▁too	-1558
▁vu	-1559
▁chị	-1560
▁met	-1561
▁chẳng	-1562
▁Al	-1563
▁vũ	-1564
▁women	-1565
▁mom	-1566
▁kì	-1567
▁kiểm	-1568
▁trái	-1569
1;	-1570
▁plan	-1571
▁&#91;	-1572
3;	-1573
▁&#93;	-1574
iêng	-1575
▁Do	-1576
▁med	-1577
▁example	-1578
▁Americ	-1579
▁thương	-1580
ets	-1581
▁15	-1582
▁Bec	-1583
▁light	-1584
formation	-1585
▁Quốc	-1586
▁fin	-1587
ủng	-1588
▁water	-1589
▁dài	-1590
▁Ông	-1591
▁100	-1592
▁vòng	-1593
ered	-1594
▁old	-1595
▁read	-1596
▁op	-1597
▁luận	-1598
ale	-1599
▁ngữ	-1600
▁done	-1601
▁Because	-1602
cept	-1603
▁phản	-1604
conom	-1605
ins	-1606
▁live	-1607
▁đôi	-1608
▁cent	-1609
▁care	-1610
▁Trung	-1611
air	-1612
ạy	-1613
▁small	-1614
▁fo	-1615
▁đầy	-1616
▁less	-1617
▁doesn	-1618
ands	-1619
▁dục	-1620
▁wanted	-1621
ative	-1622
▁technology	-1623
orn	-1624
▁lợi	-1625
▁second	-1626
▁Is	-1627
▁mus	-1628
iend	-1629
▁kia	-1630
ựa	-1631
▁contr	-1632
ah	-1633
▁giảm	-1634
▁produ	-1635
▁expl	-1636
▁thậm	-1637
▁beh	-1638
ằm	-1639
▁ed	-1640
oy	-1641
▁looking	-1642
ternet	-1643
▁thuốc	-1644
ably	-1645
▁always	-1646
ont	-1647
▁kiếm	-1648
alking	-1649
▁believe	-1650
▁vừa	-1651
▁spe	-1652
▁chân	-1653
selves	-1654
▁Ar	-1655
▁tích	-1656
▁money	-1657
▁econom	-1658
▁thư	-1659
▁trăm	-1660
▁eff	-1661
▁thôi	-1662
▁video	-1663
▁children	-1664
▁partic	-1665
ưỡ	-1666
▁My	-1667
▁hộ	-1668
▁gener	-1669
▁đình	-1670
iếu	-1671
▁As	-1672
▁hạn	-1673
▁comput	-1674
▁working	-1675
cc	-1676
▁bus	-1677
▁bước	-1678
▁giao	-1679
àu	-1680
ational	-1681
▁lệ	-1682
▁lai	-1683
▁ter	-1684
▁reas	-1685
pr	-1686
▁poss	-1687
▁proc	-1688
▁Người	-1689
▁run	-1690
▁dem	-1691
▁đô	-1692
▁whole	-1693
nce	-1694
▁sâu	-1695
▁teach	-1696
▁ca	-1697
▁rob	-1698
▁Un	-1699
▁far	-1700
▁Tại	-1701
▁book	-1702
▁hy	-1703
▁tỉ	-1704
▁môi	-1705
▁away	-1706
▁toán	-1707
▁gh	-1708
▁guy	-1709
▁project	-1710
▁trải	-1711
▁trời	-1712
ead	-1713
iềm	-1714
▁hard	-1715
ụp	-1716
▁ear	-1717
▁tồn	-1718
▁information	-1719
▁el	-1720
▁diện	-1721
▁chi	-1722
▁move	-1723
▁rộng	-1724
▁phục	-1725
▁giữ	-1726
▁nat	-1727
▁Bởi	-1728
▁country	-1729
▁thanh	-1730
▁trying	-1731
▁home	-1732
▁dành	-1733
▁kids	-1734
▁nối	-1735
led	-1736
▁địa	-1737
▁food	-1738
▁đoán	-1739
▁create	-1740
▁lòng	-1741
hip	-1742
▁mind	-1743
io	-1744
ural	-1745
uốt	-1746
▁thuộc	-1747
▁health	-1748
▁reg	-1749
▁riêng	-1750
ries	-1751
ird	-1752
▁tạp	-1753
▁resp	-1754
▁lar	-1755
▁sợ	-1756
▁mắt	-1757
▁mục	-1758
▁đứng	-1759
▁nổi	-1760
▁phủ	-1761
▁dạy	-1762
▁friend	-1763
▁lã	-1764
▁vệ	-1765
▁nghi	-1766
nect	-1767
▁thí	-1768
ism	-1769
▁vẻ	-1770
▁sai	-1771
olution	-1772
▁đạt	-1773
atter	-1774
▁lead	-1775
ten	-1776
▁means	-1777
▁using	-1778
▁million	-1779
▁doll	-1780
▁eng	-1781
▁five	-1782
bo	-1783
▁căn	-1784
▁thúc	-1785
▁kỹ	-1786
▁luật	-1787
▁Internet	-1788
▁sẻ	-1789
ines	-1790
▁tối	-1791
▁mẫu	-1792
▁xung	-1793
ck	-1794
aces	-1795
li	-1796
its	-1797
▁sk	-1798
old	-1799
▁vis	-1800
▁lịch	-1801
man	-1802
▁pict	-1803
▁sing	-1804
▁supp	-1805
▁ánh	-1806
▁become	-1807
ina	-1808
▁sub	-1809
▁open	-1810
▁bàn	-1811
▁process	-1812
▁đọc	-1813
▁maybe	-1814
ặng	-1815
▁space	-1816
▁lớp	-1817
▁robot	-1818
ạng	-1819
ruct	-1820
▁Cảm	-1821
▁fut	-1822
▁One	-1823
▁kỷ	-1824
▁inf	-1825
▁trụ	-1826
gg	-1827
ories	-1828
ific	-1829
▁yếu	-1830
▁conf	-1831
▁pub	-1832
ments	-1833
▁She	-1834
▁took	-1835
▁thinking	-1836
▁khắp	-1837
kay	-1838
sw	-1839
▁compan	-1840
ble	-1841
▁everything	-1842
▁vui	-1843
▁form	-1844
▁share	-1845
▁trông	-1846
▁Ind	-1847
▁khoẻ	-1848
▁anim	-1849
▁organ	-1850
wh	-1851
▁elect	-1852
▁future	-1853
▁tiết	-1854
▁chương	-1855
▁An	-1856
▁cap	-1857
▁ngồi	-1858
ran	-1859
▁chạy	-1860
▁best	-1861
iew	-1862
ues	-1863
▁energ	-1864
▁gái	-1865
▁says	-1866
àm	-1867
aut	-1868
▁fun	-1869
▁phút	-1870
▁quite	-1871
roup	-1872
▁pass	-1873
▁sư	-1874
▁cậu	-1875
cer	-1876
▁pop	-1877
▁trợ	-1878
▁12	-1879
▁cuốn	-1880
ention	-1881
▁mối	-1882
▁social	-1883
▁sol	-1884
▁sắc	-1885
▁buổi	-1886
ượt	-1887
▁rep	-1888
▁number	-1889
▁chắn	-1890
▁lang	-1891
ouse	-1892
▁hầu	-1893
iting	-1894
▁suốt	-1895
▁enough	-1896
▁head	-1897
▁univer	-1898
alf	-1899
--	-1900
vern	-1901
▁left	-1902
▁answ	-1903
▁kiện	-1904
uff	-1905
▁lives	-1906
ety	-1907
▁biển	-1908
▁trúc	-1909
▁Afric	-1910
▁comes	-1911
ever	-1912
▁mù	-1913
▁cle	-1914
▁chung	-1915
eas	-1916
▁ké	-1917
imes	-1918
ertain	-1919
▁energy	-1920
▁pret	-1921
▁getting	-1922
▁Why	-1923
und	-1924
alle	-1925
▁ngôn	-1926
▁Go	-1927
▁mua	-1928
cial	-1929
▁For	-1930
▁doanh	-1931
▁group	-1932
▁These	-1933
▁beg	-1934
▁body	-1935
▁Qu	-1936
ital	-1937
▁Phi	-1938
▁cou	-1939
▁war	-1940
▁kiểu	-1941
▁making	-1942
▁pres	-1943
▁Tất	-1944
▁Vâng	-1945
▁York	-1946
▁No	-1947
▁web	-1948
▁Sau	-1949
vir	-1950
èo	-1951
enc	-1952
▁cửa	-1953
ake	-1954
▁Jo	-1955
▁vận	-1956
▁cánh	-1957
▁khám	-1958
▁times	-1959
▁sở	-1960
▁glob	-1961
▁ngạc	-1962
▁month	-1963
▁set	-1964
▁xét	-1965
▁xúc	-1966
▁men	-1967
vers	-1968
▁rese	-1969
ốt	-1970
ron	-1971
▁aut	-1972
▁room	-1973
▁ràng	-1974
▁moment	-1975
▁lâu	-1976
▁ban	-1977
▁tuần	-1978
▁thoại	-1979
▁happened	-1980
▁bán	-1981
ices	-1982
ering	-1983
▁sense	-1984
ee	-1985
▁/	-1986
▁countries	-1987
▁makes	-1988
▁top	-1989
▁hiểm	-1990
▁sound	-1991
ross	-1992
▁probably	-1993
▁hồi	-1994
ember	-1995
▁Let	-1996
viron	-1997
▁dollars	-1998
▁job	-1999
reen	-2000
▁without	-2001
ex	-2002
▁govern	-2003
▁cấu	-2004
▁connect	-2005
▁business	-2006
idd	-2007
▁phot	-2008
▁nhiệm	-2009
▁18	-2010
▁keep	-2011
▁talking	-2012
land	-2013
▁interesting	-2014
uring	-2015
ner	-2016
ưỡng	-2017
aps	-2018
▁pie	-2019
▁phức	-2020
▁wond	-2021
▁music	-2022
▁beaut	-2023
▁thiên	-2024
▁research	-2025
▁red	-2026
▁val	-2027
▁kích	-2028
▁seem	-2029
▁dist	-2030
ott	-2031
▁cung	-2032
ĩnh	-2033
▁reason	-2034
▁nằm	-2035
▁chụp	-2036
▁chuyên	-2037
▁experience	-2038
▁nhập	-2039
▁told	-2040
▁40	-2041
▁stre	-2042
▁add	-2043
▁Ở	-2044
up	-2045
▁pretty	-2046
▁environ	-2047
very	-2048
▁bóng	-2049
▁educ	-2050
▁hist	-2051
▁wee	-2052
▁else	-2053
br	-2054
▁ngôi	-2055
▁science	-2056
▁minut	-2057
▁da	-2058
▁kẻ	-2059
▁thái	-2060
▁young	-2061
▁cur	-2062
▁cạnh	-2063
▁ey	-2064
▁such	-2065
ior	-2066
uyện	-2067
▁across	-2068
att	-2069
▁cult	-2070
ữu	-2071
▁phys	-2072
▁allow	-2073
▁simple	-2074
▁stand	-2075
▁opp	-2076
▁độc	-2077
ided	-2078
▁det	-2079
▁polit	-2080
uyên	-2081
▁nam	-2082
▁prot	-2083
▁viện	-2084
ately	-2085
▁cells	-2086
▁matter	-2087
▁All	-2088
▁băng	-2089
▁hạnh	-2090
▁hữu	-2091
▁langu	-2092
▁chứ	-2093
ếp	-2094
▁saw	-2095
▁half	-2096
▁sign	-2097
▁stuff	-2098
ash	-2099
▁hoà	-2100
▁chỗ	-2101
▁ngành	-2102
ograph	-2103
▁gu	-2104
▁eas	-2105
▁dung	-2106
▁case	-2107
▁trưởng	-2108
der	-2109
▁vo	-2110
ient	-2111
▁ways	-2112
▁asked	-2113
▁vẽ	-2114
▁Here	-2115
▁khủng	-2116
▁living	-2117
▁thập	-2118
ortun	-2119
▁mark	-2120
▁side	-2121
▁mor	-2122
▁ích	-2123
ẵn	-2124
ốn	-2125
▁stop	-2126
lf	-2127
▁model	-2128
▁inside	-2129
▁scient	-2130
▁đa	-2131
▁family	-2132
ov	-2133
ỏng	-2134
▁hope	-2135
▁hour	-2136
▁list	-2137
▁anything	-2138
gs	-2139
▁dep	-2140
▁chuẩn	-2141
ger	-2142
ling	-2143
▁Xin	-2144
ality	-2145
▁building	-2146
aw	-2147
▁bác	-2148
▁quý	-2149
ẩy	-2150
▁Con	-2151
▁bad	-2152
▁phúc	-2153
▁bring	-2154
▁ghi	-2155
ince	-2156
▁thiếu	-2157
▁happens	-2158
ilt	-2159
▁Cô	-2160
llow	-2161
▁chịu	-2162
▁vir	-2163
▁later	-2164
where	-2165
ửi	-2166
ime	-2167
▁air	-2168
▁Thật	-2169
▁goes	-2170
rib	-2171
▁lab	-2172
▁hề	-2173
▁Br	-2174
▁hoạ	-2175
▁lắng	-2176
▁xanh	-2177
▁coming	-2178
▁tấm	-2179
▁while	-2180
ulation	-2181
ier	-2182
▁tệ	-2183
▁sẵn	-2184
▁char	-2185
▁niệm	-2186
▁wrong	-2187
▁pain	-2188
▁global	-2189
ộn	-2190
▁Nên	-2191
▁cor	-2192
▁particular	-2193
▁bre	-2194
▁tức	-2195
▁phạm	-2196
▁rest	-2197
▁nhiêu	-2198
▁single	-2199
▁Sự	-2200
▁khăn	-2201
▁tái	-2202
▁đau	-2203
ón	-2204
▁Can	-2205
▁trai	-2206
▁watch	-2207
▁environment	-2208
acy	-2209
▁25	-2210
▁ref	-2211
▁sắp	-2212
▁yet	-2213
▁spea	-2214
úi	-2215
▁áp	-2216
most	-2217
▁hơi	-2218
▁problems	-2219
▁Cái	-2220
iter	-2221
▁gir	-2222
▁lạ	-2223
▁Giờ	-2224
ape	-2225
▁Thực	-2226
▁fig	-2227
▁mặc	-2228
▁prof	-2229
▁chống	-2230
▁equ	-2231
▁lạc	-2232
arth	-2233
▁sit	-2234
▁thất	-2235
arent	-2236
▁prop	-2237
uôi	-2238
▁days	-2239
▁having	-2240
▁cam	-2241
▁heart	-2242
eg	-2243
ying	-2244
▁cải	-2245
▁def	-2246
▁dựa	-2247
ogram	-2248
▁mach	-2249
▁mã	-2250
▁châu	-2251
▁mong	-2252
▁dev	-2253
▁test	-2254
▁đóng	-2255
▁begin	-2256
▁thous	-2257
▁complete	-2258
▁loc	-2259
▁seen	-2260
▁control	-2261
▁cha	-2262
▁someone	-2263
▁xử	-2264
▁myself	-2265
▁words	-2266
ters	-2267
▁billion	-2268
▁effect	-2269
▁public	-2270
▁tre	-2271
aterial	-2272
ization	-2273
▁lựa	-2274
▁trực	-2275
▁certain	-2276
ivid	-2277
▁mem	-2278
▁often	-2279
▁level	-2280
▁Or	-2281
▁saying	-2282
▁đội	-2283
▁amaz	-2284
▁pos	-2285
row	-2286
▁bánh	-2287
▁walk	-2288
▁hậu	-2289
▁game	-2290
▁cổ	-2291
▁within	-2292
▁picture	-2293
▁xin	-2294
▁hear	-2295
▁tổng	-2296
side	-2297
▁ideas	-2298
▁six	-2299
▁looked	-2300
▁khổ	-2301
▁nhi	-2302
itive	-2303
▁girl	-2304
▁nội	-2305
▁self	-2306
▁sure	-2307
▁At	-2308
▁whether	-2309
ene	-2310
▁both	-2311
▁possible	-2312
úa	-2313
▁city	-2314
▁khắc	-2315
ưng	-2316
▁mật	-2317
▁vượt	-2318
▁product	-2319
▁nhu	-2320
▁To	-2321
▁tỷ	-2322
ants	-2323
▁xấu	-2324
▁kill	-2325
▁tầm	-2326
▁chăm	-2327
▁computer	-2328
▁ẩn	-2329
▁dần	-2330
▁fore	-2331
▁community	-2332
▁gửi	-2333
▁once	-2334
▁toà	-2335
lish	-2336
unch	-2337
▁nothing	-2338
▁Làm	-2339
▁answer	-2340
▁Ý	-2341
▁fil	-2342
▁language	-2343
ret	-2344
▁exc	-2345
▁hứng	-2346
▁thiện	-2347
less	-2348
▁hạt	-2349
▁true	-2350
▁exact	-2351
▁Africa	-2352
▁par	-2353
▁Earth	-2354
▁class	-2355
▁Ấ	-2356
▁Okay	-2357
▁mag	-2358
▁Để	-2359
aper	-2360
▁unt	-2361
istan	-2362
ury	-2363
ín	-2364
▁individ	-2365
▁material	-2366
anc	-2367
▁age	-2368
▁lưu	-2369
▁Ấn	-2370
▁danh	-2371
▁news	-2372
▁works	-2373
▁almost	-2374
▁cond	-2375
alleng	-2376
▁chiều	-2377
▁nhiệt	-2378
▁trạng	-2379
▁sang	-2380
▁spend	-2381
▁entire	-2382
pect	-2383
▁iss	-2384
▁lãnh	-2385
▁đột	-2386
▁night	-2387
ush	-2388
▁amazing	-2389
ready	-2390
▁face	-2391
▁sw	-2392
▁dầu	-2393
▁Z	-2394
rect	-2395
▁niềm	-2396
▁beautif	-2397
iddle	-2398
▁incred	-2399
▁disco	-2400
▁remember	-2401
rop	-2402
▁challeng	-2403
▁basically	-2404
▁individual	-2405
ages	-2406
▁tội	-2407
▁heard	-2408
▁nghèo	-2409
ern	-2410
ocr	-2411
▁nhiễ	-2412
ield	-2413
line	-2414
▁nạn	-2415
▁ngoại	-2416
▁imagine	-2417
atic	-2418
▁cận	-2419
ồm	-2420
▁cost	-2421
▁mar	-2422
▁ung	-2423
▁decided	-2424
▁chữa	-2425
▁kính	-2426
▁looks	-2427
ream	-2428
▁ass	-2429
▁treat	-2430
era	-2431
▁xo	-2432
ones	-2433
▁already	-2434
ives	-2435
▁full	-2436
▁succ	-2437
▁history	-2438
▁aff	-2439
▁đấu	-2440
▁Châu	-2441
▁past	-2442
▁dấu	-2443
imate	-2444
▁Độ	-2445
▁net	-2446
▁đẩy	-2447
▁friends	-2448
▁ổ	-2449
▁aw	-2450
▁tool	-2451
▁experim	-2452
NA	-2453
▁nỗi	-2454
ustr	-2455
▁che	-2456
▁Goog	-2457
▁built	-2458
▁United	-2459
▁contin	-2460
▁wonder	-2461
ats	-2462
ely	-2463
eah	-2464
ton	-2465
▁adv	-2466
▁ret	-2467
▁success	-2468
▁11	-2469
▁Fr	-2470
▁Oh	-2471
▁kéo	-2472
▁hát	-2473
▁stories	-2474
osed	-2475
outh	-2476
▁thách	-2477
▁ngủ	-2478
▁thủ	-2479
ndred	-2480
▁hundred	-2481
vious	-2482
▁figure	-2483
▁collect	-2484
▁đen	-2485
▁fund	-2486
▁follow	-2487
▁—	-2488
▁pay	-2489
▁khách	-2490
▁couple	-2491
▁mil	-2492
▁tắc	-2493
▁beautiful	-2494
▁ô	-2495
▁wa	-2496
▁inn	-2497
▁wasn	-2498
▁Every	-2499
▁months	-2500
▁result	-2501
▁Chr	-2502
▁giấy	-2503
▁piece	-2504
▁education	-2505
▁government	-2506
▁free	-2507
▁ngược	-2508
▁phi	-2509
ental	-2510
▁train	-2511
▁nuôi	-2512
▁large	-2513
ional	-2514
▁program	-2515
ared	-2516
▁Lo	-2517
xy	-2518
bon	-2519
▁huge	-2520
▁minutes	-2521
▁ước	-2522
▁Google	-2523
▁80	-2524
▁bại	-2525
▁order	-2526
▁became	-2527
hn	-2528
sy	-2529
ỉnh	-2530
ivity	-2531
▁deep	-2532
▁until	-2533
iếp	-2534
raz	-2535
bers	-2536
▁rad	-2537
ising	-2538
ocus	-2539
▁Tây	-2540
▁chữ	-2541
aster	-2542
▁taking	-2543
▁quản	-2544
work	-2545
▁soát	-2546
▁universe	-2547
▁view	-2548
▁const	-2549
▁though	-2550
▁society	-2551
etic	-2552
ined	-2553
▁lỗi	-2554
ision	-2555
▁complex	-2556
▁everybody	-2557
ames	-2558
▁cử	-2559
▁nửa	-2560
▁lĩnh	-2561
▁tiện	-2562
▁mắc	-2563
▁hoạch	-2564
▁lí	-2565
ange	-2566
▁quick	-2567
▁themselves	-2568
▁mơ	-2569
▁woman	-2570
▁learned	-2571
ẩu	-2572
▁must	-2573
▁front	-2574
▁engine	-2575
▁planet	-2576
med	-2577
▁gồm	-2578
▁incre	-2579
ony	-2580
▁team	-2581
▁nhiễm	-2582
dd	-2583
▁tốc	-2584
▁dương	-2585
▁exactly	-2586
▁chim	-2587
▁khiển	-2588
▁States	-2589
ts	-2590
ians	-2591
omes	-2592
▁China	-2593
▁created	-2594
▁tả	-2595
▁sóc	-2596
▁focus	-2597
õi	-2598
▁gó	-2599
▁cắt	-2600
▁gets	-2601
▁behav	-2602
▁cancer	-2603
▁60	-2604
▁Mọi	-2605
ane	-2606
▁hại	-2607
▁giết	-2608
▁completely	-2609
ev	-2610
▁Tuy	-2611
▁mic	-2612
▁house	-2613
▁thẳng	-2614
to	-2615
▁Be	-2616
▁study	-2617
▁happening	-2618
▁khối	-2619
▁quen	-2620
oud	-2621
▁bày	-2622
▁dây	-2623
▁quân	-2624
iễn	-2625
▁tàu	-2626
▁knew	-2627
▁đông	-2628
thers	-2629
ik	-2630
ired	-2631
▁struct	-2632
▁đích	-2633
▁chiếu	-2634
▁đức	-2635
▁lưới	-2636
▁nhờ	-2637
▁name	-2638
▁hours	-2639
ability	-2640
▁questions	-2641
▁Pe	-2642
▁đá	-2643
cul	-2644
▁thấp	-2645
▁somebody	-2646
▁John	-2647
▁dòng	-2648
▁mê	-2649
▁shows	-2650
▁Â	-2651
▁Chỉ	-2652
▁cư	-2653
▁bầu	-2654
▁lái	-2655
▁ngờ	-2656
▁cười	-2657
▁prov	-2658
▁nature	-2659
▁places	-2660
▁Ngh	-2661
▁isn	-2662
▁đêm	-2663
▁niên	-2664
▁kinds	-2665
▁bab	-2666
▁thi	-2667
▁spec	-2668
▁itself	-2669
▁đổ	-2670
▁199	-2671
▁law	-2672
▁non	-2673
▁dàng	-2674
ential	-2675
▁phóng	-2676
▁khai	-2677
iqu	-2678
▁hỗ	-2679
icult	-2680
▁sàng	-2681
▁av	-2682
▁ourselves	-2683
ặn	-2684
els	-2685
▁rối	-2686
▁xếp	-2687
▁chấp	-2688
▁ngắn	-2689
▁against	-2690
▁gốc	-2691
▁meet	-2692
▁Eng	-2693
▁ones	-2694
▁difference	-2695
ogn	-2696
▁abs	-2697
▁tận	-2698
itting	-2699
▁everyone	-2700
cle	-2701
▁May	-2702
▁God	-2703
▁gấp	-2704
▁phong	-2705
▁listen	-2706
▁đem	-2707
asure	-2708
▁nông	-2709
▁đu	-2710
ease	-2711
▁đỡ	-2712
▁Then	-2713
▁state	-2714
ute	-2715
▁DNA	-2716
▁others	-2717
▁opportun	-2718
▁Với	-2719
▁song	-2720
▁bạo	-2721
▁giây	-2722
▁since	-2723
▁speak	-2724
▁market	-2725
▁kỉ	-2726
▁lắm	-2727
▁sân	-2728
▁neur	-2729
▁parent	-2730
raw	-2731
▁clear	-2732
omet	-2733
▁expect	-2734
▁object	-2735
▁students	-2736
▁HI	-2737
eria	-2738
ption	-2739
▁close	-2740
▁American	-2741
▁ris	-2742
▁sex	-2743
▁trách	-2744
ator	-2745
▁Eur	-2746
▁gắn	-2747
▁gave	-2748
▁innov	-2749
▁invest	-2750
▁worked	-2751
▁relations	-2752
▁sometimes	-2753
▁Pr	-2754
▁bốn	-2755
▁cáo	-2756
▁vai	-2757
▁mess	-2758
▁mother	-2759
▁explain	-2760
ann	-2761
get	-2762
olved	-2763
▁hold	-2764
▁hồ	-2765
▁cân	-2766
istic	-2767
ler	-2768
ots	-2769
▁trừ	-2770
▁line	-2771
▁bí	-2772
ider	-2773
▁Car	-2774
ature	-2775
▁India	-2776
▁company	-2777
▁Rồi	-2778
▁difficult	-2779
ney	-2780
▁đợi	-2781
▁rather	-2782
▁HIV	-2783
▁dru	-2784
urs	-2785
▁won	-2786
▁fail	-2787
▁ngàn	-2788
èn	-2789
rem	-2790
ract	-2791
▁aud	-2792
▁tôn	-2793
▁third	-2794
▁America	-2795
▁phẫu	-2796
enn	-2797
ump	-2798
ầng	-2799
▁typ	-2800
▁mass	-2801
▁couldn	-2802
▁disease	-2803
ma	-2804
lud	-2805
▁hài	-2806
▁thụ	-2807
▁surpr	-2808
▁thousands	-2809
▁z	-2810
haps	-2811
ences	-2812
▁xuyên	-2813
▁interact	-2814
ibly	-2815
▁deal	-2816
▁hoa	-2817
▁thơ	-2818
▁bott	-2819
by	-2820
▁buy	-2821
▁miss	-2822
▁nhảy	-2823
▁On	-2824
▁pot	-2825
▁coll	-2826
oph	-2827
aring	-2828
▁land	-2829
ination	-2830
▁chuyến	-2831
gest	-2832
▁ill	-2833
▁dừng	-2834
▁siêu	-2835
▁happy	-2836
▁amount	-2837
▁arch	-2838
▁oper	-2839
illions	-2840
sych	-2841
▁norm	-2842
▁outside	-2843
ode	-2844
▁liter	-2845
▁changed	-2846
▁learning	-2847
▁Em	-2848
▁cir	-2849
uss	-2850
▁kĩ	-2851
▁powerful	-2852
rew	-2853
▁màn	-2854
▁emot	-2855
▁nghị	-2856
▁step	-2857
▁takes	-2858
▁Am	-2859
▁ký	-2860
▁del	-2861
▁oil	-2862
▁along	-2863
▁lao	-2864
▁early	-2865
▁systems	-2866
ming	-2867
▁giai	-2868
▁tầng	-2869
▁wind	-2870
▁ident	-2871
▁behavior	-2872
elt	-2873
book	-2874
▁rev	-2875
▁đảm	-2876
▁Some	-2877
▁population	-2878
▁16	-2879
oke	-2880
▁ảo	-2881
▁Mar	-2882
▁tải	-2883
▁ele	-2884
▁sens	-2885
▁impro	-2886
ases	-2887
▁hấp	-2888
▁death	-2889
▁species	-2890
ike	-2891
▁turns	-2892
ides	-2893
wards	-2894
▁pred	-2895
▁appro	-2896
▁least	-2897
▁instead	-2898
not	-2899
▁Cho	-2900
▁Nam	-2901
▁fear	-2902
▁black	-2903
ken	-2904
▁fly	-2905
▁phổ	-2906
ement	-2907
▁jour	-2908
▁short	-2909
▁during	-2910
▁Mo	-2911
▁guys	-2912
▁terr	-2913
▁present	-2914
ison	-2915
erv	-2916
ples	-2917
▁cal	-2918
▁machine	-2919
▁khởi	-2920
▁culture	-2921
▁90	-2922
▁lots	-2923
▁ngăn	-2924
▁tù	-2925
▁mot	-2926
▁nhắc	-2927
▁14	-2928
aged	-2929
ident	-2930
▁rừng	-2931
▁democr	-2932
▁animals	-2933
ót	-2934
ply	-2935
▁OK	-2936
vered	-2937
▁chỉnh	-2938
▁grand	-2939
▁middle	-2940
ither	-2941
▁easy	-2942
▁realized	-2943
▁Ge	-2944
▁eat	-2945
ients	-2946
fect	-2947
orth	-2948
▁góc	-2949
▁Afgh	-2950
▁paper	-2951
▁yourself	-2952
ẳn	-2953
▁es	-2954
leep	-2955
▁201	-2956
▁fre	-2957
▁fall	-2958
▁khái	-2959
▁thải	-2960
jor	-2961
▁given	-2962
▁recent	-2963
▁protect	-2964
uck	-2965
ased	-2966
▁bom	-2967
▁dig	-2968
▁hút	-2969
▁tem	-2970
▁var	-2971
▁arg	-2972
▁image	-2973
▁Cal	-2974
▁hộp	-2975
astic	-2976
▁mole	-2977
▁nghiêm	-2978
ully	-2979
▁main	-2980
▁dream	-2981
▁hands	-2982
▁behind	-2983
▁natural	-2984
ama	-2985
▁Dav	-2986
▁cut	-2987
▁món	-2988
▁Được	-2989
verage	-2990
▁luyện	-2991
apt	-2992
com	-2993
▁kê	-2994
▁ổn	-2995
▁ant	-2996
▁needed	-2997
▁Âu	-2998
▁math	-2999
▁simply	-3000
la	-3001
▁khuôn	-3002
itch	-3003
▁needs	-3004
▁Afghan	-3005
▁70	-3006
▁du	-3007
▁tín	-3008
▁giàu	-3009
▁viol	-3010
▁personal	-3011
▁relationship	-3012
▁Ta	-3013
▁lá	-3014
▁cập	-3015
▁chuột	-3016
▁fight	-3017
▁seven	-3018
▁father	-3019
ium	-3020
▁eyes	-3021
▁exist	-3022
▁psych	-3023
▁Ví	-3024
▁Còn	-3025
▁già	-3026
▁doct	-3027
▁colle	-3028
▁finally	-3029
ềm	-3030
▁13	-3031
face	-3032
▁coi	-3033
▁low	-3034
▁field	-3035
▁pract	-3036
▁lim	-3037
▁liệt	-3038
▁ngân	-3039
▁leave	-3040
▁companies	-3041
▁TV	-3042
▁đỏ	-3043
▁trad	-3044
▁century	-3045
▁ru	-3046
year	-3047
▁đám	-3048
▁stat	-3049
▁economic	-3050
▁tấn	-3051
▁phận	-3052
▁stay	-3053
▁tuyến	-3054
▁Europe	-3055
ced	-3056
▁fac	-3057
itions	-3058
▁thắng	-3059
▁lan	-3060
inary	-3061
▁felt	-3062
▁direct	-3063
▁perform	-3064
he	-3065
ledge	-3066
▁local	-3067
▁media	-3068
ource	-3069
▁trao	-3070
▁major	-3071
▁sun	-3072
▁support	-3073
▁political	-3074
lo	-3075
osp	-3076
ows	-3077
▁Hoa	-3078
▁tai	-3079
▁area	-3080
▁feet	-3081
▁Chúa	-3082
▁turned	-3083
room	-3084
▁huỷ	-3085
▁đảo	-3086
▁extra	-3087
▁access	-3088
50	-3089
ills	-3090
▁Har	-3091
▁môn	-3092
▁nặng	-3093
▁break	-3094
▁value	-3095
ological	-3096
▁obvious	-3097
▁hẳn	-3098
▁ple	-3099
ially	-3100
▁Trái	-3101
▁chứa	-3102
▁famil	-3103
▁super	-3104
▁People	-3105
▁common	-3106
òi	-3107
▁Ai	-3108
ains	-3109
▁dậy	-3110
▁mềm	-3111
aught	-3112
▁Câu	-3113
▁vân	-3114
▁Just	-3115
▁serv	-3116
▁taken	-3117
▁cannot	-3118
▁pattern	-3119
bor	-3120
▁key	-3121
▁chem	-3122
▁spent	-3123
▁perhaps	-3124
▁communic	-3125
▁beginning	-3126
ived	-3127
▁nóng	-3128
idence	-3129
▁prote	-3130
▁strong	-3131
▁17	-3132
inal	-3133
▁David	-3134
▁record	-3135
▁seeing	-3136
▁mấy	-3137
▁disc	-3138
ọt	-3139
▁Le	-3140
▁Rob	-3141
▁phù	-3142
▁moving	-3143
▁Bắc	-3144
▁Wor	-3145
▁enc	-3146
ument	-3147
▁orig	-3148
▁extrem	-3149
▁longer	-3150
.000	-3151
▁Not	-3152
▁Công	-3153
▁cháu	-3154
▁mạch	-3155
▁sent	-3156
ency	-3157
▁leg	-3158
▁Yeah	-3159
▁chóng	-3160
ịp	-3161
▁mẽ	-3162
iếng	-3163
▁mùa	-3164
▁ống	-3165
▁mult	-3166
▁send	-3167
▁parts	-3168
▁quyển	-3169
▁leaders	-3170
▁vac	-3171
▁buộc	-3172
▁điển	-3173
rought	-3174
▁Sp	-3175
▁máu	-3176
▁Hiện	-3177
▁sóng	-3178
▁dưỡng	-3179
▁thiệu	-3180
▁trùng	-3181
▁eight	-3182
▁$	-3183
uth	-3184
▁hạ	-3185
▁hãi	-3186
fully	-3187
▁draw	-3188
▁khán	-3189
▁linh	-3190
▁surv	-3191
▁perfect	-3192
▁quickly	-3193
▁wonderful	-3194
▁photograph	-3195
ấc	-3196
eal	-3197
▁cũ	-3198
▁rời	-3199
▁film	-3200
▁thảo	-3201
▁began	-3202
▁reach	-3203
ipp	-3204
▁sơ	-3205
eter	-3206
▁desc	-3207
▁chủng	-3208
▁growth	-3209
▁đe	-3210
avor	-3211
vent	-3212
ivers	-3213
ources	-3214
▁event	-3215
mb	-3216
sh	-3217
▁dõi	-3218
▁size	-3219
▁uống	-3220
▁week	-3221
▁ground	-3222
▁includ	-3223
lt	-3224
▁cool	-3225
▁điên	-3226
▁Ad	-3227
▁Kỳ	-3228
▁chờ	-3229
▁tồi	-3230
▁tảng	-3231
▁Từ	-3232
▁lộ	-3233
▁Yes	-3234
▁terms	-3235
▁experiment	-3236
rent	-3237
▁Nhà	-3238
▁Iran	-3239
▁loạn	-3240
▁parents	-3241
ley	-3242
ried	-3243
▁ess	-3244
▁lầm	-3245
itect	-3246
▁carbon	-3247
▁absolut	-3248
▁cy	-3249
▁squ	-3250
▁đáp	-3251
▁buồn	-3252
▁requ	-3253
▁vững	-3254
▁impact	-3255
▁special	-3256
cious	-3257
▁lost	-3258
gn	-3259
▁mắn	-3260
▁bang	-3261
▁pick	-3262
asc	-3263
cif	-3264
▁sửa	-3265
▁Liệu	-3266
ales	-3267
▁civ	-3268
▁góp	-3269
▁win	-3270
▁box	-3271
▁tot	-3272
▁Afghanistan	-3273
▁write	-3274
▁cities	-3275
▁thưởng	-3276
ife	-3277
▁lồ	-3278
▁anal	-3279
▁travel	-3280
▁Rất	-3281
iving	-3282
▁khổng	-3283
▁tránh	-3284
▁tường	-3285
▁198	-3286
▁Vào	-3287
▁Char	-3288
▁vers	-3289
▁morning	-3290
hood	-3291
▁occ	-3292
▁oce	-3293
▁miễn	-3294
▁near	-3295
▁khoản	-3296
▁tried	-3297
▁images	-3298
▁repres	-3299
erm	-3300
rael	-3301
▁Thứ	-3302
▁đói	-3303
▁green	-3304
cl	-3305
ards	-3306
▁ong	-3307
▁camera	-3308
ilar	-3309
▁Mỗi	-3310
▁Our	-3311
▁đèn	-3312
▁lạnh	-3313
▁chàng	-3314
▁knowledge	-3315
▁21	-3316
▁Re	-3317
ised	-3318
ustain	-3319
▁virus	-3320
▁mái	-3321
▁tổn	-3322
▁ủng	-3323
▁dead	-3324
▁recogn	-3325
▁approach	-3326
▁bene	-3327
▁bảng	-3328
▁World	-3329
yr	-3330
▁cơn	-3331
ively	-3332
▁trắng	-3333
ites	-3334
▁lẫn	-3335
▁tộc	-3336
ution	-3337
▁insp	-3338
▁situ	-3339
▁spread	-3340
▁architect	-3341
▁sum	-3342
▁mảnh	-3343
▁poor	-3344
cially	-3345
▁conv	-3346
▁feed	-3347
▁intr	-3348
▁risk	-3349
▁đỉnh	-3350
▁weeks	-3351
▁consum	-3352
▁average	-3353
▁diệu	-3354
▁English	-3355
▁measure	-3356
▁attention	-3357
▁tờ	-3358
▁núi	-3359
▁obs	-3360
▁sleep	-3361
▁sitting	-3362
▁opportunity	-3363
ớm	-3364
ral	-3365
▁ap	-3366
▁Man	-3367
▁auth	-3368
▁camp	-3369
▁Đông	-3370
▁Đúng	-3371
▁online	-3372
▁feeling	-3373
▁reality	-3374
▁Ngày	-3375
▁caus	-3376
▁dest	-3377
▁rele	-3378
▁Israel	-3379
▁wouldn	-3380
▁meaning	-3381
ny	-3382
ana	-3383
ext	-3384
iction	-3385
▁phỏng	-3386
ression	-3387
▁either	-3388
▁whatever	-3389
ops	-3390
ateg	-3391
ators	-3392
▁tiểu	-3393
▁đào	-3394
▁comb	-3395
urb	-3396
▁bề	-3397
▁trì	-3398
▁born	-3399
▁changes	-3400
▁tốn	-3401
ggest	-3402
izing	-3403
▁foot	-3404
▁giọng	-3405
▁brought	-3406
▁economy	-3407
ùa	-3408
▁Bà	-3409
▁ấn	-3410
▁opt	-3411
▁yes	-3412
anger	-3413
▁Chin	-3414
▁With	-3415
▁fast	-3416
▁suggest	-3417
▁structure	-3418
cu	-3419
▁áo	-3420
▁sho	-3421
▁trận	-3422
▁based	-3423
ibility	-3424
▁giving	-3425
▁respons	-3426
▁interested	-3427
▁De	-3428
ored	-3429
▁Ken	-3430
▁hảo	-3431
▁quên	-3432
▁trồng	-3433
▁physical	-3434
ades	-3435
▁giỏi	-3436
▁stage	-3437
▁indust	-3438
eed	-3439
▁die	-3440
▁ice	-3441
▁rơi	-3442
▁blue	-3443
▁growing	-3444
▁profess	-3445
lu	-3446
unt	-3447
▁ti	-3448
dden	-3449
▁bar	-3450
ances	-3451
▁Right	-3452
▁quảng	-3453
▁sudden	-3454
▁ability	-3455
ya	-3456
ico	-3457
▁Hồi	-3458
▁kim	-3459
▁mãi	-3460
▁favor	-3461
▁seems	-3462
▁tools	-3463
▁voice	-3464
▁animal	-3465
▁developed	-3466
▁chạm	-3467
▁gone	-3468
▁hosp	-3469
▁modern	-3470
▁har	-3471
▁soft	-3472
▁books	-3473
▁known	-3474
▁stress	-3475
son	-3476
▁cỡ	-3477
▁jo	-3478
ploy	-3479
▁cầm	-3480
▁Face	-3481
chie	-3482
▁hon	-3483
▁khuẩn	-3484
omen	-3485
▁bật	-3486
▁chó	-3487
▁smart	-3488
▁produc	-3489
▁realize	-3490
▁Cl	-3491
ware	-3492
▁bền	-3493
▁vốn	-3494
▁South	-3495
▁affect	-3496
▁univers	-3497
▁Sc	-3498
▁oxy	-3499
ister	-3500
▁phấn	-3501
▁priv	-3502
▁Chính	-3503
▁nghìn	-3504
▁đương	-3505
▁charact	-3506
umb	-3507
ouch	-3508
▁sil	-3509
▁dark	-3510
▁sánh	-3511
of	-3512
aul	-3513
▁Im	-3514
▁cu	-3515
▁eye	-3516
▁hôn	-3517
▁fire	-3518
▁text	-3519
▁tiềm	-3520
▁press	-3521
▁developing	-3522
ein	-3523
ted	-3524
▁lương	-3525
▁numbers	-3526
▁24	-3527
▁chấm	-3528
▁crit	-3529
▁nghỉ	-3530
▁pull	-3531
▁issue	-3532
▁wrote	-3533
▁challenge	-3534
ug	-3535
▁Don	-3536
▁Năm	-3537
▁Đại	-3538
▁khoá	-3539
▁nice	-3540
▁vàng	-3541
▁chiếm	-3542
▁thank	-3543
▁invent	-3544
▁describ	-3545
▁scientists	-3546
lict	-3547
▁mời	-3548
▁webs	-3549
▁hoảng	-3550
▁specif	-3551
▁climate	-3552
▁running	-3553
▁incredible	-3554
▁500	-3555
▁hot	-3556
▁nắm	-3557
▁post	-3558
▁khích	-3559
▁Facebook	-3560
▁understanding	-3561
ID	-3562
iti	-3563
▁vợ	-3564
▁hiển	-3565
▁Chinese	-3566
yn	-3567
ero	-3568
ove	-3569
▁Bl	-3570
▁hi	-3571
▁bữa	-3572
▁pur	-3573
▁path	-3574
▁phối	-3575
▁poll	-3576
▁rich	-3577
▁ngừng	-3578
▁humans	-3579
▁creating	-3580
▁starting	-3581
▁ge	-3582
▁hào	-3583
▁lửa	-3584
▁save	-3585
▁bottom	-3586
▁tradition	-3587
par	-3588
▁Ab	-3589
▁By	-3590
▁tw	-3591
▁vỡ	-3592
ught	-3593
▁hor	-3594
▁làng	-3595
▁điệu	-3596
▁civil	-3597
▁audience	-3598
▁road	-3599
▁thịt	-3600
▁xương	-3601
▁sustain	-3602
yl	-3603
eth	-3604
▁hổ	-3605
▁vĩ	-3606
▁ghế	-3607
▁aren	-3608
▁tách	-3609
▁đừng	-3610
ensive	-3611
▁girls	-3612
▁millions	-3613
▁Sch	-3614
▁quần	-3615
▁network	-3616
▁playing	-3617
ặm	-3618
erence	-3619
▁scale	-3620
▁solution	-3621
▁Co	-3622
▁nổ	-3623
▁Bill	-3624
▁chuỗi	-3625
▁color	-3626
▁dường	-3627
▁knows	-3628
▁writing	-3629
uce	-3630
▁rút	-3631
▁benef	-3632
▁neigh	-3633
▁track	-3634
▁convers	-3635
cess	-3636
▁lay	-3637
▁chảy	-3638
▁khẩu	-3639
▁kịch	-3640
▁alone	-3641
▁literally	-3642
str	-3643
port	-3644
▁197	-3645
▁sót	-3646
▁Mich	-3647
▁biên	-3648
▁relig	-3649
pecially	-3650
▁arr	-3651
▁slow	-3652
▁đằng	-3653
▁blood	-3654
▁anyone	-3655
▁deg	-3656
▁mov	-3657
▁Trên	-3658
▁blog	-3659
▁tend	-3660
▁areas	-3661
▁email	-3662
anda	-3663
idge	-3664
▁gió	-3665
▁rul	-3666
▁sớm	-3667
iforn	-3668
▁baby	-3669
▁Where	-3670
▁telling	-3671
▁Tw	-3672
▁sn	-3673
▁fem	-3674
▁loạt	-3675
▁tele	-3676
▁gives	-3677
▁guess	-3678
▁thoát	-3679
▁concept	-3680
▁Californ	-3681
▁innovation	-3682
ada	-3683
iet	-3684
▁Mc	-3685
▁wall	-3686
▁games	-3687
▁truth	-3688
▁protein	-3689
ala	-3690
▁khứ	-3691
▁chậm	-3692
▁khuy	-3693
▁vill	-3694
▁chồng	-3695
▁worth	-3696
▁development	-3697
▁dĩ	-3698
▁polic	-3699
▁asking	-3700
▁experi	-3701
▁predict	-3702
ãn	-3703
ẹn	-3704
▁Ồ	-3705
uel	-3706
chan	-3707
ique	-3708
▁rate	-3709
▁soon	-3710
▁sạch	-3711
▁Trước	-3712
▁phone	-3713
▁solve	-3714
▁California	-3715
arr	-3716
ept	-3717
▁tàn	-3718
▁tắt	-3719
obody	-3720
▁prom	-3721
ologies	-3722
▁forward	-3723
▁hundreds	-3724
▁patients	-3725
▁prog	-3726
▁depend	-3727
▁sounds	-3728
▁Mex	-3729
▁giấc	-3730
▁patient	-3731
▁Vấn	-3732
▁log	-3733
▁white	-3734
▁showed	-3735
ứt	-3736
por	-3737
▁bè	-3738
irth	-3739
▁lặp	-3740
▁nghề	-3741
▁peace	-3742
▁theory	-3743
▁transform	-3744
▁discovered	-3745
▁gợi	-3746
▁imm	-3747
▁suff	-3748
▁suất	-3749
▁er	-3750
▁mũ	-3751
▁cop	-3752
▁tri	-3753
ellig	-3754
▁avail	-3755
▁force	-3756
▁normal	-3757
ham	-3758
ựng	-3759
▁Hay	-3760
▁Ira	-3761
▁emp	-3762
▁quỹ	-3763
usion	-3764
▁repl	-3765
▁vacc	-3766
ươi	-3767
▁bur	-3768
▁vol	-3769
ondon	-3770
▁trust	-3771
entially	-3772
▁current	-3773
▁son	-3774
▁okay	-3775
▁center	-3776
▁produce	-3777
▁pictures	-3778
▁especially	-3779
▁generation	-3780
ói	-3781
asing	-3782
▁Cách	-3783
▁type	-3784
▁London	-3785
▁subject	-3786
▁industry	-3787
▁represent	-3788
▁lỗ	-3789
▁lối	-3790
▁trưng	-3791
▁fundam	-3792
▁intern	-3793
▁movement	-3794
▁Ha	-3795
akes	-3796
▁phê	-3797
▁ngại	-3798
▁Chris	-3799
▁plant	-3800
▁similar	-3801
▁incredibly	-3802
▁iP	-3803
▁Com	-3804
▁Par	-3805
▁nhé	-3806
▁túi	-3807
▁sông	-3808
▁ocean	-3809
▁Christ	-3810
▁talked	-3811
▁changing	-3812
▁materials	-3813
▁potential	-3814
eh	-3815
ify	-3816
yond	-3817
▁Dan	-3818
▁bed	-3819
▁tán	-3820
▁Iraq	-3821
▁trại	-3822
▁serious	-3823
▁trữ	-3824
▁cars	-3825
▁compet	-3826
▁website	-3827
▁teachers	-3828
IDS	-3829
ped	-3830
▁Col	-3831
▁est	-3832
▁lif	-3833
ified	-3834
phere	-3835
▁sand	-3836
▁touch	-3837
▁nguyện	-3838
abor	-3839
illi	-3840
▁Cám	-3841
▁Who	-3842
▁dặm	-3843
▁Braz	-3844
▁surface	-3845
▁Ste	-3846
▁ang	-3847
▁lea	-3848
imens	-3849
osing	-3850
stein	-3851
▁kiệm	-3852
▁haven	-3853
▁thước	-3854
▁Brazil	-3855
iod	-3856
▁Cam	-3857
▁viễn	-3858
▁chance	-3859
▁involved	-3860
▁resources	-3861
▁absolutely	-3862
▁0	-3863
ask	-3864
ival	-3865
▁Nói	-3866
▁đăng	-3867
▁achie	-3868
▁conflict	-3869
lex	-3870
oor	-3871
▁Ed	-3872
▁ast	-3873
▁ball	-3874
isions	-3875
▁defin	-3876
▁table	-3877
▁issues	-3878
bit	-3879
let	-3880
oon	-3881
▁cờ	-3882
ouble	-3883
▁hang	-3884
▁evolution	-3885
▁West	-3886
▁sell	-3887
assion	-3888
▁shape	-3889
ilities	-3890
▁journey	-3891
▁happiness	-3892
ram	-3893
ros	-3894
▁Ba	-3895
▁né	-3896
▁sỹ	-3897
▁div	-3898
▁emb	-3899
▁hit	-3900
▁Đầu	-3901
▁quang	-3902
▁period	-3903
oo	-3904
▁Việc	-3905
▁đuổi	-3906
▁among	-3907
▁kháng	-3908
▁bụ	-3909
▁cà	-3910
like	-3911
▁300	-3912
▁Kho	-3913
▁bơi	-3914
▁AIDS	-3915
▁nâng	-3916
▁rece	-3917
▁danger	-3918
▁detail	-3919
▁groups	-3920
▁function	-3921
▁ult	-3922
▁Geor	-3923
▁Paul	-3924
▁tiny	-3925
▁birth	-3926
▁beyond	-3927
▁visual	-3928
▁general	-3929
▁schools	-3930
▁intellig	-3931
▁available	-3932
ìa	-3933
ech	-3934
pre	-3935
▁Sw	-3936
▁vỏ	-3937
▁kém	-3938
▁sat	-3939
▁flow	-3940
▁nhắn	-3941
▁necess	-3942
▁technologies	-3943
uct	-3944
▁fur	-3945
▁Inst	-3946
▁ghép	-3947
▁stru	-3948
▁message	-3949
ưỡi	-3950
head	-3951
▁prin	-3952
▁thăm	-3953
▁choice	-3954
▁street	-3955
▁vision	-3956
▁democracy	-3957
▁situation	-3958
ara	-3959
▁1.	-3960
▁sốt	-3961
▁meth	-3962
▁sold	-3963
▁miles	-3964
▁phiên	-3965
▁rules	-3966
ips	-3967
▁cú	-3968
▁rẻ	-3969
▁thở	-3970
▁device	-3971
▁electric	-3972
▁recently	-3973
▁safe	-3974
▁thảm	-3975
▁wish	-3976
▁breat	-3977
▁react	-3978
▁slide	-3979
▁khoảnh	-3980
▁projects	-3981
iar	-3982
une	-3983
eles	-3984
itter	-3985
oring	-3986
▁Brit	-3987
▁cause	-3988
▁medic	-3989
ĩa	-3990
ãng	-3991
▁nhật	-3992
▁tàng	-3993
▁nỗ	-3994
▁tụ	-3995
▁vết	-3996
▁Đất	-3997
▁craz	-3998
▁fair	-3999
▁lặng	-4000
▁thoả	-4001
ishing	-4002
▁Gr	-4003
roll	-4004
▁bọn	-4005
▁map	-4006
▁attack	-4007
▁account	-4008
▁digital	-4009
▁revolution	-4010
▁individuals	-4011
ox	-4012
▁neg	-4013
▁nhẹ	-4014
▁sáu	-4015
antly	-4016
light	-4017
odies	-4018
▁hoang	-4019
▁instit	-4020
▁likely	-4021
▁becomes	-4022
▁putting	-4023
eck	-4024
wor	-4025
▁Là	-4026
▁Sm	-4027
▁Thu	-4028
▁lọc	-4029
▁sea	-4030
▁Nhật	-4031
▁xoay	-4032
▁tells	-4033
▁memory	-4034
▁office	-4035
▁walking	-4036
SA	-4037
zz	-4038
apan	-4039
more	-4040
▁Was	-4041
▁boy	-4042
▁tròn	-4043
▁cross	-4044
aur	-4045
oms	-4046
▁bờ	-4047
ster	-4048
▁tru	-4049
▁hùng	-4050
▁First	-4051
▁activ	-4052
▁drive	-4053
▁trống	-4054
▁bigger	-4055
▁gt	-4056
▁196	-4057
▁San	-4058
▁War	-4059
▁died	-4060
▁drop	-4061
▁điệp	-4062
▁After	-4063
▁Japan	-4064
▁passion	-4065
▁mob	-4066
▁Maybe	-4067
▁Mexico	-4068
▁creative	-4069
▁evidence	-4070
ky	-4071
▁lt	-4072
fort	-4073
▁arm	-4074
arily	-4075
▁except	-4076
▁mechan	-4077
▁reasons	-4078
▁designed	-4079
agn	-4080
ned	-4081
▁ưu	-4082
▁Bản	-4083
cient	-4084
▁East	-4085
▁medical	-4086
eel	-4087
▁Of	-4088
itiz	-4089
▁mùi	-4090
ously	-4091
▁Look	-4092
▁đẳng	-4093
▁action	-4094
▁search	-4095
▁secret	-4096
▁results	-4097
col	-4098
▁Se	-4099
▁đế	-4100
ford	-4101
▁Hai	-4102
▁Lúc	-4103
▁voi	-4104
▁ngẫu	-4105
▁North	-4106
▁compassion	-4107
fer	-4108
▁ep	-4109
▁doạ	-4110
▁lục	-4111
▁đam	-4112
▁improve	-4113
▁bò	-4114
▁Are	-4115
▁tar	-4116
▁cris	-4117
▁drug	-4118
▁grad	-4119
▁lành	-4120
▁emerg	-4121
▁towards	-4122
▁everywhere	-4123
ges	-4124
▁Bộ	-4125
medi	-4126
▁lính	-4127
▁nine	-4128
▁phil	-4129
▁aware	-4130
▁blind	-4131
▁clean	-4132
▁crazy	-4133
▁lived	-4134
▁ready	-4135
ủi	-4136
▁tô	-4137
ngth	-4138
view	-4139
▁led	-4140
ained	-4141
▁lose	-4142
▁favorite	-4143
▁software	-4144
▁conscious	-4145
▁Á	-4146
▁Ả	-4147
lly	-4148
edom	-4149
▁prim	-4150
▁đựng	-4151
▁basic	-4152
▁starts	-4153
▁teacher	-4154
▁particip	-4155
DP	-4156
▁bird	-4157
▁cart	-4158
▁code	-4159
▁thừa	-4160
estern	-4161
▁thuận	-4162
olutions	-4163
imb	-4164
urt	-4165
▁400	-4166
▁tan	-4167
▁unf	-4168
iding	-4169
ished	-4170
oming	-4171
▁Theo	-4172
▁shif	-4173
▁thác	-4174
▁certainly	-4175
oles	-4176
onse	-4177
▁rác	-4178
▁Ngay	-4179
▁bact	-4180
▁thuỷ	-4181
▁minds	-4182
▁waste	-4183
▁taught	-4184
▁biggest	-4185
▁examples	-4186
▁scientific	-4187
put	-4188
ores	-4189
▁onto	-4190
▁đoàn	-4191
▁trial	-4192
▁Canada	-4193
ude	-4194
▁cấy	-4195
▁mis	-4196
▁Arab	-4197
▁moved	-4198
▁print	-4199
▁transl	-4200
▁further	-4201
▁obviously	-4202
ớt	-4203
ged	-4204
▁Pl	-4205
edia	-4206
▁Act	-4207
▁GDP	-4208
▁lau	-4209
▁Cuối	-4210
others	-4211
▁citiz	-4212
▁moral	-4213
▁sever	-4214
▁trích	-4215
▁introd	-4216
▁screen	-4217
izations	-4218
▁quality	-4219
▁extraord	-4220
▁progress	-4221
▁violence	-4222
▁computers	-4223
▁particularly	-4224
nal	-4225
▁AD	-4226
▁chặt	-4227
▁meant	-4228
▁nhuận	-4229
▁thang	-4230
ruction	-4231
▁electr	-4232
▁content	-4233
▁context	-4234
▁showing	-4235
▁neighbor	-4236
ett	-4237
▁Ob	-4238
▁din	-4239
urity	-4240
▁rock	-4241
▁faster	-4242
▁communities	-4243
lin	-4244
ube	-4245
▁pu	-4246
▁huy	-4247
▁họp	-4248
▁đạp	-4249
ground	-4250
▁apart	-4251
▁giảng	-4252
▁graph	-4253
▁choose	-4254
iversity	-4255
▁consider	-4256
ey	-4257
ires	-4258
▁Đức	-4259
▁mount	-4260
▁report	-4261
▁threat	-4262
▁national	-4263
ays	-4264
▁Nào	-4265
▁Pal	-4266
▁lãng	-4267
▁lược	-4268
▁Kenya	-4269
▁miếng	-4270
▁expert	-4271
▁indeed	-4272
olf	-4273
ườn	-4274
▁af	-4275
come	-4276
▁Cậu	-4277
▁adm	-4278
▁cãi	-4279
▁flu	-4280
▁door	-4281
▁nhựa	-4282
▁cloud	-4283
▁radio	-4284
▁author	-4285
▁region	-4286
▁response	-4287
▁decisions	-4288
▁surprising	-4289
ims	-4290
ucle	-4291
▁Tod	-4292
▁lắp	-4293
▁tật	-4294
▁Even	-4295
▁conc	-4296
▁khấu	-4297
▁Đừng	-4298
▁solar	-4299
▁several	-4300
▁student	-4301
▁hospital	-4302
nces	-4303
ured	-4304
▁150	-4305
▁Cuộc	-4306
▁chặn	-4307
ressed	-4308
▁drugs	-4309
▁magic	-4310
▁forest	-4311
▁totally	-4312
▁Mà	-4313
▁ko	-4314
ander	-4315
▁giám	-4316
▁brains	-4317
▁connected	-4318
osh	-4319
▁Dr	-4320
▁ec	-4321
▁dam	-4322
▁rap	-4323
▁chào	-4324
▁fish	-4325
▁hung	-4326
▁thai	-4327
▁vari	-4328
▁ngoái	-4329
▁worse	-4330
▁societ	-4331
bs	-4332
cis	-4333
▁ce	-4334
▁lễ	-4335
▁Hoặc	-4336
▁Most	-4337
▁mừng	-4338
▁rain	-4339
▁remark	-4340
▁positive	-4341
éo	-4342
ald	-4343
▁Su	-4344
▁oh	-4345
oint	-4346
▁Ben	-4347
▁gra	-4348
▁yên	-4349
▁đòi	-4350
▁Fran	-4351
▁ngang	-4352
▁strateg	-4353
rof	-4354
oken	-4355
▁dri	-4356
▁fix	-4357
aking	-4358
▁diệt	-4359
▁fant	-4360
▁ther	-4361
▁thận	-4362
▁virt	-4363
▁wait	-4364
▁assum	-4365
▁huống	-4366
▁stick	-4367
▁immedi	-4368
▁nobody	-4369
▁prison	-4370
▁collabor	-4371
▁cản	-4372
▁dom	-4373
▁mây	-4374
▁mại	-4375
▁pin	-4376
▁Cũng	-4377
▁jobs	-4378
▁link	-4379
▁thao	-4380
▁carry	-4381
▁wants	-4382
▁Twitter	-4383
▁watching	-4384
dom	-4385
▁Per	-4386
aging	-4387
atory	-4388
verty	-4389
▁grew	-4390
▁mine	-4391
▁Chẳng	-4392
▁hương	-4393
▁shown	-4394
▁mental	-4395
▁chemical	-4396
cr	-4397
how	-4398
▁Ne	-4399
▁dị	-4400
▁sổ	-4401
▁2000	-4402
▁push	-4403
▁adult	-4404
▁influ	-4405
▁notice	-4406
▁allowed	-4407
▁training	-4408
oub	-4409
▁Ang	-4410
▁Ein	-4411
▁chép	-4412
▁corn	-4413
▁spir	-4414
▁đống	-4415
▁detect	-4416
▁return	-4417
▁perspect	-4418
icle	-4419
▁cát	-4420
▁syn	-4421
▁sợi	-4422
▁đùa	-4423
▁Thay	-4424
▁circ	-4425
▁skin	-4426
▁thấu	-4427
▁vong	-4428
aughter	-4429
▁bodies	-4430
▁infect	-4431
▁method	-4432
▁village	-4433
▁decision	-4434
▁including	-4435
oll	-4436
▁vú	-4437
▁kil	-4438
▁thù	-4439
▁tràn	-4440
▁nucle	-4441
▁trees	-4442
▁appear	-4443
▁anybody	-4444
▁discuss	-4445
▁objects	-4446
▁studies	-4447
▁Einstein	-4448
▁continue	-4449
▁position	-4450
▁suddenly	-4451
▁character	-4452
ớn	-4453
▁Ag	-4454
▁Je	-4455
soci	-4456
▁cặp	-4457
▁san	-4458
agine	-4459
▁Bang	-4460
▁cứng	-4461
▁fasc	-4462
▁movie	-4463
ologist	-4464
IT	-4465
ids	-4466
ief	-4467
▁CO	-4468
▁tỏ	-4469
▁ám	-4470
▁cám	-4471
▁hop	-4472
▁bank	-4473
▁farm	-4474
▁fill	-4475
▁named	-4476
▁largest	-4477
▁activity	-4478
▁buildings	-4479
urg	-4480
ocks	-4481
▁ign	-4482
▁mập	-4483
itary	-4484
ought	-4485
▁fine	-4486
▁nhằm	-4487
▁tuyên	-4488
▁eventually	-4489
cy	-4490
ener	-4491
inct	-4492
▁Nig	-4493
▁mực	-4494
▁Đối	-4495
itten	-4496
▁clos	-4497
▁wife	-4498
▁Nhiều	-4499
▁phiếu	-4500
▁separ	-4501
▁crisis	-4502
▁employ	-4503
▁temper	-4504
▁Washing	-4505
▁poverty	-4506
kn	-4507
ica	-4508
▁fa	-4509
erve	-4510
ring	-4511
ellow	-4512
▁truly	-4513
▁minute	-4514
èm	-4515
▁Hy	-4516
ffic	-4517
ping	-4518
▁Sec	-4519
▁deb	-4520
▁nan	-4521
▁swe	-4522
▁khía	-4523
▁luck	-4524
▁nhịp	-4525
▁súng	-4526
vision	-4527
▁forms	-4528
▁artist	-4529
▁income	-4530
▁killed	-4531
▁conditions	-4532
▁traditional	-4533
▁conversation	-4534
▁Dù	-4535
ners	-4536
▁ADN	-4537
▁Bar	-4538
▁amp	-4539
▁bắn	-4540
▁bối	-4541
▁sụp	-4542
▁chán	-4543
▁hiếm	-4544
▁mist	-4545
▁trào	-4546
istics	-4547
▁ended	-4548
▁plants	-4549
▁source	-4550
▁anymore	-4551
▁excited	-4552
▁specific	-4553
▁supposed	-4554
▁Washington	-4555
win	-4556
▁1,	-4557
▁La	-4558
rest	-4559
▁gas	-4560
ulate	-4561
▁capt	-4562
▁cong	-4563
▁tiêm	-4564
▁Today	-4565
▁speed	-4566
▁George	-4567
▁products	-4568
▁signific	-4569
▁extremely	-4570
ael	-4571
for	-4572
▁hà	-4573
▁tá	-4574
cape	-4575
▁Any	-4576
▁kêu	-4577
▁Cong	-4578
▁clin	-4579
▁pack	-4580
▁labor	-4581
osphere	-4582
▁effort	-4583
▁robots	-4584
▁respond	-4585
▁politics	-4586
▁solutions	-4587
amm	-4588
▁Fl	-4589
▁Mẹ	-4590
cise	-4591
vert	-4592
▁hig	-4593
▁móc	-4594
▁ngọn	-4595
▁accept	-4596
▁finding	-4597
▁provide	-4598
ậc	-4599
sect	-4600
▁Isl	-4601
▁lừa	-4602
▁Rich	-4603
▁cook	-4604
▁goal	-4605
▁kept	-4606
▁role	-4607
▁alive	-4608
▁finan	-4609
▁khung	-4610
▁sorts	-4611
ossible	-4612
▁allows	-4613
▁disapp	-4614
▁points	-4615
▁skills	-4616
▁college	-4617
▁exciting	-4618
joy	-4619
▁óc	-4620
▁dối	-4621
eless	-4622
▁Bằng	-4623
▁Like	-4624
▁Pháp	-4625
▁liền	-4626
▁Which	-4627
▁cases	-4628
▁earli	-4629
▁hoàng	-4630
▁triết	-4631
▁African	-4632
▁complic	-4633
go	-4634
▁gỗ	-4635
▁hè	-4636
▁béo	-4637
useum	-4638
▁higher	-4639
▁freedom	-4640
▁publish	-4641
▁reading	-4642
▁listening	-4643
▁societies	-4644
▁extraordinary	-4645
ua	-4646
ror	-4647
ượu	-4648
▁Ma	-4649
emic	-4650
▁côn	-4651
▁cục	-4652
▁doc	-4653
▁jud	-4654
▁đua	-4655
▁surg	-4656
▁wild	-4657
▁above	-4658
▁mathem	-4659
▁series	-4660
▁Charles	-4661
▁service	-4662
▁thousand	-4663
ớp	-4664
▁Big	-4665
▁ann	-4666
▁mưa	-4667
▁thờ	-4668
▁Your	-4669
▁late	-4670
▁doctor	-4671
▁princi	-4672
▁weight	-4673
▁University	-4674
ze	-4675
pan	-4676
ulf	-4677
▁Về	-4678
▁kí	-4679
alia	-4680
▁Dar	-4681
▁cat	-4682
▁Phải	-4683
▁purp	-4684
▁stra	-4685
▁afford	-4686
▁determ	-4687
▁fascin	-4688
▁models	-4689
▁strugg	-4690
▁families	-4691
▁successful	-4692
egr	-4693
▁bổ	-4694
▁tí	-4695
▁Liên	-4696
▁Thom	-4697
▁căng	-4698
▁khảo	-4699
▁thầy	-4700
▁bunch	-4701
▁loved	-4702
▁smell	-4703
▁calcul	-4704
▁Imagine	-4705
▁fundamental	-4706
aly	-4707
▁Ger	-4708
▁bal	-4709
▁bậc	-4710
▁hối	-4711
▁mạc	-4712
▁sus	-4713
▁đập	-4714
▁Thái	-4715
▁quot	-4716
▁thoải	-4717
▁policy	-4718
oun	-4719
▁Gu	-4720
▁lũ	-4721
▁nấm	-4722
▁thr	-4723
cules	-4724
▁Phần	-4725
▁lands	-4726
▁concer	-4727
▁ngưỡng	-4728
▁slight	-4729
▁Western	-4730
▁capital	-4731
▁neurons	-4732
▁anywhere	-4733
▁machines	-4734
▁expensive	-4735
▁impossible	-4736
ha	-4737
▁mỏ	-4738
hone	-4739
▁MIT	-4740
▁Wik	-4741
▁Adam	-4742
▁chốt	-4743
▁distrib	-4744
▁familiar	-4745
▁Americans	-4746
▁pa	-4747
▁ác	-4748
enced	-4749
▁chối	-4750
▁effic	-4751
▁enjoy	-4752
▁colleag	-4753
▁critical	-4754
▁cry	-4755
▁lad	-4756
▁mét	-4757
▁sou	-4758
▁táo	-4759
▁huấn	-4760
▁rượu	-4761
▁funny	-4762
▁lower	-4763
▁thuyền	-4764
▁plastic	-4765
▁straight	-4766
gr	-4767
off	-4768
ging	-4769
erson	-4770
ounds	-4771
▁rand	-4772
▁swim	-4773
▁demon	-4774
▁types	-4775
▁larger	-4776
▁Francis	-4777
▁doctors	-4778
▁genetic	-4779
▁somewhere	-4780
igr	-4781
unk	-4782
▁Mus	-4783
▁hỗn	-4784
aries	-4785
▁2008	-4786
▁City	-4787
▁cold	-4788
▁hack	-4789
▁roll	-4790
▁trầm	-4791
▁upon	-4792
▁nhũng	-4793
▁actual	-4794
▁famous	-4795
▁pieces	-4796
▁continu	-4797
▁reflect	-4798
▁usually	-4799
▁patterns	-4800
▁recognize	-4801
30	-4802
▁El	-4803
▁Lu	-4804
▁Me	-4805
▁Sẽ	-4806
ript	-4807
▁Tom	-4808
▁mir	-4809
▁rid	-4810
▁ghét	-4811
▁jump	-4812
▁vâng	-4813
▁board	-4814
▁glass	-4815
▁raise	-4816
▁talks	-4817
▁philos	-4818
▁square	-4819
▁deliver	-4820
▁respect	-4821
▁becoming	-4822
▁treatment	-4823
▁mì	-4824
back	-4825
word	-4826
▁Jul	-4827
▁earth	-4828
▁Michael	-4829
▁explore	-4830
▁greater	-4831
▁seconds	-4832
▁perspective	-4833
PS	-4834
oid	-4835
▁ức	-4836
ogen	-4837
▁bảy	-4838
attle	-4839
urban	-4840
▁Phil	-4841
▁magn	-4842
▁Those	-4843
ustrial	-4844
▁launch	-4845
▁citizens	-4846
uit	-4847
▁45	-4848
▁et	-4849
mend	-4850
▁biện	-4851
▁site	-4852
▁multi	-4853
▁khuyến	-4854
▁rights	-4855
▁saving	-4856
▁somehow	-4857
▁teaching	-4858
ami	-4859
▁ly	-4860
▁hyd	-4861
▁Thuỵ	-4862
▁rise	-4863
▁tiss	-4864
▁genes	-4865
▁shark	-4866
akistan	-4867
rection	-4868
▁willing	-4869
▁demonstr	-4870
▁effective	-4871
▁molecules	-4872
ray	-4873
apes	-4874
ball	-4875
▁nút	-4876
▁đắt	-4877
▁cháy	-4878
▁legs	-4879
▁truy	-4880
▁tỉnh	-4881
uments	-4882
▁beauty	-4883
▁networ	-4884
▁random	-4885
▁spirit	-4886
▁smaller	-4887
▁institut	-4888
▁complicated	-4889
key	-4890
yle	-4891
▁cỏ	-4892
▁Hôm	-4893
▁eth	-4894
▁ran	-4895
▁sam	-4896
ently	-4897
▁ngón	-4898
▁port	-4899
▁trib	-4900
▁yeah	-4901
▁female	-4902
▁shared	-4903
▁version	-4904
▁written	-4905
▁painting	-4906
▁ạ	-4907
▁35	-4908
▁Ex	-4909
amic	-4910
▁hắn	-4911
▁hồn	-4912
epend	-4913
▁Mark	-4914
▁page	-4915
▁phán	-4916
▁store	-4917
ologists	-4918
▁contrib	-4919
▁security	-4920
ortunately	-4921
▁financial	-4922
▁increasing	-4923
▁En	-4924
fact	-4925
▁thọ	-4926
▁gene	-4927
▁hous	-4928
▁uses	-4929
▁xứng	-4930
▁Somet	-4931
▁optim	-4932
▁throw	-4933
▁Thomas	-4934
▁Pakistan	-4935
▁discover	-4936
▁standing	-4937
na	-4938
xi	-4939
▁Two	-4940
▁mạo	-4941
▁prep	-4942
▁sect	-4943
▁costs	-4944
itation	-4945
▁associ	-4946
▁babies	-4947
▁decades	-4948
▁healthy	-4949
▁increase	-4950
▁organizations	-4951
lebr	-4952
▁Sao	-4953
▁sal	-4954
▁sym	-4955
▁túc	-4956
iling	-4957
iring	-4958
▁Nhìn	-4959
▁star	-4960
▁corru	-4961
▁thiểu	-4962
▁trick	-4963
▁levels	-4964
▁achieve	-4965
▁express	-4966
▁bacteria	-4967
▁humanity	-4968
▁connection	-4969
▁organization	-4970
ợt	-4971
iced	-4972
time	-4973
▁gọn	-4974
▁mũi	-4975
▁săn	-4976
▁thả	-4977
▁essentially	-4978
za	-4979
▁App	-4980
▁GPS	-4981
▁cụt	-4982
▁xoá	-4983
acity	-4984
ining	-4985
orrow	-4986
prene	-4987
thern	-4988
▁card	-4989
▁giận	-4990
▁khát	-4991
▁Frank	-4992
▁bread	-4993
▁older	-4994
▁trứng	-4995
reprene	-4996
▁beings	-4997
▁please	-4998
▁dangerous	-4999
20	-5000
▁à	-5001
▁cỗ	-5002
aign	-5003
verse	-5004
▁bông	-5005
▁dinh	-5006
▁phen	-5007
▁pros	-5008
▁forth	-5009
▁thạch	-5010
agement	-5011
▁speech	-5012
▁practice	-5013
oh	-5014
▁PM	-5015
ffee	-5016
itor	-5017
raft	-5018
▁Hầu	-5019
▁Mặt	-5020
▁alg	-5021
▁inh	-5022
▁mai	-5023
▁mix	-5024
ulner	-5025
▁desp	-5026
▁final	-5027
▁khiếp	-5028
▁remind	-5029
atically	-5030
▁remarkable	-5031
▁throughout	-5032
▁engineering	-5033
▁immediately	-5034
RI	-5035
sc	-5036
▁dày	-5037
▁rủi	-5038
▁tia	-5039
ables	-5040
▁From	-5041
▁hero	-5042
▁thuê	-5043
▁thiệp	-5044
▁comfort	-5045
▁surgery	-5046
▁creativity	-5047
▁electricity	-5048
▁architecture	-5049
oty	-5050
owd	-5051
▁nấu	-5052
▁đắn	-5053
istry	-5054
▁cust	-5055
▁xong	-5056
cience	-5057
▁Green	-5058
▁belief	-5059
▁mobile	-5060
▁biology	-5061
▁fantastic	-5062
ef	-5063
arm	-5064
▁Gl	-5065
▁NA	-5066
▁mò	-5067
▁mộ	-5068
▁Đã	-5069
lant	-5070
oses	-5071
▁cột	-5072
▁fit	-5073
▁lộn	-5074
▁binh	-5075
▁hước	-5076
▁teen	-5077
ission	-5078
▁thánh	-5079
▁nation	-5080
▁environmental	-5081
ùi	-5082
▁kẹ	-5083
berg	-5084
oper	-5085
uced	-5086
▁His	-5087
▁bãi	-5088
▁bột	-5089
▁dad	-5090
▁pan	-5091
itude	-5092
▁Cent	-5093
▁hole	-5094
▁park	-5095
▁scan	-5096
▁cover	-5097
▁giành	-5098
▁Robert	-5099
▁honest	-5100
▁police	-5101
▁evolved	-5102
▁mention	-5103
▁electron	-5104
▁standard	-5105
▁television	-5106
ola	-5107
ướt	-5108
▁mal	-5109
▁ngũ	-5110
▁tóc	-5111
▁đốc	-5112
▁đốt	-5113
▁Haiti	-5114
▁chair	-5115
▁diagn	-5116
▁match	-5117
▁offic	-5118
▁stars	-5119
▁urban	-5120
ception	-5121
▁encour	-5122
▁truyện	-5123
▁Another	-5124
▁clearly	-5125
▁earlier	-5126
▁propert	-5127
▁following	-5128
▁interview	-5129
▁production	-5130
ỗng	-5131
resh	-5132
sequ	-5133
▁Sim	-5134
▁phó	-5135
▁xưa	-5136
▁đài	-5137
▁2010	-5138
▁chẩn	-5139
▁răng	-5140
▁check	-5141
▁10,000	-5142
▁walked	-5143
▁address	-5144
▁services	-5145
▁challenges	-5146
▁international	-5147
gen	-5148
iệng	-5149
▁dọc	-5150
▁mát	-5151
▁ord	-5152
▁apply	-5153
▁price	-5154
▁spect	-5155
▁thuần	-5156
▁trade	-5157
▁celebr	-5158
▁strange	-5159
▁waiting	-5160
▁75	-5161
rian	-5162
▁Los	-5163
▁bạc	-5164
▁nut	-5165
▁veh	-5166
▁rưỡi	-5167
▁sequ	-5168
▁vict	-5169
▁Austr	-5170
▁huyết	-5171
▁oppos	-5172
▁career	-5173
▁helped	-5174
▁unique	-5175
▁useful	-5176
▁Nigeria	-5177
▁massive	-5178
▁private	-5179
▁military	-5180
▁condition	-5181
▁emotional	-5182
▁understood	-5183
▁nơ	-5184
ises	-5185
▁tur	-5186
board	-5187
rench	-5188
▁miền	-5189
▁race	-5190
▁chừng	-5191
▁German	-5192
▁popular	-5193
▁entreprene	-5194
▁performance	-5195
ps	-5196
ýt	-5197
udd	-5198
▁Lý	-5199
reet	-5200
▁đĩa	-5201
▁Harv	-5202
▁tặng	-5203
though	-5204
▁autom	-5205
▁gương	-5206
▁whose	-5207
imately	-5208
▁coffee	-5209
▁sexual	-5210
▁himself	-5211
▁surround	-5212
▁intelligence	-5213
fl	-5214
▁Di	-5215
▁bó	-5216
▁ấm	-5217
▁ném	-5218
▁rắc	-5219
▁xâm	-5220
arian	-5221
▁hiến	-5222
▁nhấn	-5223
▁task	-5224
▁James	-5225
▁Indian	-5226
▁histor	-5227
▁spaces	-5228
▁choices	-5229
▁prevent	-5230
▁phenomen	-5231
▁classroom	-5232
▁therefore	-5233
▁experiments	-5234
▁neighborhood	-5235
bu	-5236
aff	-5237
▁2.	-5238
▁cốt	-5239
▁nhỉ	-5240
▁Đôi	-5241
▁Talk	-5242
▁fold	-5243
▁ngài	-5244
▁vườn	-5245
ashion	-5246
▁medicine	-5247
▁slightly	-5248
▁speaking	-5249
edd	-5250
▁ir	-5251
▁xạ	-5252
ancy	-5253
imin	-5254
rees	-5255
wood	-5256
▁Ban	-5257
▁Ber	-5258
▁Sam	-5259
▁dog	-5260
▁van	-5261
ening	-5262
▁chai	-5263
▁khóc	-5264
▁trộn	-5265
▁lines	-5266
▁simpl	-5267
▁weren	-5268
▁decide	-5269
▁values	-5270
▁Richard	-5271
▁creates	-5272
af	-5273
the	-5274
▁Tổ	-5275
▁lẻ	-5276
▁Her	-5277
▁etc	-5278
▁gay	-5279
▁hus	-5280
▁quê	-5281
▁Mart	-5282
▁male	-5283
▁micr	-5284
▁dance	-5285
▁party	-5286
▁worry	-5287
▁forget	-5288
▁vulner	-5289
▁wealth	-5290
▁central	-5291
▁physics	-5292
▁National	-5293
cope	-5294
iest	-5295
▁Lan	-5296
▁cẩn	-5297
▁dai	-5298
▁tuỳ	-5299
▁wood	-5300
▁destro	-5301
▁highly	-5302
▁insect	-5303
▁Harvard	-5304
▁meeting	-5305
▁direction	-5306
▁complexity	-5307
ago	-5308
ees	-5309
iếc	-5310
urd	-5311
▁Gh	-5312
▁Aud	-5313
▁Bro	-5314
▁nho	-5315
▁Mars	-5316
▁coun	-5317
▁dính	-5318
▁hall	-5319
▁motiv	-5320
▁lights	-5321
▁select	-5322
▁vaccine	-5323
▁networks	-5324
▁Cơ	-5325
iles	-5326
isms	-5327
▁rào	-5328
▁đớn	-5329
▁shop	-5330
▁miệng	-5331
▁photo	-5332
▁eating	-5333
▁summer	-5334
▁focused	-5335
▁nuclear	-5336
▁purpose	-5337
▁daughter	-5338
▁instance	-5339
▁23	-5340
▁Mr	-5341
ceed	-5342
load	-5343
rast	-5344
▁bắc	-5345
▁ste	-5346
▁tuệ	-5347
▁tạm	-5348
eases	-5349
▁thẩm	-5350
▁drink	-5351
▁answers	-5352
▁campaign	-5353
▁cultural	-5354
▁invented	-5355
▁À	-5356
oad	-5357
reg	-5358
aced	-5359
▁Web	-5360
▁hẹn	-5361
▁đón	-5362
ystem	-5363
▁miêu	-5364
▁shot	-5365
icians	-5366
▁ahead	-5367
▁catch	-5368
▁enorm	-5369
▁attract	-5370
▁streets	-5371
▁survive	-5372
▁profound	-5373
▁spending	-5374
▁transport	-5375
▁differences	-5376
▁temperature	-5377
olve	-5378
▁cốc	-5379
▁inj	-5380
▁mẩu	-5381
order	-5382
▁Giáo	-5383
▁boys	-5384
▁laws	-5385
▁lỏng	-5386
▁ngầm	-5387
▁phổi	-5388
▁tree	-5389
▁birds	-5390
▁displ	-5391
▁decade	-5392
▁states	-5393
▁target	-5394
▁driving	-5395
my	-5396
▁gà	-5397
▁tò	-5398
▁đáy	-5399
▁Dere	-5400
▁base	-5401
▁nhạy	-5402
▁Great	-5403
▁dying	-5404
▁occur	-5405
▁worst	-5406
▁Middle	-5407
▁custom	-5408
▁greatest	-5409
rel	-5410
▁Bu	-5411
used	-5412
▁194	-5413
▁đậu	-5414
apped	-5415
ended	-5416
▁Many	-5417
▁Take	-5418
▁cand	-5419
▁gent	-5420
▁hiệp	-5421
▁reve	-5422
▁symb	-5423
▁term	-5424
atives	-5425
▁adapt	-5426
▁analy	-5427
▁range	-5428
▁vuông	-5429
▁brings	-5430
▁shares	-5431
▁artists	-5432
▁various	-5433
▁identity	-5434
▁inspired	-5435
▁password	-5436
ốm	-5437
ams	-5438
azz	-5439
▁99	-5440
▁ơi	-5441
ches	-5442
cing	-5443
imer	-5444
raid	-5445
▁lão	-5446
▁sky	-5447
▁Chắc	-5448
▁TEDx	-5449
▁beat	-5450
▁bạch	-5451
▁husb	-5452
▁hạng	-5453
▁instr	-5454
▁laugh	-5455
▁breast	-5456
▁causes	-5457
▁thoảng	-5458
▁diseases	-5459
ios	-5460
▁Cả	-5461
▁Min	-5462
orith	-5463
▁Alex	-5464
▁Thời	-5465
▁town	-5466
▁trôi	-5467
iation	-5468
▁Times	-5469
▁cường	-5470
▁gradu	-5471
▁liber	-5472
▁afraid	-5473
▁terrible	-5474
iers	-5475
odes	-5476
▁Cực	-5477
▁mut	-5478
▁tây	-5479
▁wis	-5480
▁2007	-5481
▁Have	-5482
▁kiên	-5483
▁quái	-5484
thetic	-5485
▁floor	-5486
▁Chuyện	-5487
▁active	-5488
▁dimens	-5489
▁resist	-5490
▁noticed	-5491
▁document	-5492
▁communicate	-5493
▁Mĩ	-5494
▁rồ	-5495
athy	-5496
▁dàn	-5497
▁fat	-5498
▁thợ	-5499
▁hoại	-5500
▁lapt	-5501
▁weap	-5502
▁Giống	-5503
▁Obama	-5504
▁Smith	-5505
▁Think	-5506
▁frame	-5507
▁flying	-5508
▁iPhone	-5509
▁consequ	-5510
▁algorith	-5511
▁directly	-5512
▁published	-5513
▁scientist	-5514
iot	-5515
here	-5516
orry	-5517
uted	-5518
wise	-5519
▁Lib	-5520
▁bub	-5521
anced	-5522
▁Thậm	-5523
▁dram	-5524
▁fing	-5525
▁hằng	-5526
▁loss	-5527
▁paid	-5528
▁quán	-5529
▁rule	-5530
▁trắc	-5531
▁vast	-5532
uction	-5533
▁Instead	-5534
▁capacity	-5535
▁mathemat	-5536
▁sustainable	-5537
ẻo	-5538
ole	-5539
ager	-5540
▁Gab	-5541
▁Lad	-5542
▁Nor	-5543
▁hứa	-5544
▁ing	-5545
▁leo	-5546
▁pen	-5547
▁tóm	-5548
▁NASA	-5549
▁chấn	-5550
▁gala	-5551
▁trạm	-5552
▁nướng	-5553
▁twice	-5554
▁integr	-5555
▁knowing	-5556
▁missing	-5557
▁traffic	-5558
▁strength	-5559
▁experiences	-5560
lyn	-5561
▁ax	-5562
cule	-5563
▁lây	-5564
▁ngã	-5565
▁sad	-5566
▁unc	-5567
▁giày	-5568
▁quét	-5569
▁zero	-5570
▁đảng	-5571
▁Paris	-5572
▁Steve	-5573
▁Wikip	-5574
▁Darwin	-5575
▁commer	-5576
▁giường	-5577
▁supply	-5578
▁journal	-5579
▁trouble	-5580
▁relative	-5581
▁leadership	-5582
add	-5583
ngu	-5584
rom	-5585
vey	-5586
▁ut	-5587
ened	-5588
▁Fin	-5589
▁Nob	-5590
▁atm	-5591
▁nét	-5592
itted	-5593
▁ngựa	-5594
elling	-5595
▁applic	-5596
▁closer	-5597
▁compon	-5598
▁mostly	-5599
▁members	-5600
▁stopped	-5601
▁independ	-5602
▁possibly	-5603
▁institutions	-5604
ato	-5605
▁Ah	-5606
▁Te	-5607
▁rô	-5608
▁Hey	-5609
▁aid	-5610
▁khô	-5611
▁đeo	-5612
idden	-5613
▁Kinh	-5614
▁Russ	-5615
▁doub	-5616
▁forg	-5617
▁gift	-5618
▁join	-5619
▁basis	-5620
▁below	-5621
▁chăng	-5622
▁click	-5623
▁rough	-5624
▁divers	-5625
▁devices	-5626
▁emotion	-5627
gy	-5628
▁Ok	-5629
empt	-5630
▁Mal	-5631
▁lưng	-5632
▁narr	-5633
▁tens	-5634
aining	-5635
▁broad	-5636
▁Martin	-5637
▁autism	-5638
rastruct	-5639
▁foreign	-5640
▁controll	-5641
▁Wikipedia	-5642
▁colleagues	-5643
▁conference	-5644
ẫm	-5645
ino	-5646
men	-5647
▁II	-5648
▁mẻ	-5649
amin	-5650
izes	-5651
▁Lần	-5652
▁den	-5653
▁dyn	-5654
▁mãn	-5655
▁vắc	-5656
▁Cùng	-5657
▁lack	-5658
ording	-5659
▁tuyết	-5660
▁wheel	-5661
▁dollar	-5662
▁forces	-5663
▁photos	-5664
▁reduce	-5665
▁moments	-5666
▁molecule	-5667
▁philosoph	-5668
▁corruption	-5669
▁opportunities	-5670
fr	-5671
ela	-5672
▁22	-5673
urch	-5674
▁Kết	-5675
▁pig	-5676
▁Đến	-5677
▁đếm	-5678
▁King	-5679
▁tiếc	-5680
▁tĩnh	-5681
▁airpl	-5682
▁micro	-5683
▁novel	-5684
▁Second	-5685
▁switch	-5686
▁tissue	-5687
▁sharing	-5688
▁produced	-5689
▁Francisco	-5690
▁communication	-5691
▁Did	-5692
▁Jer	-5693
▁Res	-5694
▁kèm	-5695
▁mèo	-5696
▁Amaz	-5697
▁Nhân	-5698
▁note	-5699
ession	-5700
▁Derek	-5701
▁Would	-5702
▁feels	-5703
▁played	-5704
▁hearing	-5705
▁helping	-5706
▁bringing	-5707
ta	-5708
irt	-5709
▁CE	-5710
ears	-5711
▁Jon	-5712
▁amb	-5713
▁dán	-5714
▁ver	-5715
othes	-5716
ufact	-5717
▁appl	-5718
▁bụng	-5719
▁fort	-5720
▁lung	-5721
▁ninh	-5722
▁agree	-5723
▁brand	-5724
▁crowd	-5725
▁pengu	-5726
▁trăng	-5727
▁passed	-5728
▁fashion	-5729
▁mission	-5730
▁original	-5731
▁programs	-5732
▁infrastruct	-5733
ẫy	-5734
ụt	-5735
och	-5736
▁dò	-5737
▁hô	-5738
vant	-5739
▁Sun	-5740
▁gun	-5741
▁gói	-5742
▁hyp	-5743
▁joy	-5744
▁suc	-5745
▁tám	-5746
▁Khán	-5747
▁Park	-5748
▁poet	-5749
ricult	-5750
▁Again	-5751
▁nearly	-5752
▁volunt	-5753
ervation	-5754
▁British	-5755
▁opposite	-5756
PA	-5757
mon	-5758
▁dã	-5759
icon	-5760
vere	-5761
▁Bất	-5762
▁ham	-5763
▁lăn	-5764
▁org	-5765
attan	-5766
▁2009	-5767
▁YouT	-5768
▁hỏng	-5769
▁rare	-5770
▁seed	-5771
▁stem	-5772
icking	-5773
▁Nobel	-5774
▁accur	-5775
▁block	-5776
▁faces	-5777
▁visit	-5778
▁oxygen	-5779
▁addition	-5780
▁studying	-5781
▁significant	-5782
itz	-5783
toc	-5784
▁Na	-5785
cell	-5786
▁Art	-5787
▁Des	-5788
▁quà	-5789
▁tom	-5790
tocin	-5791
▁Jack	-5792
▁Stan	-5793
▁puzz	-5794
▁shift	-5795
▁khuyên	-5796
▁YouTube	-5797
▁degrees	-5798
▁husband	-5799
▁insight	-5800
▁emotions	-5801
▁religion	-5802
▁structures	-5803
▁consciousness	-5804
▁relationships	-5805
ked	-5806
lim	-5807
▁gỡ	-5808
▁hư	-5809
▁ép	-5810
aria	-5811
ason	-5812
▁exh	-5813
▁fuel	-5814
▁giấu	-5815
▁tiệc	-5816
▁trần	-5817
▁vinh	-5818
ocking	-5819
▁recon	-5820
▁French	-5821
▁therap	-5822
▁correct	-5823
▁manufact	-5824
▁importantly	-5825
▁–	-5826
ota	-5827
▁mờ	-5828
iger	-5829
osqu	-5830
▁Bab	-5831
▁Eve	-5832
▁Lat	-5833
▁hom	-5834
▁lôi	-5835
▁Mont	-5836
▁Nghệ	-5837
▁thói	-5838
▁toile	-5839
▁anyway	-5840
▁bought	-5841
▁forever	-5842
▁necessary	-5843
me	-5844
ùm	-5845
▁Ú	-5846
▁cự	-5847
▁lề	-5848
aker	-5849
▁Hoá	-5850
▁Ros	-5851
▁cru	-5852
▁cụm	-5853
▁dứt	-5854
▁Manh	-5855
▁hair	-5856
▁lệnh	-5857
▁Trans	-5858
▁fully	-5859
▁lucky	-5860
▁total	-5861
▁Street	-5862
▁advant	-5863
▁broken	-5864
▁tremend	-5865
▁Actually	-5866
▁benefits	-5867
▁atmosphere	-5868
ka	-5869
ils	-5870
zen	-5871
▁36	-5872
▁gã	-5873
▁tị	-5874
asse	-5875
edic	-5876
wide	-5877
▁Hội	-5878
▁Tal	-5879
▁heo	-5880
▁lâm	-5881
icles	-5882
riage	-5883
▁chìm	-5884
▁kênh	-5885
▁ngon	-5886
▁trốn	-5887
▁vote	-5888
▁mouth	-5889
▁phiền	-5890
artment	-5891
▁consid	-5892
▁easily	-5893
▁wisdom	-5894
▁failure	-5895
▁require	-5896
▁although	-5897
▁entirely	-5898
▁differently	-5899
▁dư	-5900
▁va	-5901
▁Nga	-5902
▁Tor	-5903
▁bão	-5904
▁cla	-5905
▁lãm	-5906
▁lặn	-5907
▁tor	-5908
▁1990	-5909
▁cogn	-5910
▁meas	-5911
▁tung	-5912
▁valu	-5913
▁wide	-5914
▁Carol	-5915
▁accom	-5916
▁magaz	-5917
▁parad	-5918
▁batter	-5919
▁lesson	-5920
▁museum	-5921
▁Angeles	-5922
▁restaur	-5923
▁argument	-5924
▁Manhattan	-5925
▁background	-5926
▁imagination	-5927
ij	-5928
▁ư	-5929
iff	-5930
van	-5931
▁Cứ	-5932
▁gõ	-5933
mber	-5934
▁Leg	-5935
▁Mon	-5936
▁vot	-5937
▁đực	-5938
right	-5939
▁Over	-5940
▁burn	-5941
▁buôn	-5942
▁heat	-5943
▁khao	-5944
▁ngọt	-5945
▁reco	-5946
▁1,000	-5947
osystem	-5948
▁brilli	-5949
▁colors	-5950
▁corner	-5951
▁events	-5952
▁studio	-5953
▁symbol	-5954
▁ancient	-5955
▁turning	-5956
▁Audience	-5957
▁enormous	-5958
▁majority	-5959
▁industrial	-5960
▁US	-5961
onom	-5962
▁Mặc	-5963
▁giơ	-5964
▁pet	-5965
▁Good	-5966
heimer	-5967
isible	-5968
▁cheap	-5969
▁chick	-5970
▁equal	-5971
ography	-5972
▁cooper	-5973
▁deeply	-5974
▁metaph	-5975
▁window	-5976
▁However	-5977
▁leading	-5978
▁matters	-5979
▁statistics	-5980
edy	-5981
mar	-5982
▁Bo	-5983
▁Dĩ	-5984
▁Úc	-5985
ysis	-5986
▁Alz	-5987
▁Gia	-5988
▁Vài	-5989
▁cất	-5990
▁dao	-5991
▁tax	-5992
▁veg	-5993
agers	-5994
apers	-5995
based	-5996
itely	-5997
▁2005	-5998
▁gián	-5999
▁held	-6000
▁mệnh	-6001
▁sick	-6002
▁Điển	-6003
encies	-6004
▁crime	-6005
▁grown	-6006
▁khoan	-6007
▁lunch	-6008
▁newsp	-6009
▁rapid	-6010
▁thăng	-6011
▁Amazon	-6012
▁demand	-6013
▁engage	-6014
▁unlike	-6015
▁describe	-6016
▁mountain	-6017
▁Alzheimer	-6018
▁ecosystem	-6019
▁responsible	-6020
mm	-6021
ợn	-6022
equ	-6023
▁hố	-6024
reci	-6025
▁cúm	-6026
▁quí	-6027
▁sàn	-6028
raham	-6029
▁More	-6030
▁core	-6031
▁thuế	-6032
▁tour	-6033
▁Peter	-6034
▁shoot	-6035
▁Trường	-6036
▁agricult	-6037
▁oxytocin	-6038
▁diversity	-6039
▁landscape	-6040
amb	-6041
ibr	-6042
ius	-6043
▁27	-6044
▁Rw	-6045
hand	-6046
▁bud	-6047
▁hàm	-6048
esome	-6049
quang	-6050
rogen	-6051
ulous	-6052
▁Eric	-6053
▁bone	-6054
▁mamm	-6055
▁thổi	-6056
▁trưa	-6057
ifying	-6058
pected	-6059
▁School	-6060
▁grandm	-6061
ulations	-6062
▁workers	-6063
▁received	-6064
▁suffering	-6065
▁fascinating	-6066
▁governments	-6067
▁infrastructure	-6068
alt	-6069
irl	-6070
leg	-6071
ula	-6072
▁xí	-6073
oran	-6074
vest	-6075
▁bul	-6076
▁bận	-6077
▁bếp	-6078
▁fab	-6079
▁sữa	-6080
phone	-6081
▁dáng	-6082
▁golf	-6083
▁none	-6084
▁rout	-6085
▁xinh	-6086
itable	-6087
▁sport	-6088
▁dreams	-6089
▁expand	-6090
▁flight	-6091
▁contact	-6092
▁gentlem	-6093
hy	-6094
zy	-6095
oot	-6096
tle	-6097
prod	-6098
▁Bas	-6099
▁Haw	-6100
▁Hig	-6101
▁Les	-6102
▁Rập	-6103
▁See	-6104
▁Tur	-6105
▁bag	-6106
▁ble	-6107
▁lõi	-6108
arter	-6109
oston	-6110
▁Once	-6111
▁bees	-6112
▁bùng	-6113
▁mort	-6114
▁tươi	-6115
▁mosqu	-6116
▁offer	-6117
▁users	-6118
▁breath	-6119
▁gotten	-6120
▁physic	-6121
▁reward	-6122
▁sector	-6123
▁benefit	-6124
▁extreme	-6125
▁illness	-6126
▁Japanese	-6127
▁fighting	-6128
▁Sometimes	-6129
▁interaction	-6130
▁researchers	-6131
atr	-6132
ượn	-6133
emen	-6134
mark	-6135
term	-6136
▁600	-6137
▁Gần	-6138
▁Học	-6139
▁bụi	-6140
▁làn	-6141
▁mid	-6142
▁nor	-6143
▁tân	-6144
icago	-6145
water	-6146
▁Hans	-6147
▁dược	-6148
▁embr	-6149
▁repe	-6150
▁bound	-6151
▁climb	-6152
▁proud	-6153
▁shoes	-6154
▁trend	-6155
▁altern	-6156
▁Chicago	-6157
▁destroy	-6158
▁effects	-6159
▁justice	-6160
▁regular	-6161
▁shouldn	-6162
▁pressure	-6163
▁strategy	-6164
▁Australia	-6165
▁marketing	-6166
▁responsibility	-6167
mp	-6168
gar	-6169
iel	-6170
▁Mu	-6171
ropy	-6172
thes	-6173
▁Bao	-6174
▁Joe	-6175
▁cấm	-6176
▁khỉ	-6177
▁nảy	-6178
▁rét	-6179
▁1970	-6180
▁Tiếp	-6181
▁epid	-6182
▁host	-6183
▁ngắm	-6184
▁pair	-6185
▁quát	-6186
▁ship	-6187
▁spot	-6188
▁sung	-6189
orders	-6190
▁legal	-6191
▁tough	-6192
▁Boston	-6193
▁adults	-6194
▁remote	-6195
▁seemed	-6196
▁balance	-6197
▁despite	-6198
▁European	-6199
▁compared	-6200
▁Everybody	-6201
▁childhood	-6202
▁creatures	-6203
ộm	-6204
ida	-6205
imp	-6206
uge	-6207
val	-6208
otic	-6209
▁MRI	-6210
▁egg	-6211
▁hải	-6212
▁phì	-6213
▁sưu	-6214
▁thẻ	-6215
▁tuý	-6216
▁tắm	-6217
▁Asia	-6218
▁pian	-6219
▁wear	-6220
ancing	-6221
▁logic	-6222
▁Palest	-6223
▁attempt	-6224
▁definition	-6225
ads	-6226
ếch	-6227
▁Ac	-6228
▁Cr	-6229
▁tủ	-6230
ucks	-6231
▁250	-6232
▁tal	-6233
▁Swed	-6234
▁hate	-6235
▁liều	-6236
ellect	-6237
▁Charl	-6238
▁habit	-6239
▁lường	-6240
▁prior	-6241
▁quant	-6242
▁dinner	-6243
▁laptop	-6244
▁meters	-6245
▁voices	-6246
▁perfectly	-6247
▁collective	-6248
ax	-6249
eph	-6250
▁ưa	-6251
rain	-6252
▁Mor	-6253
▁Pro	-6254
▁Sil	-6255
▁Wow	-6256
▁tum	-6257
athan	-6258
▁Tony	-6259
▁cưới	-6260
▁defe	-6261
▁exer	-6262
▁heav	-6263
▁muỗi	-6264
▁Willi	-6265
▁chann	-6266
▁faith	-6267
▁shock	-6268
▁thịnh	-6269
▁veget	-6270
▁Khoảng	-6271
▁Thanks	-6272
▁bridge	-6273
▁raised	-6274
ographic	-6275
▁element	-6276
▁farmers	-6277
▁illustr	-6278
▁managed	-6279
▁married	-6280
▁volunte	-6281
▁internet	-6282
ih	-6283
▁26	-6284
enty	-6285
rict	-6286
rupt	-6287
▁Bài	-6288
▁Bức	-6289
▁Mic	-6290
▁alt	-6291
▁rãi	-6292
▁scr	-6293
▁sơn	-6294
ropri	-6295
▁Sing	-6296
▁chúa	-6297
▁khôn	-6298
▁lướt	-6299
▁plat	-6300
▁tast	-6301
▁tháp	-6302
▁Apple	-6303
▁Gates	-6304
▁circu	-6305
▁domin	-6306
▁equip	-6307
▁giant	-6308
▁paint	-6309
▁stuck	-6310
▁convin	-6311
▁double	-6312
▁thinks	-6313
▁transm	-6314
▁brother	-6315
▁drawing	-6316
▁related	-6317
▁replace	-6318
▁typical	-6319
▁biological	-6320
▁tremendous	-6321
▁nở	-6322
▁Lin	-6323
▁Trời	-6324
▁gold	-6325
▁nhẫn	-6326
▁calls	-6327
▁cycle	-6328
▁thùng	-6329
▁trượt	-6330
▁Rwanda	-6331
▁aspect	-6332
▁easier	-6333
▁failed	-6334
▁yellow	-6335
▁concent	-6336
▁insects	-6337
▁distance	-6338
▁negative	-6339
▁previous	-6340
▁cognitive	-6341
▁intellect	-6342
▁commercial	-6343
▁possibility	-6344
emy	-6345
aser	-6346
bert	-6347
▁kín	-6348
uries	-6349
▁Cộng	-6350
▁diet	-6351
▁intu	-6352
▁ngập	-6353
▁ngốc	-6354
▁nhắm	-6355
▁thua	-6356
▁thám	-6357
▁trục	-6358
▁Thiên	-6359
▁avoid	-6360
▁frequ	-6361
▁quote	-6362
▁round	-6363
▁thỉnh	-6364
connect	-6365
▁corpor	-6366
▁genome	-6367
▁versus	-6368
▁artific	-6369
▁experts	-6370
▁figured	-6371
▁limited	-6372
ification	-6373
▁advantage	-6374
▁discovery	-6375
▁efficient	-6376
▁invisible	-6377
inc	-6378
oca	-6379
cles	-6380
▁Jim	-6381
▁bốt	-6382
▁nốt	-6383
▁pha	-6384
▁phú	-6385
▁saf	-6386
▁und	-6387
▁bomb	-6388
▁châm	-6389
▁cort	-6390
▁giam	-6391
▁grab	-6392
▁nàng	-6393
▁stri	-6394
▁Gabby	-6395
▁antib	-6396
▁enter	-6397
▁helps	-6398
▁leads	-6399
▁motor	-6400
▁thính	-6401
▁tướng	-6402
▁weird	-6403
▁desire	-6404
▁fairly	-6405
▁hidden	-6406
▁letter	-6407
▁notion	-6408
▁England	-6409
▁install	-6410
▁watched	-6411
▁billions	-6412
▁equipment	-6413
▁essential	-6414
▁languages	-6415
▁investment	-6416
▁Fe	-6417
▁MT	-6418
aped	-6419
▁Fre	-6420
▁Jan	-6421
▁due	-6422
▁dám	-6423
▁fol	-6424
▁tun	-6425
▁xóm	-6426
antic	-6427
oking	-6428
▁Does	-6429
▁Star	-6430
▁cred	-6431
▁hell	-6432
▁shel	-6433
▁shut	-6434
▁stim	-6435
▁unex	-6436
▁fresh	-6437
▁names	-6438
▁quãng	-6439
▁subst	-6440
▁terror	-6441
▁100,000	-6442
▁concentr	-6443
▁everyday	-6444
▁feedback	-6445
▁partners	-6446
imensional	-6447
▁necessarily	-6448
▁95	-6449
▁Bố	-6450
▁cừ	-6451
gypt	-6452
ulpt	-6453
▁Del	-6454
▁Hum	-6455
▁dắt	-6456
▁rat	-6457
atell	-6458
cript	-6459
▁Viện	-6460
▁empt	-6461
▁khớp	-6462
▁opin	-6463
▁wire	-6464
apping	-6465
▁categ	-6466
▁daily	-6467
▁facts	-6468
▁river	-6469
▁incent	-6470
▁sculpt	-6471
▁extract	-6472
▁holding	-6473
▁studied	-6474
▁succeed	-6475
▁creation	-6476
▁influence	-6477
cop	-6478
apse	-6479
aren	-6480
hold	-6481
▁Hen	-6482
▁Pol	-6483
▁Rep	-6484
▁cậy	-6485
▁gar	-6486
cular	-6487
known	-6488
▁1960	-6489
▁Very	-6490
▁cuộn	-6491
▁edge	-6492
▁nắng	-6493
▁phái	-6494
▁tick	-6495
▁2,000	-6496
▁Egypt	-6497
▁homes	-6498
▁moves	-6499
▁thiệt	-6500
▁circum	-6501
▁houses	-6502
▁leader	-6503
▁neuros	-6504
▁leaving	-6505
▁mothers	-6506
▁planets	-6507
▁designer	-6508
▁investig	-6509
▁planning	-6510
▁businesses	-6511
oft	-6512
ướp	-6513
▁Ox	-6514
▁bơ	-6515
obal	-6516
▁Hơn	-6517
▁Mad	-6518
▁Ngo	-6519
▁rau	-6520
▁toả	-6521
eared	-6522
essed	-6523
icity	-6524
▁bong	-6525
▁lông	-6526
▁mill	-6527
▁phạt	-6528
▁tháo	-6529
▁Could	-6530
▁argue	-6531
▁commit	-6532
▁opened	-6533
▁proper	-6534
▁keeping	-6535
▁accident	-6536
▁struggle	-6537
▁surprise	-6538
dimensional	-6539
▁depression	-6540
▁gấu	-6541
▁hầm	-6542
▁mạn	-6543
▁trà	-6544
print	-6545
▁Gand	-6546
▁Wall	-6547
▁frag	-6548
▁meat	-6549
▁nhãn	-6550
▁Brown	-6551
▁Higgs	-6552
▁mouse	-6553
entally	-6554
▁damage	-6555
▁satell	-6556
▁sister	-6557
▁appreci	-6558
▁awesome	-6559
▁compare	-6560
▁invited	-6561
▁precise	-6562
▁radical	-6563
▁wearing	-6564
▁followed	-6565
▁platform	-6566
▁entertain	-6567
▁electrical	-6568
▁increasingly	-6569
▁nọ	-6570
▁vở	-6571
▁Ôi	-6572
thal	-6573
uing	-6574
▁Dis	-6575
▁Gal	-6576
▁Tes	-6577
▁dãy	-6578
▁tit	-6579
▁Mand	-6580
▁iron	-6581
▁khơi	-6582
▁đuôi	-6583
▁Thông	-6584
▁cưỡng	-6585
▁liked	-6586
▁surge	-6587
▁tuyển	-6588
▁begins	-6589
▁losing	-6590
▁capable	-6591
▁highest	-6592
▁metaphor	-6593
▁university	-6594
ali	-6595
bur	-6596
que	-6597
▁Hệ	-6598
ille	-6599
▁Bon	-6600
▁Mah	-6601
▁odd	-6602
aling	-6603
eline	-6604
inist	-6605
owing	-6606
▁2004	-6607
▁Bình	-6608
▁Will	-6609
▁clip	-6610
▁grav	-6611
▁harm	-6612
▁king	-6613
▁moon	-6614
▁pock	-6615
▁Thành	-6616
▁Tương	-6617
▁chước	-6618
▁piano	-6619
▁master	-6620
▁origin	-6621
▁kilomet	-6622
▁markets	-6623
▁prototy	-6624
▁magazine	-6625
▁resource	-6626
▁separate	-6627
▁survival	-6628
▁surprised	-6629
▁universal	-6630
▁constantly	-6631
▁comfortable	-6632
▁experienced	-6633
ye	-6634
▁lò	-6635
▁Ant	-6636
▁Chủ	-6637
▁Này	-6638
▁Tin	-6639
▁Yet	-6640
▁bớt	-6641
▁cac	-6642
▁lát	-6643
▁nhở	-6644
▁thô	-6645
▁đâm	-6646
illed	-6647
inson	-6648
▁2006	-6649
forest	-6650
▁Congo	-6651
▁rural	-6652
▁sorry	-6653
▁thuẫn	-6654
vention	-6655
▁conduct	-6656
▁origami	-6657
ibilities	-6658
▁finished	-6659
▁worldwide	-6660
▁characters	-6661
▁competition	-6662
vi	-6663
gin	-6664
uls	-6665
▁65	-6666
▁Tự	-6667
cend	-6668
▁195	-6669
▁Rio	-6670
▁Thử	-6671
▁chở	-6672
▁hệt	-6673
▁ton	-6674
▁band	-6675
▁chìa	-6676
▁horr	-6677
▁muộn	-6678
▁ranh	-6679
▁rung	-6680
▁thưa	-6681
ending	-6682
idents	-6683
ushing	-6684
▁Dương	-6685
▁Latin	-6686
▁sugar	-6687
issions	-6688
▁battle	-6689
▁gather	-6690
▁killing	-6691
▁weapons	-6692
▁airplane	-6693
▁believed	-6694
▁suggests	-6695
▁described	-6696
▁associated	-6697
▁dimensions	-6698
▁phenomenon	-6699
▁ultimately	-6700
▁professional	-6701
ban	-6702
lymp	-6703
onym	-6704
▁Cha	-6705
▁Rom	-6706
▁Tas	-6707
▁dry	-6708
▁gap	-6709
▁lùi	-6710
▁mệt	-6711
celer	-6712
ublic	-6713
▁Each	-6714
▁chục	-6715
▁gard	-6716
▁purs	-6717
▁susp	-6718
▁điêu	-6719
▁Tiếng	-6720
▁noise	-6721
▁advert	-6722
▁bright	-6723
▁charge	-6724
▁degree	-6725
▁pounds	-6726
▁shapes	-6727
▁strang	-6728
▁counter	-6729
▁letters	-6730
▁elements	-6731
▁brilliant	-6732
▁concerned	-6733
▁expression	-6734
.5	-6735
tr	-6736
rum	-6737
vis	-6738
ênh	-6739
▁Es	-6740
▁Số	-6741
▁mỹ	-6742
aked	-6743
rete	-6744
▁Dem	-6745
▁flo	-6746
▁hoả	-6747
▁hòn	-6748
▁lạm	-6749
▁1000	-6750
▁2003	-6751
▁Ngài	-6752
▁agre	-6753
▁horm	-6754
ildren	-6755
▁Chiến	-6756
▁perce	-6757
▁astron	-6758
▁belong	-6759
▁fellow	-6760
▁harder	-6761
▁organs	-6762
▁courage	-6763
▁virtual	-6764
▁identify	-6765
▁normally	-6766
▁perception	-6767
,5	-6768
▁32	-6769
▁CA	-6770
▁Hà	-6771
▁nợ	-6772
▁ồn	-6773
eral	-6774
▁Hoả	-6775
▁Mục	-6776
▁Nha	-6777
▁Rem	-6778
▁bút	-6779
▁que	-6780
▁vua	-6781
▁đồi	-6782
acing	-6783
▁ngực	-6784
▁puts	-6785
▁root	-6786
▁thôn	-6787
▁Olymp	-6788
▁heads	-6789
▁holes	-6790
▁phẳng	-6791
▁Howard	-6792
▁finish	-6793
▁factory	-6794
▁multiple	-6795
▁economics	-6796
▁artificial	-6797
alu	-6798
ita	-6799
osm	-6800
ươn	-6801
▁28	-6802
▁Ke	-6803
▁bọ	-6804
▁sứ	-6805
onds	-6806
▁CEO	-6807
▁Cập	-6808
▁Ice	-6809
▁Pat	-6810
▁Ser	-6811
▁cởi	-6812
▁múa	-6813
▁đới	-6814
olves	-6815
▁gánh	-6816
▁khúc	-6817
▁trip	-6818
▁trấn	-6819
bridge	-6820
▁Henry	-6821
▁Yemen	-6822
▁exhib	-6823
▁indic	-6824
iration	-6825
▁implic	-6826
▁leaves	-6827
▁slowly	-6828
▁transp	-6829
▁trained	-6830
▁soldiers	-6831
▁operating	-6832
▁generations	-6833
▁construction	-6834
▁transformation	-6835
ộp	-6836
err	-6837
▁Bur	-6838
▁Bảo	-6839
▁kịp	-6840
▁mấu	-6841
▁pow	-6842
▁sốc	-6843
▁1950	-6844
▁1980	-6845
▁Quan	-6846
▁acad	-6847
▁adop	-6848
▁arms	-6849
▁chip	-6850
▁copy	-6851
▁dots	-6852
▁hasn	-6853
▁migr	-6854
▁user	-6855
atures	-6856
ulated	-6857
▁Koran	-6858
▁Women	-6859
▁coast	-6860
▁crack	-6861
▁grade	-6862
▁sweet	-6863
▁facing	-6864
▁interp	-6865
▁manage	-6866
▁stream	-6867
▁toilet	-6868
▁cartoon	-6869
▁curious	-6870
▁details	-6871
▁diction	-6872
▁marriage	-6873
▁ordinary	-6874
▁valuable	-6875
▁according	-6876
▁engineers	-6877
▁unexpected	-6878
de	-6879
▁Tu	-6880
▁rễ	-6881
izza	-6882
tech	-6883
▁mỏi	-6884
▁rom	-6885
▁tow	-6886
▁vải	-6887
ipped	-6888
iques	-6889
▁2011	-6890
▁Khoa	-6891
▁date	-6892
▁fell	-6893
▁tail	-6894
▁whom	-6895
itness	-6896
▁aging	-6897
▁caused	-6898
▁desert	-6899
▁inform	-6900
▁safety	-6901
▁videos	-6902
▁organic	-6903
▁station	-6904
▁theater	-6905
▁analysis	-6906
▁tomorrow	-6907
▁currently	-6908
▁considered	-6909
▁passionate	-6910
▁distribution	-6911
eng	-6912
min	-6913
▁Ug	-6914
elly	-6915
life	-6916
zing	-6917
▁120	-6918
itals	-6919
▁exch	-6920
▁grid	-6921
▁hãng	-6922
▁khôi	-6923
▁quad	-6924
▁stup	-6925
▁Chiếc	-6926
▁duyệt	-6927
▁lifet	-6928
▁scene	-6929
▁sympt	-6930
▁Micros	-6931
▁Tasman	-6932
▁nghiện	-6933
▁paying	-6934
▁testing	-6935
▁official	-6936
▁property	-6937
▁chemistry	-6938
▁employees	-6939
▁religious	-6940
▁wondering	-6941
ari	-6942
▁Dự	-6943
osis	-6944
prof	-6945
rove	-6946
▁Int	-6947
▁cow	-6948
▁cối	-6949
▁hưu	-6950
▁lat	-6951
▁ráp	-6952
▁Bush	-6953
▁Hàng	-6954
▁lawy	-6955
▁manh	-6956
▁recy	-6957
▁thâm	-6958
ipping	-6959
▁While	-6960
▁ngoan	-6961
▁smile	-6962
▁steps	-6963
▁nghịch	-6964
▁reform	-6965
▁equival	-6966
▁musical	-6967
▁weather	-6968
▁seriously	-6969
▁collection	-6970
▁consequences	-6971
▁unfortunately	-6972
mas	-6973
nam	-6974
iban	-6975
▁Ple	-6976
▁gan	-6977
▁hip	-6978
▁tha	-6979
asion	-6980
itute	-6981
neath	-6982
opher	-6983
▁Ford	-6984
▁Hình	-6985
▁Long	-6986
▁Loại	-6987
▁asks	-6988
▁hurt	-6989
▁hồng	-6990
▁nhặt	-6991
▁Brian	-6992
▁awful	-6993
▁chart	-6994
▁empty	-6995
▁horse	-6996
▁khiếm	-6997
▁khẳng	-6998
▁lưỡng	-6999
▁sight	-7000
▁walls	-7001
▁attach	-7002
▁closed	-7003
▁refuge	-7004
▁stupid	-7005
▁acceler	-7006
▁article	-7007
▁cutting	-7008
▁mosquit	-7009
▁cultures	-7010
▁election	-7011
▁feelings	-7012
▁pleasure	-7013
▁sentence	-7014
▁interface	-7015
▁otherwise	-7016
▁civilization	-7017
irm	-7018
ued	-7019
ume	-7020
cipl	-7021
down	-7022
▁Sub	-7023
▁Tan	-7024
▁Thổ	-7025
▁Tốt	-7026
▁era	-7027
▁god	-7028
▁lật	-7029
▁mâu	-7030
▁vây	-7031
alley	-7032
▁Life	-7033
▁disp	-7034
▁hadn	-7035
▁jazz	-7036
▁địch	-7037
▁Their	-7038
▁cuồng	-7039
▁limit	-7040
▁nhiếp	-7041
▁pages	-7042
▁plane	-7043
▁bubble	-7044
▁caught	-7045
▁filled	-7046
▁frustr	-7047
▁phones	-7048
▁unless	-7049
▁malaria	-7050
▁partner	-7051
▁setting	-7052
▁treated	-7053
▁Stanford	-7054
▁appropri	-7055
▁penguins	-7056
▁Cambridge	-7057
▁Everything	-7058
▁photographs	-7059
▁specifically	-7060
-1	-7061
ns	-7062
én	-7063
▁đố	-7064
aret	-7065
care	-7066
▁Det	-7067
▁dol	-7068
▁hẹp	-7069
▁ide	-7070
▁sắt	-7071
▁ves	-7072
craft	-7073
ented	-7074
lands	-7075
▁Bệnh	-7076
▁Nghe	-7077
▁Toàn	-7078
▁cosm	-7079
▁khói	-7080
▁liqu	-7081
▁peak	-7082
▁phím	-7083
▁shad	-7084
▁soil	-7085
▁vibr	-7086
urally	-7087
▁Arist	-7088
▁Ghana	-7089
▁humor	-7090
▁laser	-7091
▁Oxford	-7092
▁Thượng	-7093
▁cacbon	-7094
▁regret	-7095
▁sharks	-7096
▁signal	-7097
▁vehicle	-7098
▁clinical	-7099
▁whenever	-7100
▁construct	-7101
▁convinced	-7102
hol	-7103
oom	-7104
zan	-7105
▁Rõ	-7106
▁Vi	-7107
▁ju	-7108
arah	-7109
ests	-7110
tain	-7111
yrus	-7112
▁LED	-7113
▁Mac	-7114
▁Quá	-7115
▁Tim	-7116
▁fal	-7117
▁pal	-7118
▁pil	-7119
▁rắn	-7120
oster	-7121
▁Hiệp	-7122
▁Jose	-7123
▁lock	-7124
▁tall	-7125
▁vươn	-7126
ension	-7127
illing	-7128
making	-7129
▁chain	-7130
▁concl	-7131
▁fewer	-7132
▁inner	-7133
▁negot	-7134
▁pregn	-7135
▁analog	-7136
▁ingred	-7137
▁microb	-7138
▁empathy	-7139
▁opening	-7140
▁sending	-7141
▁affected	-7142
▁expected	-7143
▁reaction	-7144
▁president	-7145
▁professor	-7146
▁entrepreneurs	-7147
rs	-7148
bel	-7149
icy	-7150
set	-7151
▁Ap	-7152
▁Jes	-7153
▁cup	-7154
▁fan	-7155
▁fle	-7156
▁ten	-7157
▁đàm	-7158
▁đáo	-7159
▁Come	-7160
▁Tình	-7161
▁dogs	-7162
▁myth	-7163
▁mảng	-7164
▁nerv	-7165
▁pure	-7166
▁reci	-7167
▁rein	-7168
▁warm	-7169
ensity	-7170
father	-7171
▁Three	-7172
▁solid	-7173
▁spoke	-7174
▁teles	-7175
▁Uganda	-7176
▁deeper	-7177
▁fourth	-7178
▁khuyết	-7179
▁pollen	-7180
▁review	-7181
▁Aristot	-7182
▁arrived	-7183
▁battery	-7184
▁display	-7185
▁engineer	-7186
▁released	-7187
▁Microsoft	-7188
▁practical	-7189
▁algorithms	-7190
▁democratic	-7191
▁equivalent	-7192
▁importance	-7193
▁underneath	-7194
▁politicians	-7195
ja	-7196
agh	-7197
▁FG	-7198
▁SW	-7199
▁đẻ	-7200
acle	-7201
cast	-7202
iors	-7203
oons	-7204
uary	-7205
▁Bob	-7206
▁Mat	-7207
▁cừu	-7208
▁eld	-7209
▁fed	-7210
▁gam	-7211
▁gối	-7212
▁rửa	-7213
▁spl	-7214
▁Bank	-7215
▁High	-7216
▁myst	-7217
▁ride	-7218
▁scen	-7219
▁tang	-7220
▁đoan	-7221
ateful	-7222
urance	-7223
▁3,000	-7224
▁colon	-7225
▁honor	-7226
▁khoái	-7227
▁saved	-7228
▁stood	-7229
oration	-7230
▁Atlant	-7231
▁define	-7232
▁driver	-7233
▁micros	-7234
▁prefer	-7235
▁vessel	-7236
▁contain	-7237
▁sources	-7238
▁launched	-7239
▁location	-7240
▁thoughts	-7241
▁hopefully	-7242
▁molecular	-7243
▁organized	-7244
▁techniques	-7245
▁grandmother	-7246
òm	-7247
ằn	-7248
iber	-7249
oved	-7250
▁Red	-7251
▁Tên	-7252
▁cạn	-7253
▁tần	-7254
point	-7255
▁Josh	-7256
▁abst	-7257
▁bits	-7258
▁cere	-7259
▁lift	-7260
▁soul	-7261
▁weak	-7262
terday	-7263
▁Steph	-7264
▁brief	-7265
▁pizza	-7266
▁quiet	-7267
▁blocks	-7268
▁debate	-7269
▁gender	-7270
▁liquid	-7271
▁Taliban	-7272
▁players	-7273
▁promise	-7274
▁singing	-7275
▁warming	-7276
▁absolute	-7277
▁circumst	-7278
▁contract	-7279
▁gentlemen	-7280
▁psychology	-7281
▁relatively	-7282
jo	-7283
bre	-7284
sey	-7285
▁33	-7286
▁ga	-7287
▁Amy	-7288
▁Bắt	-7289
▁Sah	-7290
▁dâm	-7291
▁dạo	-7292
▁dải	-7293
▁dẻo	-7294
▁mồi	-7295
▁phr	-7296
▁sạn	-7297
ograp	-7298
place	-7299
▁Flor	-7300
▁chín	-7301
▁cướp	-7302
▁dial	-7303
▁drag	-7304
▁gain	-7305
▁libr	-7306
▁mush	-7307
▁màng	-7308
▁soph	-7309
lement	-7310
▁grass	-7311
▁manip	-7312
▁staff	-7313
itarian	-7314
▁Center	-7315
▁Please	-7316
▁chocol	-7317
▁circle	-7318
▁forced	-7319
▁picked	-7320
▁covered	-7321
▁entropy	-7322
▁nations	-7323
▁nervous	-7324
▁worried	-7325
▁birthday	-7326
▁printing	-7327
▁rational	-7328
▁emissions	-7329
▁hospitals	-7330
▁invention	-7331
▁processes	-7332
hai	-7333
yan	-7334
▁Ju	-7335
Talk	-7336
bles	-7337
itan	-7338
kins	-7339
▁Bên	-7340
▁Máy	-7341
▁Nan	-7342
▁lận	-7343
▁vẹn	-7344
▁đạn	-7345
▁2001	-7346
▁Gold	-7347
▁Kore	-7348
▁Ngân	-7349
▁arts	-7350
▁lệch	-7351
▁nurs	-7352
▁qual	-7353
▁treo	-7354
▁trân	-7355
▁Found	-7356
▁Thiết	-7357
▁false	-7358
▁goods	-7359
▁metal	-7360
▁prove	-7361
▁uncle	-7362
▁buying	-7363
▁hacker	-7364
▁severe	-7365
▁TEDTalk	-7366
▁victims	-7367
▁abstract	-7368
▁emerging	-7369
▁lifetime	-7370
▁requires	-7371
▁transition	-7372
▁connections	-7373
▁consumption	-7374
ụng	-7375
▁85	-7376
▁Us	-7377
▁fu	-7378
▁il	-7379
icip	-7380
▁Day	-7381
▁Dân	-7382
▁bow	-7383
▁bơm	-7384
▁cắm	-7385
▁hem	-7386
▁lợn	-7387
▁qui	-7388
▁đạc	-7389
force	-7390
throp	-7391
▁Mill	-7392
▁Port	-7393
▁Tiến	-7394
▁bear	-7395
▁evil	-7396
▁inch	-7397
▁lect	-7398
▁poem	-7399
▁dolph	-7400
▁folks	-7401
▁notes	-7402
▁shame	-7403
▁sides	-7404
▁status	-7405
▁toward	-7406
▁Florida	-7407
▁calling	-7408
▁dynamic	-7409
▁epidemic	-7410
▁stronger	-7411
▁designers	-7412
▁narrative	-7413
▁organisms	-7414
▁principle	-7415
▁vulnerable	-7416
▁independent	-7417
AR	-7418
uk	-7419
car	-7420
etr	-7421
omb	-7422
▁0.	-7423
▁lờ	-7424
ardo	-7425
irty	-7426
olds	-7427
well	-7428
wich	-7429
▁Bol	-7430
▁Tex	-7431
▁Vir	-7432
▁ath	-7433
▁cắp	-7434
▁lic	-7435
▁lie	-7436
▁đền	-7437
being	-7438
lying	-7439
▁Coca	-7440
▁Jeff	-7441
▁Lego	-7442
▁Nord	-7443
▁acqu	-7444
▁bath	-7445
▁lady	-7446
▁roof	-7447
▁tông	-7448
▁vĩnh	-7449
▁Holly	-7450
▁Islam	-7451
▁heavy	-7452
▁ideal	-7453
▁quyên	-7454
▁risks	-7455
▁topic	-7456
▁budget	-7457
▁island	-7458
inations	-7459
▁Abraham	-7460
▁Germany	-7461
▁Neander	-7462
▁engaged	-7463
▁release	-7464
▁signals	-7465
▁infected	-7466
▁mistakes	-7467
▁mortality	-7468
▁newspaper	-7469
▁technical	-7470
▁convention	-7471
▁foundation	-7472
▁intelligent	-7473
▁intellectual	-7474
eak	-7475
eda	-7476
ini	-7477
▁Kn	-7478
agen	-7479
ulin	-7480
weet	-7481
▁Hàn	-7482
▁bon	-7483
▁bắp	-7484
▁bọc	-7485
▁kẹo	-7486
▁kẹt	-7487
▁uns	-7488
anted	-7489
etics	-7490
ingly	-7491
sters	-7492
ucing	-7493
▁Gree	-7494
▁buýt	-7495
▁dish	-7496
▁jail	-7497
▁kiệt	-7498
▁scar	-7499
▁tuân	-7500
▁unus	-7501
athers	-7502
enture	-7503
olving	-7504
▁Scott	-7505
▁State	-7506
▁Texas	-7507
▁claim	-7508
▁illeg	-7509
▁khiêu	-7510
▁minim	-7511
▁nhàng	-7512
▁north	-7513
▁Daniel	-7514
▁khuynh	-7515
▁motion	-7516
▁trials	-7517
▁fiction	-7518
▁lessons	-7519
▁Congress	-7520
▁memories	-7521
▁Aristotle	-7522
▁restaurant	-7523
▁effectively	-7524
bl	-7525
box	-7526
▁Kể	-7527
▁Âm	-7528
abol	-7529
thur	-7530
uses	-7531
▁Cop	-7532
▁Lar	-7533
▁Law	-7534
▁Nơi	-7535
▁Ray	-7536
▁bia	-7537
▁dọn	-7538
▁lấp	-7539
▁mak	-7540
▁mòn	-7541
▁rig	-7542
▁tox	-7543
▁whe	-7544
umber	-7545
▁Last	-7546
▁chúc	-7547
▁coal	-7548
▁flat	-7549
▁isol	-7550
▁lies	-7551
▁nhầm	-7552
▁nose	-7553
vember	-7554
▁Brook	-7555
▁Since	-7556
▁eleph	-7557
▁huyền	-7558
▁rates	-7559
▁satis	-7560
▁serve	-7561
ressive	-7562
▁bottle	-7563
▁exists	-7564
▁height	-7565
▁medium	-7566
▁patent	-7567
▁remain	-7568
▁Charlie	-7569
▁channel	-7570
▁roughly	-7571
▁silence	-7572
▁relevant	-7573
▁spectrum	-7574
▁definitely	-7575
▁kilometers	-7576
▁management	-7577
▁possibilities	-7578
ati	-7579
cut	-7580
den	-7581
org	-7582
▁Hi	-7583
▁Sl	-7584
▁nề	-7585
▁đỗ	-7586
atar	-7587
foot	-7588
utes	-7589
▁Phụ	-7590
▁Sat	-7591
▁dot	-7592
▁tựa	-7593
▁đai	-7594
acles	-7595
estic	-7596
▁Part	-7597
▁Stew	-7598
▁Stud	-7599
▁giãn	-7600
▁init	-7601
▁thắc	-7602
▁wave	-7603
anging	-7604
▁error	-7605
▁layer	-7606
▁south	-7607
▁former	-7608
▁poetry	-7609
▁William	-7610
▁actions	-7611
▁chicken	-7612
▁falling	-7613
▁transpl	-7614
▁dramatic	-7615
▁exercise	-7616
▁proteins	-7617
▁carefully	-7618
▁chocolate	-7619
▁interpret	-7620
▁producing	-7621
▁sophistic	-7622
▁introduced	-7623
▁personally	-7624
▁principles	-7625
▁protection	-7626
▁alternative	-7627
▁grandfather	-7628
wa	-7629
ễu	-7630
bed	-7631
▁Bi	-7632
▁hã	-7633
▁mồ	-7634
▁vé	-7635
▁Chà	-7636
▁nar	-7637
▁nav	-7638
▁rập	-7639
▁sen	-7640
▁trú	-7641
▁vay	-7642
▁xám	-7643
erves	-7644
▁Four	-7645
▁cave	-7646
▁lũng	-7647
▁mười	-7648
▁seat	-7649
▁sees	-7650
▁flash	-7651
▁occup	-7652
ulating	-7653
▁candid	-7654
▁cortex	-7655
▁credit	-7656
▁forgot	-7657
▁fortun	-7658
▁lifest	-7659
▁amounts	-7660
▁depends	-7661
▁explains	-7662
▁encourage	-7663
▁meaningful	-7664
▁profession	-7665
yo	-7666
bes	-7667
zed	-7668
ịnh	-7669
▁DV	-7670
▁dở	-7671
▁ve	-7672
gets	-7673
izon	-7674
▁Bay	-7675
▁Jew	-7676
▁Kev	-7677
▁Ven	-7678
▁cựu	-7679
▁ens	-7680
▁mọc	-7681
▁nit	-7682
▁pip	-7683
▁shr	-7684
▁ske	-7685
▁thổ	-7686
erent	-7687
opard	-7688
▁Gulf	-7689
▁Mình	-7690
▁Pres	-7691
▁anti	-7692
▁chăn	-7693
▁inev	-7694
▁mỏng	-7695
▁poly	-7696
▁thép	-7697
▁wars	-7698
▁Cyrus	-7699
▁added	-7700
▁cents	-7701
▁cương	-7702
▁estab	-7703
▁plans	-7704
▁thằng	-7705
▁Sahara	-7706
▁Sweden	-7707
▁flower	-7708
▁reveal	-7709
▁scared	-7710
▁existing	-7711
▁generate	-7712
▁hydrogen	-7713
▁mushroom	-7714
▁designing	-7715
▁disappear	-7716
▁interests	-7717
▁mentioned	-7718
▁particles	-7719
▁components	-7720
▁circumstances	-7721
▁Op	-7722
▁Đa	-7723
abil	-7724
cest	-7725
iled	-7726
know	-7727
▁191	-7728
▁Lạp	-7729
▁Rev	-7730
▁Som	-7731
▁Van	-7732
▁dốc	-7733
▁nêu	-7734
▁row	-7735
▁đợt	-7736
▁2050	-7737
▁Mike	-7738
▁Nước	-7739
▁Tổng	-7740
▁bike	-7741
▁item	-7742
▁khéo	-7743
▁ngừa	-7744
▁wine	-7745
encing	-7746
lessly	-7747
porary	-7748
▁Black	-7749
▁Count	-7750
▁Tuyệt	-7751
▁chose	-7752
▁doubt	-7753
▁ignor	-7754
▁inequ	-7755
▁poore	-7756
▁shall	-7757
▁sites	-7758
▁vượng	-7759
▁Democr	-7760
▁advice	-7761
▁fields	-7762
▁fright	-7763
▁reprod	-7764
▁Britain	-7765
▁dealing	-7766
▁defined	-7767
▁opinion	-7768
▁rapidly	-7769
▁grateful	-7770
▁internal	-7771
▁sequence	-7772
▁subjects	-7773
▁tracking	-7774
▁introduce	-7775
▁typically	-7776
▁mathematics	-7777
▁participate	-7778
▁environments	-7779
BM	-7780
osa	-7781
ums	-7782
▁55	-7783
▁bá	-7784
hyth	-7785
ican	-7786
whel	-7787
▁Bre	-7788
▁Den	-7789
▁Hải	-7790
▁hôi	-7791
▁mel	-7792
▁nát	-7793
▁sôi	-7794
▁tap	-7795
aters	-7796
itual	-7797
▁Rock	-7798
▁boat	-7799
▁dũng	-7800
▁ends	-7801
▁lượt	-7802
▁unit	-7803
▁vang	-7804
asters	-7805
ternal	-7806
▁aston	-7807
▁goals	-7808
▁polio	-7809
▁Nghiên	-7810
▁repair	-7811
▁senses	-7812
▁worlds	-7813
▁Mandela	-7814
▁capture	-7815
▁gravity	-7816
▁solving	-7817
▁unusual	-7818
▁variety	-7819
▁accurate	-7820
▁constant	-7821
▁awareness	-7822
▁framework	-7823
▁innovative	-7824
▁instrument	-7825
▁percentage	-7826
▁fundamentally	-7827
DA	-7828
aze	-7829
▁29	-7830
▁bù	-7831
▁mỉ	-7832
▁rẽ	-7833
cons	-7834
rane	-7835
ront	-7836
▁700	-7837
▁Bos	-7838
▁Kim	-7839
▁Kir	-7840
▁chợ	-7841
▁dat	-7842
▁sem	-7843
▁xôi	-7844
abled	-7845
earch	-7846
iency	-7847
uther	-7848
▁Bron	-7849
▁judg	-7850
▁nano	-7851
▁ring	-7852
▁runs	-7853
▁spin	-7854
▁tons	-7855
▁Điểm	-7856
▁Đồng	-7857
itchen	-7858
profit	-7859
rovers	-7860
▁estim	-7861
▁label	-7862
▁ridic	-7863
▁thoái	-7864
▁Andrew	-7865
▁Norden	-7866
▁ancest	-7867
▁factor	-7868
▁galaxy	-7869
▁length	-7870
▁movies	-7871
▁player	-7872
▁sample	-7873
▁Science	-7874
▁applied	-7875
▁consist	-7876
▁earthqu	-7877
▁forests	-7878
▁intense	-7879
▁operate	-7880
▁primary	-7881
▁privile	-7882
▁reverse	-7883
▁witness	-7884
▁disaster	-7885
▁exchange	-7886
▁messages	-7887
▁overwhel	-7888
▁swimming	-7889
▁wondered	-7890
▁authority	-7891
▁economies	-7892
▁mountains	-7893
EC	-7894
ũi	-7895
▁ồ	-7896
ien	-7897
pes	-7898
tit	-7899
ờng	-7900
▁31	-7901
▁CD	-7902
▁Da	-7903
▁Ro	-7904
▁Ty	-7905
▁vỗ	-7906
aded	-7907
ctic	-7908
roit	-7909
▁Syr	-7910
▁mày	-7911
▁nản	-7912
▁pun	-7913
▁rot	-7914
alled	-7915
ament	-7916
atson	-7917
organ	-7918
orter	-7919
▁Comm	-7920
▁Scot	-7921
▁Sinh	-7922
▁bill	-7923
▁bỗng	-7924
▁elev	-7925
▁hide	-7926
▁hoài	-7927
▁hạch	-7928
▁phác	-7929
▁pump	-7930
▁suit	-7931
source	-7932
▁atoms	-7933
▁films	-7934
▁navig	-7935
▁teams	-7936
▁tumor	-7937
▁Watson	-7938
▁critic	-7939
▁explan	-7940
▁hoping	-7941
▁joined	-7942
▁member	-7943
▁option	-7944
▁Detroit	-7945
▁Indones	-7946
▁accompl	-7947
▁autonom	-7948
▁combine	-7949
▁funding	-7950
▁insulin	-7951
▁regions	-7952
▁selling	-7953
▁carrying	-7954
▁concrete	-7955
▁confront	-7956
▁graduate	-7957
▁Hollywood	-7958
▁passwords	-7959
▁confidence	-7960
▁economists	-7961
▁philosophy	-7962
▁manufacturing	-7963
MA	-7964
idi	-7965
oug	-7966
▁37	-7967
▁ED	-7968
eras	-7969
mers	-7970
ston	-7971
▁800	-7972
▁Eas	-7973
▁Mil	-7974
▁Quý	-7975
▁Ram	-7976
▁agg	-7977
▁chả	-7978
▁dội	-7979
▁nén	-7980
▁pho	-7981
▁voc	-7982
eding	-7983
elson	-7984
inder	-7985
iture	-7986
▁Girl	-7987
▁Gore	-7988
▁Only	-7989
▁bách	-7990
▁fake	-7991
▁pray	-7992
▁thầm	-7993
▁trật	-7994
▁Syria	-7995
▁barri	-7996
▁teeth	-7997
osition	-7998
▁Arthur	-7999
▁Singap	-8000
▁compar	-8001
▁oceans	-8002
▁regard	-8003
▁ritual	-8004
▁sports	-8005
▁string	-8006
▁Rosling	-8007
▁Stephen	-8008
▁factors	-8009
▁however	-8010
▁sandwich	-8011
▁sunlight	-8012
▁vaccines	-8013
▁animation	-8014
▁centuries	-8015
▁chemicals	-8016
▁increased	-8017
▁traveling	-8018
▁yesterday	-8019
▁discussion	-8020
▁collaboration	-8021
di	-8022
uh	-8023
ẳm	-8024
iat	-8025
igm	-8026
met	-8027
▁võ	-8028
▁đẽ	-8029
Cola	-8030
aven	-8031
▁Bác	-8032
▁Dep	-8033
▁Eth	-8034
▁Hel	-8035
▁Lee	-8036
▁Lou	-8037
▁Mel	-8038
▁Tem	-8039
▁bấy	-8040
▁gác	-8041
▁xíu	-8042
agram	-8043
andon	-8044
ansas	-8045
▁Love	-8046
▁Wolf	-8047
▁chua	-8048
▁loud	-8049
▁mere	-8050
▁rebu	-8051
▁tiễn	-8052
▁trừu	-8053
▁wake	-8054
▁xăng	-8055
▁Grand	-8056
▁obser	-8057
▁Health	-8058
▁Muslim	-8059
▁Phương	-8060
▁Russia	-8061
▁facial	-8062
▁nghiệt	-8063
▁poster	-8064
▁solved	-8065
▁winter	-8066
▁Iceland	-8067
▁cooking	-8068
▁harvest	-8069
▁antibiot	-8070
▁contrast	-8071
▁Indonesia	-8072
▁Singapore	-8073
▁movements	-8074
▁operation	-8075
▁Foundation	-8076
▁behavioral	-8077
▁productive	-8078
▁resistance	-8079
▁combination	-8080
▁conversations	-8081
▁transportation	-8082
TC	-8083
ae	-8084
bb	-8085
esh	-8086
pha	-8087
▁nụ	-8088
abet	-8089
bors	-8090
▁Air	-8091
▁adj	-8092
▁bìa	-8093
▁hụt	-8094
amine	-8095
burgh	-8096
▁Give	-8097
▁Jenn	-8098
▁Time	-8099
▁Zeal	-8100
▁bold	-8101
▁cổng	-8102
▁gall	-8103
▁milk	-8104
▁muối	-8105
▁refr	-8106
▁Bronx	-8107
▁Other	-8108
▁cyber	-8109
▁devil	-8110
▁fears	-8111
▁resil	-8112
▁skill	-8113
▁steel	-8114
▁thick	-8115
▁50,000	-8116
▁Shakes	-8117
▁assign	-8118
▁clouds	-8119
▁fabric	-8120
▁negoti	-8121
ographer	-8122
▁Project	-8123
▁include	-8124
abilities	-8125
▁collapse	-8126
▁consumer	-8127
▁prepared	-8128
▁behaviors	-8129
▁computing	-8130
▁challenging	-8131
▁destruction	-8132
▁applications	-8133
mad	-8134
ora	-8135
rey	-8136
▁lơ	-8137
▁đà	-8138
cont	-8139
ihad	-8140
ogue	-8141
▁---	-8142
▁Bel	-8143
▁DVD	-8144
▁lắc	-8145
ictor	-8146
lines	-8147
pring	-8148
▁Also	-8149
▁Lang	-8150
▁Sant	-8151
▁busy	-8152
▁cock	-8153
▁desk	-8154
▁eggs	-8155
▁flex	-8156
▁hunt	-8157
▁ruồi	-8158
▁tank	-8159
▁thẳm	-8160
▁xích	-8161
arrass	-8162
imeter	-8163
rition	-8164
▁Gener	-8165
▁Thánh	-8166
▁bombs	-8167
▁frank	-8168
▁input	-8169
▁ought	-8170
▁reven	-8171
▁stere	-8172
▁Design	-8173
▁Nelson	-8174
▁acting	-8175
▁mirror	-8176
▁offers	-8177
▁proced	-8178
▁writer	-8179
chnology	-8180
▁Islamic	-8181
▁Perhaps	-8182
▁centers	-8183
▁comment	-8184
▁convince	-8185
▁instinct	-8186
▁Institute	-8187
▁President	-8188
▁generally	-8189
▁lifestyle	-8190
▁mechanism	-8191
▁represents	-8192
▁agriculture	-8193
ủa	-8194
cks	-8195
ena	-8196
war	-8197
▁ốc	-8198
adic	-8199
ette	-8200
opia	-8201
pped	-8202
what	-8203
▁Boy	-8204
▁Jac	-8205
▁Pan	-8206
▁Trẻ	-8207
▁hóc	-8208
▁lúa	-8209
▁súc	-8210
▁vụn	-8211
peare	-8212
reenh	-8213
▁Sand	-8214
▁bare	-8215
▁cure	-8216
▁giặt	-8217
▁maps	-8218
▁mộng	-8219
▁neut	-8220
▁obst	-8221
▁orch	-8222
▁snow	-8223
▁soạn	-8224
▁trộm	-8225
ctions	-8226
iminal	-8227
lation	-8228
stream	-8229
titles	-8230
▁Chile	-8231
▁Gandhi	-8232
▁Nobody	-8233
▁clever	-8234
▁driven	-8235
▁owners	-8236
▁stands	-8237
▁stayed	-8238
▁Stewart	-8239
▁Zealand	-8240
▁cameras	-8241
▁circuit	-8242
▁illegal	-8243
▁metabol	-8244
▁mistake	-8245
▁parking	-8246
▁samples	-8247
▁therapy	-8248
▁Carolina	-8249
▁hypothes	-8250
▁radiation	-8251
▁department	-8252
▁literature	-8253
▁situations	-8254
▁Shakespeare	-8255
▁inspiration	-8256
▁transformed	-8257
▁entrepreneur	-8258
▁sophisticated	-8259
▁sustainability	-8260
BC	-8261
ux	-8262
gie	-8263
obi	-8264
obs	-8265
oto	-8266
▁rũ	-8267
▁ur	-8268
▁Đi	-8269
▁ốm	-8270
cher	-8271
ifer	-8272
ifth	-8273
oked	-8274
roph	-8275
▁Cor	-8276
▁Lew	-8277
▁McC	-8278
▁Pac	-8279
▁Wal	-8280
▁bes	-8281
▁bướ	-8282
▁gũi	-8283
▁mat	-8284
▁mer	-8285
▁tea	-8286
▁tím	-8287
▁unh	-8288
chair	-8289
stand	-8290
▁Chào	-8291
▁Pole	-8292
▁chợt	-8293
▁flag	-8294
▁hits	-8295
▁mươi	-8296
▁plus	-8297
▁prem	-8298
▁sacr	-8299
ortion	-8300
▁Power	-8301
▁boxes	-8302
▁signs	-8303
▁steal	-8304
▁walks	-8305
▁xướng	-8306
▁xưởng	-8307
▁Island	-8308
▁Joseph	-8309
▁Victor	-8310
▁Virgin	-8311
▁Yorker	-8312
▁anonym	-8313
▁devast	-8314
▁greenh	-8315
▁hunger	-8316
▁ladies	-8317
▁pulled	-8318
▁reject	-8319
▁storyt	-8320
▁thanks	-8321
▁authent	-8322
▁borders	-8323
▁burning	-8324
▁options	-8325
▁apparent	-8326
▁somewhat	-8327
▁determine	-8328
▁embarrass	-8329
▁footprint	-8330
▁identical	-8331
▁neighbors	-8332
▁satellite	-8333
▁technique	-8334
▁controlled	-8335
▁earthquake	-8336
▁laboratory	-8337
▁potentially	-8338
BI	-8339
200	-8340
▁Ky	-8341
▁Sk	-8342
▁km	-8343
resp	-8344
▁Hoà	-8345
▁Mag	-8346
▁Ron	-8347
▁chẽ	-8348
▁hét	-8349
▁mad	-8350
▁reh	-8351
▁ren	-8352
▁wel	-8353
▁ếch	-8354
esity	-8355
level	-8356
ville	-8357
▁1930	-8358
▁2002	-8359
▁Blue	-8360
▁Coll	-8361
▁asse	-8362
▁dict	-8363
▁frog	-8364
▁loop	-8365
▁mượn	-8366
▁ngẫm	-8367
▁sets	-8368
▁suic	-8369
▁wash	-8370
▁Prize	-8371
▁Tưởng	-8372
▁broke	-8373
▁dedic	-8374
▁globe	-8375
▁memor	-8376
▁plays	-8377
▁stock	-8378
▁tests	-8379
▁thumb	-8380
▁tráng	-8381
▁whist	-8382
▁Lester	-8383
▁Museum	-8384
▁arrest	-8385
▁garden	-8386
▁immune	-8387
▁khoáng	-8388
▁puzzle	-8389
▁survey	-8390
▁closely	-8391
▁dancing	-8392
▁embrace	-8393
▁empower	-8394
▁equally	-8395
▁flowers	-8396
▁tonight	-8397
▁unknown	-8398
connected	-8399
▁Everyone	-8400
▁advanced	-8401
▁allowing	-8402
▁astronom	-8403
▁download	-8404
▁horrible	-8405
▁instruct	-8406
▁ultimate	-8407
▁vehicles	-8408
▁collected	-8409
▁existence	-8410
▁spiritual	-8411
▁physically	-8412
▁processing	-8413
▁properties	-8414
▁appropriate	-8415
mit	-8416
see	-8417
via	-8418
▁Ol	-8419
▁Vo	-8420
▁dỗ	-8421
▁đệ	-8422
eron	-8423
keep	-8424
over	-8425
xies	-8426
▁Chị	-8427
▁Hom	-8428
▁Kar	-8429
▁Lấy	-8430
▁Sen	-8431
▁asp	-8432
▁bee	-8433
▁bin	-8434
▁bẩn	-8435
▁lân	-8436
▁ván	-8437
▁độn	-8438
arant	-8439
icing	-8440
▁Carl	-8441
▁acts	-8442
▁cược	-8443
▁cống	-8444
▁diss	-8445
▁exec	-8446
▁furn	-8447
▁joke	-8448
▁nhào	-8449
▁outc	-8450
▁quặc	-8451
▁thin	-8452
▁trán	-8453
ilding	-8454
▁Laden	-8455
▁Nghĩa	-8456
▁admit	-8457
▁beach	-8458
▁dense	-8459
▁keeps	-8460
▁males	-8461
▁phase	-8462
▁pitch	-8463
▁pound	-8464
▁quyến	-8465
▁shell	-8466
▁Joshua	-8467
▁acknow	-8468
▁conver	-8469
▁desper	-8470
▁formed	-8471
▁mainly	-8472
▁nhường	-8473
etically	-8474
▁January	-8475
▁overall	-8476
▁painful	-8477
▁distinct	-8478
▁romantic	-8479
▁symptoms	-8480
▁Christmas	-8481
▁arguments	-8482
▁implement	-8483
▁spreading	-8484
▁Revolution	-8485
▁activities	-8486
▁collecting	-8487
▁transplant	-8488
▁interactive	-8489
▁implications	-8490
GO	-8491
NC	-8492
iev	-8493
▁46	-8494
▁hò	-8495
appy	-8496
asks	-8497
hour	-8498
lete	-8499
osph	-8500
viol	-8501
▁Giá	-8502
▁IBM	-8503
▁Med	-8504
▁Met	-8505
▁Qua	-8506
▁bám	-8507
▁bấm	-8508
▁gìn	-8509
▁lều	-8510
▁mến	-8511
scale	-8512
▁1900	-8513
▁Leon	-8514
▁Mary	-8515
▁Sept	-8516
▁bicy	-8517
▁fert	-8518
▁foss	-8519
▁lánh	-8520
▁nhạt	-8521
▁nồng	-8522
▁pool	-8523
▁tape	-8524
▁Điện	-8525
icious	-8526
▁Giọng	-8527
▁Kevin	-8528
▁River	-8529
▁Super	-8530
▁roads	-8531
▁stret	-8532
▁uncom	-8533
▁waves	-8534
▁wings	-8535
▁Before	-8536
▁Newton	-8537
▁divide	-8538
▁handle	-8539
▁pocket	-8540
▁replic	-8541
▁Montana	-8542
▁advance	-8543
▁attacks	-8544
▁discipl	-8545
▁kitchen	-8546
▁viruses	-8547
▁illusion	-8548
▁pregnant	-8549
ologically	-8550
▁September	-8551
▁Subtitles	-8552
▁conflicts	-8553
▁continent	-8554
▁establish	-8555
▁measuring	-8556
▁sensitive	-8557
▁Transcript	-8558
▁conclusion	-8559
▁controvers	-8560
▁healthcare	-8561
▁underwater	-8562
▁wheelchair	-8563
▁entertainment	-8564
ivi	-8565
nel	-8566
nia	-8567
ugg	-8568
▁Bh	-8569
▁sô	-8570
▁xỉ	-8571
▁ôm	-8572
aron	-8573
▁Ann	-8574
▁Cur	-8575
▁Gen	-8576
▁Get	-8577
▁Jay	-8578
▁Mer	-8579
▁Ted	-8580
▁fro	-8581
▁irr	-8582
▁sáo	-8583
▁sắm	-8584
hythm	-8585
usive	-8586
▁Hell	-8587
▁Jane	-8588
▁Kenn	-8589
▁Miss	-8590
▁Next	-8591
▁beet	-8592
▁brib	-8593
▁gest	-8594
▁hiếp	-8595
▁ment	-8596
▁mãnh	-8597
▁pill	-8598
▁rush	-8599
▁ruột	-8600
▁rỗng	-8601
▁trig	-8602
isters	-8603
▁About	-8604
▁clock	-8605
▁upper	-8606
▁border	-8607
▁contem	-8608
▁perman	-8609
▁suffer	-8610
▁classes	-8611
▁command	-8612
▁designs	-8613
▁dropped	-8614
▁feature	-8615
▁implant	-8616
▁largely	-8617
▁obesity	-8618
▁reached	-8619
▁records	-8620
▁regener	-8621
▁brothers	-8622
▁galaxies	-8623
▁required	-8624
▁explained	-8625
▁pollution	-8626
▁prototype	-8627
▁providing	-8628
▁incentives	-8629
▁surrounded	-8630
▁advertising	-8631
▁astonishing	-8632
▁+	-8633
ano	-8634
ila	-8635
net	-8636
ras	-8637
ris	-8638
xim	-8639
▁Du	-8640
▁mổ	-8641
▁nô	-8642
▁ub	-8643
agos	-8644
illa	-8645
ords	-8646
uous	-8647
▁Cần	-8648
▁Ham	-8649
▁Pop	-8650
▁Roy	-8651
▁ben	-8652
▁cài	-8653
▁luỹ	-8654
▁mim	-8655
▁vit	-8656
▁Đấy	-8657
akers	-8658
field	-8659
▁Bern	-8660
▁Loài	-8661
▁chôn	-8662
▁lùng	-8663
▁nhện	-8664
▁phun	-8665
▁thấm	-8666
iosity	-8667
▁angry	-8668
▁judge	-8669
▁liver	-8670
▁opera	-8671
▁remem	-8672
▁songs	-8673
▁storm	-8674
▁truck	-8675
▁Anyway	-8676
▁Nguyên	-8677
▁assume	-8678
▁boring	-8679
▁heroes	-8680
▁phrase	-8681
▁season	-8682
▁sphere	-8683
▁Silicon	-8684
▁breathe	-8685
▁causing	-8686
▁frankly	-8687
▁pushing	-8688
▁younger	-8689
▁presence	-8690
▁transfer	-8691
▁Basically	-8692
▁insurance	-8693
▁uncertain	-8694
▁greenhouse	-8695
▁mechanical	-8696
▁conventional	-8697
▁mathematical	-8698
MS	-8699
OL	-8700
do	-8701
pet	-8702
vas	-8703
abin	-8704
aeda	-8705
gent	-8706
olar	-8707
orus	-8708
rous	-8709
tery	-8710
▁Quỹ	-8711
▁Sir	-8712
▁Tam	-8713
▁Wil	-8714
▁meg	-8715
▁rub	-8716
inate	-8717
worth	-8718
▁Cháu	-8719
▁Walk	-8720
▁bias	-8721
▁cous	-8722
▁ears	-8723
▁giọt	-8724
▁kick	-8725
▁lets	-8726
▁lồng	-8727
▁vạch	-8728
▁xuân	-8729
▁5,000	-8730
▁Jesus	-8731
▁digit	-8732
▁dress	-8733
▁elder	-8734
▁faced	-8735
▁grain	-8736
▁likes	-8737
▁lying	-8738
▁refer	-8739
▁sheep	-8740
▁thung	-8741
▁tribe	-8742
▁20,000	-8743
▁aftern	-8744
▁athlet	-8745
▁deaths	-8746
▁defend	-8747
▁latest	-8748
▁nurses	-8749
▁papers	-8750
▁rating	-8751
▁remove	-8752
▁careful	-8753
▁collaps	-8754
▁finance	-8755
▁fingers	-8756
▁housing	-8757
▁methods	-8758
▁mystery	-8759
▁outcome	-8760
▁visible	-8761
▁academic	-8762
▁agencies	-8763
▁apartment	-8764
▁continued	-8765
▁diagnosed	-8766
▁naturally	-8767
▁religions	-8768
▁strangers	-8769
▁antibiotics	-8770
▁educational	-8771
BA	-8772
ima	-8773
rah	-8774
▁Ra	-8775
▁cọ	-8776
▁lỡ	-8777
▁rã	-8778
▁vờ	-8779
case	-8780
fish	-8781
gend	-8782
ingu	-8783
ione	-8784
▁Had	-8785
▁Lak	-8786
▁Mom	-8787
▁Mur	-8788
▁Nhĩ	-8789
▁Rad	-8790
▁Tay	-8791
▁alb	-8792
▁hãm	-8793
▁ped	-8794
▁raw	-8795
▁sét	-8796
▁xăm	-8797
icted	-8798
think	-8799
▁1999	-8800
▁Five	-8801
▁List	-8802
▁News	-8803
▁Zimb	-8804
▁cast	-8805
▁chọc	-8806
▁logo	-8807
▁wise	-8808
asseng	-8809
▁Clint	-8810
▁Delhi	-8811
▁Ngoài	-8812
▁Peace	-8813
▁Union	-8814
▁blank	-8815
▁huynh	-8816
▁plate	-8817
▁recyc	-8818
▁taste	-8819
▁triệt	-8820
▁Tanzan	-8821
▁Valley	-8822
▁adoles	-8823
▁hearts	-8824
▁inject	-8825
▁spoken	-8826
▁struck	-8827
▁thượng	-8828
▁whales	-8829
▁Eastern	-8830
▁classic	-8831
▁clothes	-8832
▁offered	-8833
▁passeng	-8834
▁sensors	-8835
▁violent	-8836
▁Republic	-8837
▁Research	-8838
▁maintain	-8839
▁outcomes	-8840
▁wherever	-8841
▁customers	-8842
▁efficiency	-8843
▁engagement	-8844
▁fascinated	-8845
▁interactions	-8846
ca	-8847
tô	-8848
ava	-8849
bal	-8850
cil	-8851
▁38	-8852
▁44	-8853
▁48	-8854
▁BJ	-8855
▁Sn	-8856
▁Sĩ	-8857
▁ah	-8858
▁mi	-8859
ague	-8860
anth	-8861
enda	-8862
erry	-8863
hile	-8864
ooth	-8865
plom	-8866
rors	-8867
utch	-8868
▁Che	-8869
▁NGO	-8870
▁Net	-8871
▁Sus	-8872
▁bóc	-8873
▁dop	-8874
▁hur	-8875
▁léo	-8876
▁vòi	-8877
edded	-8878
erial	-8879
ician	-8880
isher	-8881
opath	-8882
quare	-8883
▁2012	-8884
▁Budd	-8885
▁Cons	-8886
▁Giải	-8887
▁Hill	-8888
▁Jill	-8889
▁Rand	-8890
▁acid	-8891
▁club	-8892
▁diox	-8893
▁gray	-8894
▁lăng	-8895
▁móng	-8896
▁tivi	-8897
▁tort	-8898
▁vert	-8899
owered	-8900
struct	-8901
usions	-8902
▁Lewis	-8903
▁Sarah	-8904
▁White	-8905
▁cards	-8906
▁compl	-8907
▁coral	-8908
▁datab	-8909
▁fract	-8910
▁hotel	-8911
▁pharm	-8912
▁prost	-8913
▁shake	-8914
▁theme	-8915
▁Disney	-8916
▁Fellow	-8917
▁Wright	-8918
▁button	-8919
▁diplom	-8920
▁drives	-8921
▁elimin	-8922
▁heaven	-8923
▁narrow	-8924
▁neuron	-8925
▁phosph	-8926
▁portra	-8927
▁retire	-8928
▁shadow	-8929
▁signed	-8930
▁spring	-8931
▁Finally	-8932
▁figures	-8933
▁scratch	-8934
▁section	-8935
▁whereas	-8936
▁windows	-8937
▁concepts	-8938
▁criminal	-8939
▁obsessed	-8940
▁reaching	-8941
▁recorded	-8942
▁refriger	-8943
▁Alexander	-8944
▁Palestine	-8945
▁component	-8946
▁functions	-8947
▁furniture	-8948
▁selection	-8949
▁teenagers	-8950
▁contribute	-8951
▁dictionary	-8952
▁vulnerability	-8953
oop	-8954
▁GG	-8955
▁Ku	-8956
▁Si	-8957
▁WK	-8958
▁bê	-8959
▁tê	-8960
▁uy	-8961
▁đc	-8962
▁ẩm	-8963
aran	-8964
burg	-8965
iday	-8966
okes	-8967
usal	-8968
utan	-8969
ylon	-8970
▁Sức	-8971
▁Tre	-8972
▁gor	-8973
▁gut	-8974
▁quạ	-8975
▁tựu	-8976
house	-8977
ierra	-8978
irect	-8979
itors	-8980
lobal	-8981
mates	-8982
stage	-8983
stone	-8984
▁Bell	-8985
▁Jord	-8986
▁Matt	-8987
▁knee	-8988
▁surf	-8989
▁vịnh	-8990
arency	-8991
ietnam	-8992
veness	-8993
▁Antar	-8994
▁House	-8995
▁Human	-8996
▁Simon	-8997
▁chrom	-8998
▁initi	-8999
▁stack	-9000
▁surve	-9001
▁tight	-9002
forward	-9003
▁France	-9004
▁behave	-9005
▁church	-9006
▁deploy	-9007
▁encoun	-9008
▁explos	-9009
▁frozen	-9010
▁limits	-9011
▁marath	-9012
▁relate	-9013
▁Wolfram	-9014
▁conserv	-9015
▁existed	-9016
▁guarant	-9017
▁happier	-9018
▁library	-9019
▁poorest	-9020
▁receive	-9021
▁Brooklyn	-9022
▁equation	-9023
▁traveled	-9024
▁afternoon	-9025
▁ignorance	-9026
▁intuitive	-9027
▁precisely	-9028
▁translate	-9029
▁commitment	-9030
▁historical	-9031
▁volunteers	-9032
▁application	-9033
▁distributed	-9034
▁ingredients	-9035
▁evolutionary	-9036
▁technological	-9037
-2	-9038
eo	-9039
tt	-9040
▁Ừ	-9041
asm	-9042
cal	-9043
nik	-9044
pro	-9045
▁Av	-9046
▁CP	-9047
▁Cá	-9048
▁Tư	-9049
▁mỳ	-9050
▁ái	-9051
▁Đo	-9052
anny	-9053
etti	-9054
inda	-9055
oman	-9056
yard	-9057
▁Rog	-9058
▁Sal	-9059
▁Ten	-9060
▁Tác	-9061
▁Unf	-9062
▁kìa	-9063
▁lam	-9064
▁lui	-9065
▁tuỷ	-9066
▁vứt	-9067
▁Nick	-9068
▁Play	-9069
▁Rome	-9070
▁Turn	-9071
▁army	-9072
▁bran	-9073
▁chằm	-9074
▁chớp	-9075
▁clus	-9076
▁leap	-9077
▁mail	-9078
▁pour	-9079
▁tack	-9080
▁tube	-9081
▁zoom	-9082
▁Đảng	-9083
yright	-9084
▁Bible	-9085
▁Hawai	-9086
▁crash	-9087
▁curve	-9088
▁depth	-9089
▁evalu	-9090
▁fixed	-9091
▁flood	-9092
▁infin	-9093
▁khiêm	-9094
▁polar	-9095
▁seeds	-9096
▁split	-9097
▁yield	-9098
▁Arabic	-9099
▁Nathan	-9100
▁chuông	-9101
▁interf	-9102
▁invite	-9103
▁plenty	-9104
▁tribes	-9105
▁volume	-9106
aneously	-9107
▁Central	-9108
▁Vietnam	-9109
▁airport	-9110
▁cheaper	-9111
▁chromos	-9112
▁disturb	-9113
▁evening	-9114
▁license	-9115
▁nowhere	-9116
▁robotic	-9117
▁speaker	-9118
▁touched	-9119
▁Scotland	-9120
▁achieved	-9121
▁captured	-9122
▁combined	-9123
▁district	-9124
▁embedded	-9125
▁practices	-9126
▁statement	-9127
▁appreciate	-9128
▁inequality	-9129
▁journalist	-9130
▁populations	-9131
▁dramatically	-9132
ni	-9133
eps	-9134
hop	-9135
nic	-9136
xin	-9137
▁JH	-9138
▁ug	-9139
▁xà	-9140
agon	-9141
hips	-9142
mble	-9143
zler	-9144
▁000	-9145
▁aim	-9146
▁ate	-9147
▁bốc	-9148
▁nếp	-9149
▁đóm	-9150
aving	-9151
iters	-9152
openh	-9153
osaur	-9154
rence	-9155
▁1984	-9156
▁2030	-9157
▁Bước	-9158
▁Fort	-9159
▁Thưa	-9160
▁dang	-9161
▁lưỡi	-9162
▁ngẩn	-9163
▁võng	-9164
osaurs	-9165
▁Moore	-9166
▁absor	-9167
▁angle	-9168
▁colum	-9169
▁dozen	-9170
▁enemy	-9171
▁innoc	-9172
▁luồng	-9173
▁nhiễu	-9174
▁paras	-9175
▁rooms	-9176
▁smoke	-9177
▁whale	-9178
▁Đường	-9179
erences	-9180
inction	-9181
ription	-9182
▁Intern	-9183
▁Johnny	-9184
▁Julian	-9185
▁Really	-9186
▁Thường	-9187
▁attrib	-9188
▁extent	-9189
▁fossil	-9190
▁hungry	-9191
▁needle	-9192
▁surely	-9193
▁tested	-9194
▁worker	-9195
▁herself	-9196
▁stretch	-9197
▁wanting	-9198
▁Virginia	-9199
▁disorder	-9200
▁dopamine	-9201
▁occurred	-9202
▁trillion	-9203
▁Parkinson	-9204
▁destroyed	-9205
▁elections	-9206
▁increases	-9207
▁accessible	-9208
▁optimistic	-9209
▁photography	-9210
▁successfully	-9211
▁Unfortunately	-9212
HA	-9213
ule	-9214
ups	-9215
▁Ev	-9216
anes	-9217
illy	-9218
onna	-9219
▁Mir	-9220
▁Tah	-9221
▁Văn	-9222
▁bồi	-9223
▁dịp	-9224
▁ron	-9225
▁ven	-9226
cence	-9227
otion	-9228
▁Beij	-9229
▁Chưa	-9230
▁Cont	-9231
▁Dian	-9232
▁Ethi	-9233
▁Luật	-9234
▁ages	-9235
▁bull	-9236
▁chap	-9237
▁gạch	-9238
▁iPod	-9239
▁thắt	-9240
▁đoạt	-9241
Global	-9242
ivered	-9243
▁advoc	-9244
▁champ	-9245
▁flies	-9246
▁hoành	-9247
▁kiêng	-9248
▁ngưng	-9249
▁toler	-9250
▁tweet	-9251
related	-9252
▁Columb	-9253
▁assist	-9254
▁eradic	-9255
▁multip	-9256
▁oldest	-9257
▁Teszler	-9258
▁abandon	-9259
▁anticip	-9260
▁appears	-9261
▁aspects	-9262
▁charity	-9263
▁constit	-9264
▁extinct	-9265
▁imaging	-9266
▁quarter	-9267
▁raising	-9268
▁remains	-9269
▁removed	-9270
▁surgeon	-9271
▁engaging	-9272
▁imagined	-9273
▁meetings	-9274
▁occasion	-9275
▁stations	-9276
▁villages	-9277
▁Tasmanian	-9278
▁household	-9279
▁intention	-9280
▁protected	-9281
▁reference	-9282
▁standards	-9283
▁conservation	-9284
▁expectations	-9285
cel	-9286
isy	-9287
rid	-9288
sec	-9289
▁Os	-9290
▁na	-9291
▁ox	-9292
▁sọ	-9293
▁ấu	-9294
airs	-9295
bits	-9296
izab	-9297
▁10-	-9298
▁Aug	-9299
▁Far	-9300
▁Jud	-9301
▁Six	-9302
▁Syl	-9303
▁Thì	-9304
▁Xem	-9305
▁der	-9306
▁gậy	-9307
▁ngớ	-9308
▁tuỵ	-9309
▁Đơn	-9310
▁đúc	-9311
eness	-9312
ounce	-9313
▁Camp	-9314
▁Giai	-9315
▁Hung	-9316
▁Thêm	-9317
▁blow	-9318
▁icon	-9319
▁nhóc	-9320
▁đuối	-9321
▁đôla	-9322
Americ	-9323
ounced	-9324
▁Alpha	-9325
▁abund	-9326
▁banks	-9327
▁jihad	-9328
▁khoăn	-9329
▁march	-9330
▁proof	-9331
▁proto	-9332
▁score	-9333
▁tries	-9334
▁weigh	-9335
izabeth	-9336
▁Argent	-9337
▁Copenh	-9338
▁evolve	-9339
▁profit	-9340
▁silent	-9341
▁spinal	-9342
▁bicycle	-9343
▁consume	-9344
▁decline	-9345
▁feeding	-9346
▁instant	-9347
▁prosper	-9348
▁Tanzania	-9349
▁breaking	-9350
▁director	-9351
▁mosquito	-9352
▁unlikely	-9353
▁Christian	-9354
▁Elizabeth	-9355
▁TEDGlobal	-9356
▁celebrate	-9357
▁describes	-9358
▁Copenhagen	-9359
▁exploration	-9360
▁instruments	-9361
ba	-9362
Sah	-9363
ado	-9364
cue	-9365
rol	-9366
ửng	-9367
▁Uy	-9368
▁Wa	-9369
▁bể	-9370
▁mỡ	-9371
▁rỉ	-9372
▁xé	-9373
amps	-9374
anna	-9375
atom	-9376
bing	-9377
irds	-9378
lims	-9379
oing	-9380
osen	-9381
rich	-9382
roke	-9383
umin	-9384
▁Ell	-9385
▁Mod	-9386
▁Moz	-9387
▁Sky	-9388
▁Trở	-9389
▁coc	-9390
▁hít	-9391
▁hận	-9392
▁Đứa	-9393
▁đậm	-9394
class	-9395
while	-9396
xiety	-9397
▁Free	-9398
▁Phát	-9399
▁Quay	-9400
▁ants	-9401
▁biom	-9402
▁boom	-9403
▁boss	-9404
▁hoãn	-9405
▁kiss	-9406
▁pace	-9407
▁rely	-9408
inistr	-9409
unning	-9410
▁Julia	-9411
▁Leban	-9412
▁court	-9413
▁decre	-9414
▁fifth	-9415
▁hemis	-9416
▁scary	-9417
iveness	-9418
▁Econom	-9419
▁Mother	-9420
▁Nature	-9421
▁Sierra	-9422
▁agenda	-9423
▁chosen	-9424
▁crying	-9425
▁genius	-9426
▁lovely	-9427
▁missed	-9428
▁rising	-9429
▁slides	-9430
▁Olympic	-9431
▁anthrop	-9432
▁concert	-9433
▁conclud	-9434
▁divided	-9435
▁efforts	-9436
▁savings	-9437
▁suicide	-9438
▁appeared	-9439
▁distract	-9440
▁morality	-9441
▁provided	-9442
▁speakers	-9443
▁breathing	-9444
▁classical	-9445
▁delivered	-9446
▁paintings	-9447
▁presented	-9448
▁telescope	-9449
▁demonstrate	-9450
▁International	-9451
wr	-9452
ym	-9453
ât	-9454
ẽn	-9455
aks	-9456
ani	-9457
iny	-9458
▁Ir	-9459
▁Up	-9460
▁vả	-9461
bage	-9462
east	-9463
erom	-9464
lies	-9465
ngue	-9466
quar	-9467
rawn	-9468
ulse	-9469
▁350	-9470
▁EDI	-9471
▁Hir	-9472
▁Hợp	-9473
▁Ush	-9474
▁Vật	-9475
▁ghê	-9476
▁nhủ	-9477
▁nàn	-9478
▁sed	-9479
alian	-9480
berry	-9481
eters	-9482
▁Bert	-9483
▁Hall	-9484
▁Hành	-9485
▁June	-9486
▁Line	-9487
▁Moon	-9488
▁Nico	-9489
▁cake	-9490
▁debt	-9491
▁hổng	-9492
▁ngột	-9493
▁reli	-9494
▁tiệm	-9495
▁Động	-9496
arents	-9497
called	-9498
engine	-9499
hammad	-9500
usalem	-9501
▁Jones	-9502
▁accum	-9503
▁bones	-9504
▁chest	-9505
▁drone	-9506
▁finds	-9507
▁flour	-9508
▁fluid	-9509
▁orbit	-9510
▁utter	-9511
▁agreed	-9512
▁appeal	-9513
▁finger	-9514
▁ignore	-9515
▁injury	-9516
▁intent	-9517
▁intrig	-9518
▁myster	-9519
▁pherom	-9520
▁placed	-9521
▁satisf	-9522
▁scenar	-9523
▁thrown	-9524
▁Clinton	-9525
▁Nothing	-9526
▁amongst	-9527
▁beliefs	-9528
▁comprom	-9529
▁dioxide	-9530
▁females	-9531
▁orchest	-9532
▁privacy	-9533
▁Children	-9534
▁Muhammad	-9535
▁Palestin	-9536
▁cartoons	-9537
▁measured	-9538
▁properly	-9539
▁recovery	-9540
▁Jerusalem	-9541
▁algorithm	-9542
▁exploring	-9543
▁instantly	-9544
▁connecting	-9545
▁performing	-9546
▁rainforest	-9547
▁neuroscience	-9548
▁participants	-9549
CA	-9550
sp	-9551
ECD	-9552
rix	-9553
▁96	-9554
▁Id	-9555
fast	-9556
imal	-9557
oded	-9558
tail	-9559
uyến	-9560
▁130	-9561
▁192	-9562
▁Acc	-9563
▁Chú	-9564
▁Khá	-9565
▁Men	-9566
▁băn	-9567
▁bầy	-9568
▁gom	-9569
▁gãy	-9570
▁quỷ	-9571
▁spr	-9572
▁vội	-9573
adesh	-9574
ading	-9575
cohol	-9576
ennis	-9577
iform	-9578
inger	-9579
izoph	-9580
lings	-9581
power	-9582
▁Doug	-9583
▁OECD	-9584
▁Phot	-9585
▁Ross	-9586
▁Việt	-9587
▁beer	-9588
▁canh	-9589
▁cens	-9590
▁file	-9591
▁fool	-9592
▁giật	-9593
▁lens	-9594
▁pupp	-9595
▁tatt	-9596
▁zone	-9597
▁điền	-9598
▁4,000	-9599
▁Phòng	-9600
▁anger	-9601
▁coach	-9602
▁grows	-9603
▁nghẽn	-9604
▁nhánh	-9605
▁pilot	-9606
▁pleas	-9607
▁reson	-9608
▁title	-9609
▁units	-9610
▁youth	-9611
iminals	-9612
through	-9613
▁Steven	-9614
▁Sylvia	-9615
▁chuyền	-9616
▁combat	-9617
▁drones	-9618
▁halluc	-9619
▁rescue	-9620
▁robust	-9621
▁talent	-9622
▁anxiety	-9623
▁essence	-9624
▁failing	-9625
▁granted	-9626
▁hackers	-9627
▁imagery	-9628
▁neither	-9629
▁sensory	-9630
▁unclear	-9631
▁Remember	-9632
▁external	-9633
▁marathon	-9634
▁northern	-9635
▁consumers	-9636
▁corporate	-9637
▁curiosity	-9638
▁depending	-9639
▁generated	-9640
▁inspiring	-9641
▁musicians	-9642
▁sculpture	-9643
▁boundaries	-9644
▁functional	-9645
▁microscope	-9646
▁cooperation	-9647
▁explanation	-9648
▁institution	-9649
▁represented	-9650
▁presentation	-9651
▁surprisingly	-9652
RA	-9653
hh	-9654
bru	-9655
opa	-9656
▁72	-9657
▁UC	-9658
ache	-9659
aint	-9660
aire	-9661
ulum	-9662
▁Bud	-9663
▁Màu	-9664
▁Nhờ	-9665
▁bẩm	-9666
▁gel	-9667
▁hat	-9668
▁tro	-9669
▁vất	-9670
ested	-9671
flies	-9672
leton	-9673
riend	-9674
using	-9675
▁Benj	-9676
▁axis	-9677
▁cafe	-9678
▁cats	-9679
▁cord	-9680
▁emer	-9681
▁flew	-9682
▁gien	-9683
▁giáp	-9684
▁hoan	-9685
▁mile	-9686
▁tent	-9687
▁ương	-9688
ements	-9689
erable	-9690
ournal	-9691
▁Broad	-9692
▁adopt	-9693
▁apple	-9694
▁chaos	-9695
▁coord	-9696
▁drill	-9697
▁hydro	-9698
▁minor	-9699
▁pione	-9700
▁sheet	-9701
▁spark	-9702
▁spell	-9703
▁vital	-9704
Saharan	-9705
▁Bosnia	-9706
▁Should	-9707
▁Zimbab	-9708
▁microp	-9709
▁rocket	-9710
▁script	-9711
▁sticks	-9712
▁Babylon	-9713
▁Through	-9714
▁letting	-9715
▁restore	-9716
▁vessels	-9717
▁Leonardo	-9718
▁dolphins	-9719
▁elephant	-9720
▁floating	-9721
▁involves	-9722
▁minister	-9723
▁paradigm	-9724
▁policies	-9725
▁returned	-9726
▁schizoph	-9727
▁shocking	-9728
▁shopping	-9729
▁Something	-9730
▁committed	-9731
▁copyright	-9732
▁dinosaurs	-9733
▁affordable	-9734
▁motivation	-9735
▁struggling	-9736
▁recognition	-9737
▁neighborhoods	-9738
gu	-9739
hr	-9740
PTC	-9741
isa	-9742
nes	-9743
▁42	-9744
▁AK	-9745
▁Sử	-9746
▁bẻ	-9747
▁bồ	-9748
abul	-9749
aled	-9750
coln	-9751
conf	-9752
cred	-9753
oton	-9754
rome	-9755
yram	-9756
▁1.5	-9757
▁193	-9758
▁Giả	-9759
▁Has	-9760
▁Hắn	-9761
▁Lab	-9762
▁Nat	-9763
▁dại	-9764
▁dệt	-9765
▁mầm	-9766
▁phô	-9767
▁súp	-9768
▁tam	-9769
▁đốm	-9770
capes	-9771
cover	-9772
front	-9773
isons	-9774
itory	-9775
otton	-9776
pping	-9777
uting	-9778
▁Math	-9779
▁Show	-9780
▁Sund	-9781
▁chày	-9782
▁dign	-9783
▁firm	-9784
▁flip	-9785
▁hamb	-9786
▁seek	-9787
▁till	-9788
▁ugly	-9789
ommend	-9790
ptions	-9791
▁Leone	-9792
▁Santa	-9793
▁Space	-9794
▁Ushah	-9795
▁actor	-9796
▁album	-9797
▁bears	-9798
▁crops	-9799
▁delic	-9800
▁falls	-9801
▁foods	-9802
▁sales	-9803
▁tasks	-9804
▁traum	-9805
▁trúng	-9806
uration	-9807
▁Indeed	-9808
▁Venice	-9809
▁adjust	-9810
▁locked	-9811
▁orange	-9812
▁richer	-9813
▁stable	-9814
▁stages	-9815
▁stroke	-9816
▁thiêng	-9817
▁Lincoln	-9818
▁Muslims	-9819
▁alcohol	-9820
▁balloon	-9821
▁carried	-9822
▁corresp	-9823
▁crucial	-9824
▁lecture	-9825
▁prepare	-9826
▁synthes	-9827
▁Ethiopia	-9828
▁Zimbabwe	-9829
▁baseball	-9830
▁contains	-9831
▁features	-9832
▁reported	-9833
▁sleeping	-9834
▁Greenland	-9835
▁depressed	-9836
▁separated	-9837
▁uncomfort	-9838
▁apparently	-9839
▁expectancy	-9840
▁protecting	-9841
▁recognized	-9842
▁researcher	-9843
▁ridiculous	-9844
▁personality	-9845
▁underground	-9846
▁automatically	-9847
▁characteristics	-9848
LA	-9849
aza	-9850
ema	-9851
erd	-9852
iza	-9853
sex	-9854
▁86	-9855
▁xứ	-9856
▁ào	-9857
gers	-9858
gged	-9859
mbly	-9860
pest	-9861
roid	-9862
▁Dub	-9863
▁Out	-9864
▁Str	-9865
▁ink	-9866
▁lột	-9867
▁ngư	-9868
▁nhị	-9869
▁nom	-9870
▁nón	-9871
▁rạp	-9872
▁sle	-9873
▁vòm	-9874
▁vặt	-9875
▁wip	-9876
▁Đặc	-9877
achel	-9878
acies	-9879
adays	-9880
allel	-9881
bered	-9882
ifice	-9883
keley	-9884
▁Fred	-9885
▁Hoàn	-9886
▁dies	-9887
▁enzy	-9888
▁hông	-9889
▁nets	-9890
▁perm	-9891
▁phốt	-9892
▁prec	-9893
▁tied	-9894
▁tùng	-9895
▁xoắn	-9896
▁xách	-9897
▁đụng	-9898
abetes	-9899
▁Apoll	-9900
▁Matth	-9901
▁Voice	-9902
▁craft	-9903
▁cryst	-9904
▁guide	-9905
▁holds	-9906
▁honey	-9907
▁phiêu	-9908
▁plain	-9909
▁sướng	-9910
▁tears	-9911
▁trash	-9912
▁unbel	-9913
▁usual	-9914
▁yours	-9915
▁Arctic	-9916
▁August	-9917
▁barely	-9918
▁cheese	-9919
▁colony	-9920
▁ensure	-9921
▁linked	-9922
▁monkey	-9923
▁paraly	-9924
▁trends	-9925
▁General	-9926
▁Pacific	-9927
▁Somalia	-9928
▁defense	-9929
▁density	-9930
▁disrupt	-9931
▁distant	-9932
▁diverse	-9933
▁fathers	-9934
▁impacts	-9935
▁muscles	-9936
▁Jonathan	-9937
▁Ushahidi	-9938
▁dominant	-9939
▁football	-9940
▁improved	-9941
▁musician	-9942
▁organize	-9943
▁overcome	-9944
▁parallel	-9945
▁produces	-9946
▁textbook	-9947
▁wireless	-9948
▁continues	-9949
▁permanent	-9950
▁Department	-9951
▁Geographic	-9952
▁afterwards	-9953
▁architects	-9954
▁directions	-9955
▁strategies	-9956
▁interacting	-9957
▁agricultural	-9958
▁transparency	-9959
▁uncomfortable	-9960
arp	-9961
hry	-9962
lor	-9963
oma	-9964
tes	-9965
uba	-9966
usi	-9967
▁AR	-9968
▁SS	-9969
adel	-9970
igan	-9971
oven	-9972
phia	-9973
west	-9974
▁140	-9975
▁2.0	-9976
▁Cap	-9977
▁McD	-9978
▁Nền	-9979
▁Que	-9980
▁Tok	-9981
▁Tun	-9982
▁Vẫn	-9983
▁cas	-9984
▁gee	-9985
▁ghé	-9986
▁rìa	-9987
▁rộn	-9988
▁uốn	-9989
▁Đạo	-9990
PTCHA	-9991
aping	-9992
archy	-9993
essor	-9994
otter	-9995
state	-9996
urger	-9997
▁Hong	-9998
▁Quân	-9999
▁Tính	-10000
▁bend	-10001
▁demo	-10002
▁dump	-10003
▁tịch	-10004
▁whis	-10005
astics	-10006
opardy	-10007
▁Bangl	-10008
▁Colle	-10009
▁Mount	-10010
▁Never	-10011
▁abuse	-10012
▁aside	-10013
▁brown	-10014
▁dynam	-10015
▁gonna	-10016
▁helic	-10017
▁imper	-10018
▁mixed	-10019
▁nutri	-10020
▁vương	-10021
aghetti	-10022
century	-10023
▁Church	-10024
▁Colomb	-10025
▁Square	-10026
▁agency	-10027
▁capita	-10028
▁curric	-10029
▁enable	-10030
▁escape	-10031
▁filter	-10032
▁neural	-10033
▁repeat	-10034
▁secure	-10035
▁subtle	-10036
▁delight	-10037
▁entered	-10038
▁fishing	-10039
▁lawyers	-10040
▁printed	-10041
▁silicon	-10042
▁suppose	-10043
▁visited	-10044
▁vitamin	-10045
▁Berkeley	-10046
▁attached	-10047
▁controls	-10048
▁creature	-10049
▁equality	-10050
▁estimate	-10051
▁homeless	-10052
▁laughing	-10053
▁lighting	-10054
▁provides	-10055
▁stereoty	-10056
▁administr	-10057
▁calculate	-10058
▁emergency	-10059
▁protocell	-10060
▁recommend	-10061
▁searching	-10062
▁disappoint	-10063
▁electronic	-10064
▁explaining	-10065
▁Neanderthal	-10066
▁controlling	-10067
▁improvement	-10068
▁predictions	-10069
▁psychological	-10070
vy	-10071
ura	-10072
▁Ig	-10073
▁Kr	-10074
▁Po	-10075
▁kề	-10076
▁lọ	-10077
aine	-10078
lear	-10079
lock	-10080
sell	-10081
▁185	-10082
▁Ach	-10083
▁Gil	-10084
▁Kam	-10085
▁Não	-10086
▁Oct	-10087
▁aes	-10088
▁cig	-10089
▁cáp	-10090
▁dow	-10091
▁dập	-10092
▁mốc	-10093
▁ngụ	-10094
▁ooh	-10095
▁sin	-10096
▁toy	-10097
▁tôm	-10098
esign	-10099
orous	-10100
puter	-10101
▁Edin	-10102
▁Marc	-10103
▁Norm	-10104
▁Shir	-10105
▁Sput	-10106
▁biếm	-10107
▁cảng	-10108
▁diam	-10109
▁east	-10110
▁iPad	-10111
▁khan	-10112
▁khen	-10113
▁mice	-10114
▁nhấp	-10115
▁plot	-10116
▁soup	-10117
▁suck	-10118
▁thắn	-10119
▁thốt	-10120
acular	-10121
azeera	-10122
▁Korea	-10123
▁Qatar	-10124
▁Starb	-10125
▁Third	-10126
▁Tokyo	-10127
▁burst	-10128
▁explo	-10129
▁khùng	-10130
▁legis	-10131
▁opens	-10132
▁purch	-10133
▁renew	-10134
▁stone	-10135
▁stops	-10136
▁style	-10137
▁tempt	-10138
▁tired	-10139
▁veter	-10140
▁views	-10141
liament	-10142
unction	-10143
▁Copern	-10144
▁chairs	-10145
▁mining	-10146
▁output	-10147
▁sensor	-10148
▁served	-10149
▁tricks	-10150
▁upload	-10151
▁Cameron	-10152
▁elderly	-10153
▁painted	-10154
▁recover	-10155
▁Columbia	-10156
▁globally	-10157
▁repeated	-10158
▁treating	-10159
▁unbeliev	-10160
▁Argentina	-10161
▁Edinburgh	-10162
▁colleague	-10163
▁encounter	-10164
▁spaghetti	-10165
▁virtually	-10166
▁identified	-10167
▁assumptions	-10168
▁electronics	-10169
▁uncertainty	-10170
▁productivity	-10171
▁demonstration	-10172
any	-10173
dam	-10174
iac	-10175
low	-10176
oli	-10177
▁2,	-10178
▁64	-10179
▁AM	-10180
▁Er	-10181
▁Nữ	-10182
▁SO	-10183
▁Sa	-10184
▁kẽ	-10185
▁kệ	-10186
▁ủi	-10187
amas	-10188
amie	-10189
ares	-10190
icks	-10191
osal	-10192
pass	-10193
uits	-10194
urse	-10195
▁1,5	-10196
▁187	-10197
▁Bet	-10198
▁Ear	-10199
▁Quy	-10200
▁Scr	-10201
▁Win	-10202
▁búa	-10203
▁bực	-10204
▁fet	-10205
▁gai	-10206
▁hol	-10207
▁kem	-10208
▁kẹp	-10209
▁đệm	-10210
anish	-10211
ctica	-10212
itous	-10213
negie	-10214
▁3000	-10215
▁Marg	-10216
▁Phật	-10217
▁chíp	-10218
▁chóc	-10219
▁củng	-10220
▁degr	-10221
▁dism	-10222
▁dive	-10223
▁emph	-10224
▁fung	-10225
▁glac	-10226
▁laid	-10227
▁limb	-10228
▁meal	-10229
▁nhàm	-10230
▁sửng	-10231
phones	-10232
▁Alice	-10233
▁Inter	-10234
▁Marco	-10235
▁Roger	-10236
▁Stage	-10237
▁favel	-10238
▁khoai	-10239
▁loves	-10240
▁persu	-10241
▁prime	-10242
▁therm	-10243
▁toxic	-10244
ogether	-10245
section	-10246
▁Hawaii	-10247
▁Luther	-10248
▁Number	-10249
▁assets	-10250
▁excell	-10251
▁farmer	-10252
▁improv	-10253
▁rarely	-10254
▁stores	-10255
▁thoáng	-10256
▁traged	-10257
▁trucks	-10258
▁victim	-10259
adelphia	-10260
▁Everest	-10261
▁Israeli	-10262
▁Kennedy	-10263
▁Sputnik	-10264
▁closing	-10265
▁diagram	-10266
▁drivers	-10267
▁footage	-10268
▁helicop	-10269
▁liberal	-10270
▁quantum	-10271
▁reduced	-10272
▁staying	-10273
▁Carnegie	-10274
▁Minister	-10275
▁darkness	-10276
▁diabetes	-10277
▁drinking	-10278
▁strongly	-10279
▁Starbucks	-10280
▁accidents	-10281
▁highlight	-10282
▁nutrition	-10283
▁recording	-10284
▁Antarctica	-10285
▁hemisphere	-10286
▁inevitable	-10287
▁phosphorus	-10288
▁prosthetic	-10289
▁resilience	-10290
▁suggesting	-10291
▁vegetables	-10292
▁disappeared	-10293
▁manufacture	-10294
▁schizophren	-10295
▁translation	-10296
▁Philadelphia	-10297
▁instructions	-10298
▁collaborative	-10299
hm	-10300
las	-10301
len	-10302
▁98	-10303
▁DJ	-10304
▁UN	-10305
▁mớ	-10306
▁rỡ	-10307
arre	-10308
ding	-10309
enly	-10310
itud	-10311
olic	-10312
pper	-10313
uity	-10314
wind	-10315
▁Dad	-10316
▁Mùa	-10317
▁Nin	-10318
▁Ooh	-10319
▁Sel	-10320
▁Sud	-10321
▁Sáu	-10322
▁Unt	-10323
▁awk	-10324
▁dồn	-10325
▁gạt	-10326
▁hái	-10327
▁mép	-10328
▁obl	-10329
▁phe	-10330
▁ray	-10331
▁tăm	-10332
▁vịt	-10333
▁xộn	-10334
maker	-10335
night	-10336
osure	-10337
▁....	-10338
▁Anas	-10339
▁Back	-10340
▁Coke	-10341
▁Nair	-10342
▁Nike	-10343
▁None	-10344
▁Tell	-10345
▁Yves	-10346
▁atom	-10347
▁clar	-10348
▁eleg	-10349
▁fulf	-10350
▁huýt	-10351
▁melt	-10352
▁neat	-10353
▁peer	-10354
▁phơi	-10355
▁pref	-10356
▁sits	-10357
▁sulf	-10358
▁sườn	-10359
▁thơm	-10360
▁trag	-10361
▁trùm	-10362
▁đinh	-10363
bruary	-10364
▁Tunis	-10365
▁begun	-10366
▁civic	-10367
▁doors	-10368
▁drove	-10369
▁hyper	-10370
▁lifes	-10371
▁links	-10372
▁lions	-10373
▁outer	-10374
▁redef	-10375
▁roots	-10376
▁unpre	-10377
parents	-10378
▁Apollo	-10379
▁Sunday	-10380
▁Within	-10381
▁borrow	-10382
▁choáng	-10383
▁chướng	-10384
▁ending	-10385
▁extend	-10386
▁fertil	-10387
▁fusion	-10388
▁inches	-10389
▁prices	-10390
▁pushed	-10391
▁scores	-10392
▁senior	-10393
▁shaped	-10394
▁Atlanta	-10395
▁Jazeera	-10396
▁affects	-10397
▁awkward	-10398
▁exposed	-10399
▁hitting	-10400
▁initial	-10401
▁leather	-10402
▁magical	-10403
▁monitor	-10404
▁parties	-10405
▁picking	-10406
▁pretend	-10407
▁scanner	-10408
▁session	-10409
▁Benjamin	-10410
▁February	-10411
▁activist	-10412
▁category	-10413
▁detailed	-10414
▁hormones	-10415
▁insights	-10416
▁shoulder	-10417
▁adventure	-10418
▁constrain	-10419
▁dedicated	-10420
▁passenger	-10421
▁physicist	-10422
▁reduction	-10423
▁sentences	-10424
▁compelling	-10425
▁influenced	-10426
12	-10427
IA	-10428
kg	-10429
ía	-10430
▁Ư	-10431
agg	-10432
asa	-10433
bby	-10434
bie	-10435
fly	-10436
kin	-10437
omp	-10438
▁3.	-10439
▁41	-10440
▁BR	-10441
▁Kì	-10442
▁NL	-10443
▁Vô	-10444
▁Đỏ	-10445
ingo	-10446
itus	-10447
laim	-10448
uces	-10449
uten	-10450
▁2.5	-10451
▁Sib	-10452
▁Sur	-10453
▁Toà	-10454
▁Tạo	-10455
▁bug	-10456
▁dịu	-10457
▁enh	-10458
▁lux	-10459
▁môt	-10460
▁rỗi	-10461
▁đom	-10462
allow	-10463
owers	-10464
rency	-10465
▁1998	-10466
▁Khan	-10467
▁Ngôi	-10468
▁Penn	-10469
▁Rick	-10470
▁Rose	-10471
▁Rằng	-10472
▁Turk	-10473
▁anes	-10474
▁biod	-10475
▁bướm	-10476
▁dust	-10477
▁hier	-10478
▁hill	-10479
▁ngục	-10480
▁nhét	-10481
▁odds	-10482
▁pink	-10483
▁sexy	-10484
▁trèo	-10485
▁tạng	-10486
▁tống	-10487
▁wing	-10488
edding	-10489
mental	-10490
opatch	-10491
▁Fried	-10492
▁Kelly	-10493
▁Mitch	-10494
▁Tesla	-10495
▁Tháng	-10496
▁chief	-10497
▁dirty	-10498
▁dough	-10499
▁drawn	-10500
▁immun	-10501
▁knock	-10502
▁legit	-10503
▁pyram	-10504
▁recru	-10505
▁relax	-10506
▁sauce	-10507
▁skull	-10508
▁thiền	-10509
▁triều	-10510
▁ubiqu	-10511
▁wider	-10512
▁wound	-10513
attered	-10514
▁Global	-10515
▁funded	-10516
▁garage	-10517
▁muscle	-10518
▁powers	-10519
children	-10520
ventions	-10521
▁College	-10522
▁Lebanon	-10523
▁Tempest	-10524
▁ceiling	-10525
▁dignity	-10526
▁hormone	-10527
▁persist	-10528
▁revenue	-10529
▁spreads	-10530
▁welcome	-10531
▁Colombia	-10532
▁Jeopardy	-10533
▁crossing	-10534
▁dialogue	-10535
▁facility	-10536
▁keyboard	-10537
▁openness	-10538
▁Nanopatch	-10539
▁anonymous	-10540
▁dependent	-10541
▁elsewhere	-10542
▁healthier	-10543
▁improving	-10544
▁privilege	-10545
▁suggested	-10546
▁telephone	-10547
▁curriculum	-10548
▁determined	-10549
▁governance	-10550
▁underlying	-10551
▁philosopher	-10552
▁probability	-10553
▁photographed	-10554
▁professionals	-10555
OX	-10556
cô	-10557
ek	-10558
rr	-10559
va	-10560
ẹo	-10561
ịt	-10562
▁Í	-10563
asp	-10564
aws	-10565
bar	-10566
ift	-10567
ses	-10568
two	-10569
ulu	-10570
uts	-10571
wen	-10572
▁Ni	-10573
▁hé	-10574
▁âu	-10575
aves	-10576
eren	-10577
fall	-10578
itic	-10579
mill	-10580
olas	-10581
ship	-10582
viet	-10583
▁Ash	-10584
▁FOX	-10585
▁Fed	-10586
▁Gar	-10587
▁Hol	-10588
▁Ire	-10589
▁Isn	-10590
▁Khu	-10591
▁Mos	-10592
▁Sol	-10593
▁Tài	-10594
▁cub	-10595
▁hàn	-10596
▁mưu	-10597
▁ngừ	-10598
▁râu	-10599
▁rèn	-10600
▁sav	-10601
▁xen	-10602
clock	-10603
copes	-10604
obile	-10605
unter	-10606
▁Army	-10607
▁Ivan	-10608
▁Make	-10609
▁Prof	-10610
▁brut	-10611
▁drum	-10612
▁gieo	-10613
▁grat	-10614
▁irre	-10615
▁khẩn	-10616
▁labs	-10617
▁rail	-10618
▁rats	-10619
▁reef	-10620
▁sket	-10621
▁trọn	-10622
▁túng	-10623
▁vent	-10624
apagos	-10625
employ	-10626
inated	-10627
iously	-10628
mented	-10629
minute	-10630
▁Italy	-10631
▁Watch	-10632
▁Water	-10633
▁phiến	-10634
▁prize	-10635
▁silly	-10636
▁wheat	-10637
▁Scient	-10638
▁Soviet	-10639
▁Warren	-10640
▁adding	-10641
▁arrive	-10642
▁conven	-10643
▁hardly	-10644
▁lawyer	-10645
▁layers	-10646
▁recept	-10647
▁scream	-10648
▁violin	-10649
▁Johnson	-10650
▁Obvious	-10651
▁Russian	-10652
▁Whether	-10653
▁chances	-10654
▁citizen	-10655
▁clients	-10656
▁convert	-10657
▁graphic	-10658
▁nonviol	-10659
▁ongoing	-10660
▁paradox	-10661
▁passing	-10662
▁protest	-10663
▁pulling	-10664
▁rebuild	-10665
▁Anderson	-10666
▁Michigan	-10667
▁Movember	-10668
▁colonies	-10669
▁focusing	-10670
▁inherent	-10671
▁microbes	-10672
▁optimism	-10673
▁perceive	-10674
▁Galapagos	-10675
▁ancestors	-10676
▁backwards	-10677
▁confident	-10678
▁gathering	-10679
▁sacrifice	-10680
▁supermark	-10681
▁supported	-10682
▁transcend	-10683
▁additional	-10684
▁hypothesis	-10685
▁simplicity	-10686
▁smartphone	-10687
▁translated	-10688
▁expressions	-10689
▁breakthrough	-10690
yd	-10691
ớc	-10692
bod	-10693
izz	-10694
▁43	-10695
▁AO	-10696
▁IM	-10697
▁PH	-10698
▁Vũ	-10699
▁dê	-10700
ault	-10701
eman	-10702
kend	-10703
lets	-10704
list	-10705
▁1.2	-10706
▁160	-10707
▁180	-10708
▁Cru	-10709
▁Hon	-10710
▁SMS	-10711
▁Vol	-10712
▁bat	-10713
▁bón	-10714
▁hâm	-10715
▁ion	-10716
▁trễ	-10717
▁tẩy	-10718
▁unp	-10719
▁vần	-10720
▁đục	-10721
emics	-10722
iment	-10723
itate	-10724
oding	-10725
olars	-10726
ureau	-10727
▁Comp	-10728
▁Cour	-10729
▁Dece	-10730
▁Emma	-10731
▁Giới	-10732
▁Joel	-10733
▁Mass	-10734
▁bars	-10735
▁cath	-10736
▁earn	-10737
▁glad	-10738
▁hưng	-10739
▁mall	-10740
▁nurt	-10741
▁toys	-10742
▁trop	-10743
itudes	-10744
weeney	-10745
▁Susan	-10746
▁Under	-10747
▁eaten	-10748
▁fuels	-10749
▁items	-10750
▁nurse	-10751
▁spots	-10752
▁troub	-10753
▁ultra	-10754
▁30,000	-10755
▁40,000	-10756
▁Bhutan	-10757
▁Kansas	-10758
▁Lakota	-10759
▁Listen	-10760
▁Rachel	-10761
▁assess	-10762
▁catast	-10763
▁comedy	-10764
▁observ	-10765
▁settle	-10766
▁silver	-10767
▁smooth	-10768
▁trains	-10769
▁traits	-10770
▁viewer	-10771
▁Beijing	-10772
▁Siberia	-10773
▁Spanish	-10774
▁chimpan	-10775
▁cigaret	-10776
▁concern	-10777
▁enables	-10778
▁ethical	-10779
▁fastest	-10780
▁helpful	-10781
▁serving	-10782
▁smarter	-10783
▁soldier	-10784
▁statist	-10785
▁targets	-10786
▁texting	-10787
▁winning	-10788
▁December	-10789
▁accepted	-10790
▁answered	-10791
▁choosing	-10792
▁circuits	-10793
▁delivery	-10794
▁includes	-10795
▁judgment	-10796
▁organism	-10797
▁precious	-10798
▁refugees	-10799
▁remained	-10800
▁reminded	-10801
▁shooting	-10802
▁breakfast	-10803
▁disorders	-10804
▁documents	-10805
▁forgotten	-10806
▁frequency	-10807
▁hamburger	-10808
▁miserable	-10809
▁ownership	-10810
▁suspended	-10811
▁synthetic	-10812
▁Bangladesh	-10813
▁attractive	-10814
▁categories	-10815
▁industries	-10816
▁integrated	-10817
▁originally	-10818
▁psychopath	-10819
▁genetically	-10820
▁restaurants	-10821
▁specialized	-10822
▁representation	-10823
EA	-10824
úm	-10825
ếm	-10826
ịa	-10827
ốp	-10828
ụi	-10829
har	-10830
ias	-10831
iva	-10832
lar	-10833
spe	-10834
top	-10835
ấng	-10836
▁52	-10837
▁74	-10838
▁93	-10839
▁97	-10840
▁CS	-10841
▁Tế	-10842
▁vớ	-10843
▁Ít	-10844
airo	-10845
aska	-10846
eryl	-10847
oral	-10848
part	-10849
rary	-10850
rics	-10851
umes	-10852
zens	-10853
▁190	-10854
▁30-	-10855
▁Aut	-10856
▁Nep	-10857
▁Oak	-10858
▁Rod	-10859
▁Tib	-10860
▁ain	-10861
▁biz	-10862
▁bộc	-10863
▁cóc	-10864
▁cồn	-10865
▁dơi	-10866
▁dẹp	-10867
▁gre	-10868
▁les	-10869
▁upd	-10870
▁vạn	-10871
▁vọt	-10872
▁wid	-10873
▁xay	-10874
▁Địa	-10875
▁Đột	-10876
▁đòn	-10877
aceut	-10878
aware	-10879
eping	-10880
ester	-10881
ffect	-10882
gging	-10883
iders	-10884
izona	-10885
onald	-10886
▁1995	-10887
▁Dave	-10888
▁Less	-10889
▁Yout	-10890
▁banh	-10891
▁bask	-10892
▁bell	-10893
▁butt	-10894
▁gang	-10895
▁gear	-10896
▁hire	-10897
▁mood	-10898
▁murd	-10899
▁pand	-10900
▁publ	-10901
▁sink	-10902
▁woke	-10903
estion	-10904
friend	-10905
makers	-10906
uctive	-10907
▁Beach	-10908
▁Emily	-10909
▁Hoàng	-10910
▁Ngược	-10911
▁Organ	-10912
▁Sudan	-10913
▁blend	-10914
▁buồng	-10915
▁chips	-10916
▁chiêm	-10917
▁edges	-10918
▁exped	-10919
▁fires	-10920
▁fruit	-10921
▁joint	-10922
▁maxim	-10923
▁pause	-10924
▁phồng	-10925
▁trừng	-10926
▁tubes	-10927
keepers	-10928
▁10.000	-10929
▁Berlin	-10930
▁Norway	-10931
▁Samuel	-10932
▁burden	-10933
▁clinic	-10934
▁dozens	-10935
▁emerge	-10936
▁fought	-10937
▁insist	-10938
▁killer	-10939
▁makers	-10940
▁merely	-10941
osterone	-10942
▁Arizona	-10943
▁Jackson	-10944
▁Seattle	-10945
▁Without	-10946
▁analyze	-10947
▁bedroom	-10948
▁bizarre	-10949
▁consult	-10950
▁engines	-10951
▁federal	-10952
▁fortune	-10953
▁founded	-10954
▁habitat	-10955
▁harness	-10956
▁involve	-10957
▁kingdom	-10958
▁offices	-10959
▁opposed	-10960
▁promote	-10961
▁refugee	-10962
▁routine	-10963
▁suspect	-10964
▁tissues	-10965
▁warning	-10966
▁weekend	-10967
aceutical	-10968
▁attitude	-10969
▁calories	-10970
▁confused	-10971
▁domestic	-10972
▁peaceful	-10973
▁plastics	-10974
▁proposed	-10975
▁reducing	-10976
▁suffered	-10977
▁Obviously	-10978
▁diagnosis	-10979
▁extension	-10980
▁immediate	-10981
▁infection	-10982
▁nonprofit	-10983
▁objective	-10984
▁primarily	-10985
▁procedure	-10986
▁substance	-10987
▁difficulty	-10988
▁facilities	-10989
▁frustrated	-10990
▁operations	-10991
▁Christopher	-10992
▁programming	-10993
▁transparent	-10994
▁experimental	-10995
▁photographer	-10996
▁universities	-10997
▁globalization	-10998
asy	-10999
een	-11000
lan	-11001
nie	-11002
▁58	-11003
▁CN	-11004
▁RS	-11005
▁Xô	-11006
▁lô	-11007
▁đè	-11008
eton	-11009
free	-11010
keys	-11011
onic	-11012
oust	-11013
real	-11014
▁Die	-11015
▁Fox	-11016
▁Mot	-11017
▁Ngu	-11018
▁Seb	-11019
▁bồn	-11020
▁hal	-11021
▁nha	-11022
▁rốt	-11023
▁spo	-11024
▁vẩn	-11025
▁ôtô	-11026
▁ướt	-11027
ademy	-11028
awatt	-11029
cking	-11030
heart	-11031
itage	-11032
otted	-11033
tical	-11034
umbai	-11035
usted	-11036
▁1996	-11037
▁Cath	-11038
▁Clay	-11039
▁Fore	-11040
▁Jean	-11041
▁Mama	-11042
▁Maya	-11043
▁Sáng	-11044
▁Wait	-11045
▁bond	-11046
▁chay	-11047
▁crew	-11048
▁cute	-11049
▁lamp	-11050
▁mate	-11051
▁ngợi	-11052
▁ngửi	-11053
▁ours	-11054
▁pháo	-11055
▁pige	-11056
▁quit	-11057
▁taxi	-11058
▁tech	-11059
▁vắng	-11060
iences	-11061
soever	-11062
▁Elect	-11063
▁Grace	-11064
▁Larry	-11065
▁Medic	-11066
▁Nepal	-11067
▁Princ	-11068
▁Robot	-11069
▁agent	-11070
▁array	-11071
▁disag	-11072
▁funds	-11073
▁incor	-11074
▁monit	-11075
▁naked	-11076
▁nodes	-11077
▁shine	-11078
▁wired	-11079
itating	-11080
▁Jordan	-11081
▁Ladies	-11082
▁Mumbai	-11083
▁actors	-11084
▁arrang	-11085
▁attend	-11086
▁compos	-11087
▁emphas	-11088
▁landed	-11089
▁legacy	-11090
▁poison	-11091
▁regime	-11092
▁retina	-11093
▁tunnel	-11094
▁weapon	-11095
aughters	-11096
cedented	-11097
▁200,000	-11098
▁CAPTCHA	-11099
▁Islands	-11100
▁Sweeney	-11101
▁Youtube	-11102
▁hanging	-11103
▁inspire	-11104
▁manager	-11105
▁nghiêng	-11106
▁penguin	-11107
▁pursuit	-11108
▁rethink	-11109
▁sisters	-11110
▁smiling	-11111
▁Atlantic	-11112
▁Jennifer	-11113
▁Somebody	-11114
▁conclude	-11115
▁drawings	-11116
▁generous	-11117
▁incident	-11118
▁innocent	-11119
▁isolated	-11120
▁magnetic	-11121
▁managers	-11122
▁mobility	-11123
▁pointing	-11124
▁preserve	-11125
▁shifting	-11126
▁southern	-11127
▁unemploy	-11128
▁Princeton	-11129
▁completed	-11130
▁factories	-11131
▁headlines	-11132
▁investors	-11133
▁paralyzed	-11134
▁preparing	-11135
▁accomplish	-11136
▁proportion	-11137
▁prosperity	-11138
▁remembered	-11139
▁retirement	-11140
▁whatsoever	-11141
▁spectacular	-11142
▁grandparents	-11143
▁testosterone	-11144
▁unprecedented	-11145
▁pharmaceutical	-11146
99	-11147
ES	-11148
wl	-11149
mod	-11150
reh	-11151
uty	-11152
ượm	-11153
▁34	-11154
▁47	-11155
▁CC	-11156
▁ES	-11157
▁Hu	-11158
▁IP	-11159
▁Wi	-11160
▁ấp	-11161
,500	-11162
ched	-11163
doll	-11164
four	-11165
inea	-11166
ober	-11167
ocal	-11168
onia	-11169
reme	-11170
walk	-11171
▁20-	-11172
▁Bốn	-11173
▁FGM	-11174
▁Lại	-11175
▁McK	-11176
▁Put	-11177
▁Quả	-11178
▁Sad	-11179
▁bát	-11180
▁bưu	-11181
▁bẫy	-11182
▁chì	-11183
▁dưa	-11184
▁kìm	-11185
▁nâu	-11186
▁tag	-11187
▁tao	-11188
▁xảo	-11189
▁Ước	-11190
ashed	-11191
enter	-11192
ibati	-11193
icked	-11194
istor	-11195
▁1994	-11196
▁Bali	-11197
▁Half	-11198
▁Pret	-11199
▁Same	-11200
▁Sudd	-11201
▁bind	-11202
▁bỏng	-11203
▁clay	-11204
▁dece	-11205
▁leaf	-11206
▁lone	-11207
▁mini	-11208
▁ngây	-11209
▁nuốt	-11210
▁radi	-11211
▁summ	-11212
▁tear	-11213
▁thèm	-11214
▁thạo	-11215
▁watt	-11216
ndrome	-11217
▁Aaron	-11218
▁Hello	-11219
▁March	-11220
▁Saudi	-11221
▁Stone	-11222
▁annoy	-11223
▁armed	-11224
▁audio	-11225
▁banjo	-11226
▁biote	-11227
▁blame	-11228
▁delay	-11229
▁meals	-11230
▁nerve	-11231
▁route	-11232
▁skept	-11233
▁threw	-11234
▁upset	-11235
▁valid	-11236
ascular	-11237
▁Chương	-11238
▁County	-11239
▁Edward	-11240
▁Friday	-11241
▁Taylor	-11242
▁commod	-11243
▁expans	-11244
▁freely	-11245
▁matrix	-11246
▁native	-11247
▁panels	-11248
▁phthal	-11249
▁tongue	-11250
▁voting	-11251
▁waters	-11252
▁widely	-11253
▁Iranian	-11254
▁Ireland	-11255
▁Journal	-11256
▁October	-11257
▁briefly	-11258
▁bubbles	-11259
▁dressed	-11260
▁enterpr	-11261
▁healing	-11262
▁mammals	-11263
▁mindset	-11264
▁observe	-11265
▁onstage	-11266
▁printer	-11267
▁secrets	-11268
▁wealthy	-11269
▁writers	-11270
▁Kiribati	-11271
▁TEDTalks	-11272
▁accounts	-11273
▁aircraft	-11274
▁articles	-11275
▁educated	-11276
▁fabulous	-11277
▁figuring	-11278
▁infinite	-11279
▁Jefferson	-11280
▁economist	-11281
▁interrupt	-11282
▁intuition	-11283
▁physician	-11284
▁remaining	-11285
▁responses	-11286
▁capitalism	-11287
▁illustrate	-11288
▁previously	-11289
▁ubiquitous	-11290
▁description	-11291
▁observation	-11292
▁conservative	-11293
▁intervention	-11294
▁straightforward	-11295
80	-11296
ìu	-11297
aud	-11298
dig	-11299
law	-11300
roc	-11301
yon	-11302
▁Od	-11303
▁SA	-11304
▁Xu	-11305
▁je	-11306
▁xế	-11307
cean	-11308
eday	-11309
eyer	-11310
grad	-11311
half	-11312
mony	-11313
raig	-11314
▁1.3	-11315
▁Bot	-11316
▁Hot	-11317
▁Luc	-11318
▁Tai	-11319
▁bẩy	-11320
▁bến	-11321
▁cay	-11322
▁gig	-11323
▁nạp	-11324
▁phế	-11325
▁rực	-11326
▁tip	-11327
▁tảo	-11328
▁urg	-11329
▁wet	-11330
▁đắm	-11331
allet	-11332
angle	-11333
epher	-11334
erved	-11335
icial	-11336
inity	-11337
itzer	-11338
oning	-11339
▁Alan	-11340
▁Mạch	-11341
▁Post	-11342
▁Romo	-11343
▁Ryan	-11344
▁Stef	-11345
▁Sure	-11346
▁Vịnh	-11347
▁Wind	-11348
▁chùm	-11349
▁crop	-11350
▁dâng	-11351
▁nerd	-11352
▁outr	-11353
▁panc	-11354
▁pile	-11355
▁plug	-11356
▁quận	-11357
▁subs	-11358
▁xoáy	-11359
dollar	-11360
irling	-11361
▁Beeth	-11362
▁Cairo	-11363
▁Giáng	-11364
▁Jonas	-11365
▁Skype	-11366
▁Trông	-11367
▁Young	-11368
▁alien	-11369
▁amate	-11370
▁ambig	-11371
▁arrow	-11372
▁award	-11373
▁cabin	-11374
▁chiên	-11375
▁chron	-11376
▁donor	-11377
▁elite	-11378
▁excit	-11379
▁gotta	-11380
▁horiz	-11381
▁ngươi	-11382
▁punch	-11383
▁schem	-11384
▁slums	-11385
▁virút	-11386
▁Đương	-11387
igation	-11388
inarily	-11389
lfriend	-11390
▁Jewish	-11391
▁Philip	-11392
▁claims	-11393
▁correl	-11394
▁denial	-11395
▁firing	-11396
▁hiding	-11397
▁immigr	-11398
▁uncons	-11399
idential	-11400
▁Academy	-11401
▁Nations	-11402
▁arguing	-11403
▁beating	-11404
▁bottles	-11405
▁clinics	-11406
▁deliber	-11407
▁despair	-11408
▁elected	-11409
▁emerged	-11410
▁formula	-11411
▁fragile	-11412
▁ignored	-11413
▁miracle	-11414
▁rehabil	-11415
▁request	-11416
▁shelter	-11417
▁tragedy	-11418
▁Margaret	-11419
▁Northern	-11420
▁Secondly	-11421
▁Suddenly	-11422
▁bathroom	-11423
▁currency	-11424
▁database	-11425
▁disabled	-11426
▁hardware	-11427
▁nowadays	-11428
▁vertical	-11429
▁Beethoven	-11430
▁announced	-11431
▁broadcast	-11432
▁expanding	-11433
▁performed	-11434
▁predicted	-11435
▁qualities	-11436
▁stability	-11437
▁ecosystems	-11438
▁mechanisms	-11439
▁microphone	-11440
▁newspapers	-11441
▁profoundly	-11442
▁terrifying	-11443
▁unconscious	-11444
▁overwhelming	-11445
▁personalized	-11446
▁grandchildren	-11447
ki	-11448
▁=	-11449
bul	-11450
bye	-11451
ili	-11452
iêm	-11453
rút	-11454
sch	-11455
▁DP	-11456
▁Pu	-11457
▁SR	-11458
▁XL	-11459
▁cộ	-11460
▁uỷ	-11461
▁Đế	-11462
brid	-11463
chia	-11464
fold	-11465
icer	-11466
izer	-11467
onto	-11468
ylac	-11469
▁DAR	-11470
▁Kib	-11471
▁Lớn	-11472
▁Lời	-11473
▁Map	-11474
▁Reg	-11475
▁Tối	-11476
▁Val	-11477
▁ads	-11478
▁fib	-11479
▁lin	-11480
▁mur	-11481
▁nhã	-11482
▁nín	-11483
▁pir	-11484
▁soi	-11485
▁yog	-11486
aming	-11487
eller	-11488
hamed	-11489
idges	-11490
izers	-11491
phony	-11492
▁1975	-11493
▁Fire	-11494
▁Homo	-11495
▁Katr	-11496
▁Lịch	-11497
▁Nghĩ	-11498
▁Ngôn	-11499
▁Nhóm	-11500
▁Thôi	-11501
▁batt	-11502
▁diều	-11503
▁dose	-11504
▁duck	-11505
▁junk	-11506
▁load	-11507
▁luân	-11508
▁nhồi	-11509
▁nhộn	-11510
▁outs	-11511
▁rice	-11512
▁salt	-11513
▁thuỳ	-11514
▁viêm	-11515
▁Đoạn	-11516
imalay	-11517
rolled	-11518
▁Craig	-11519
▁Quyền	-11520
▁Shang	-11521
▁Teach	-11522
▁Titus	-11523
▁Until	-11524
▁Vương	-11525
▁brave	-11526
▁careg	-11527
▁conce	-11528
▁guard	-11529
▁intim	-11530
▁khiếu	-11531
▁nhuộm	-11532
▁thiếp	-11533
▁tooth	-11534
▁trail	-11535
athered	-11536
percent	-11537
reating	-11538
▁Compan	-11539
▁Europa	-11540
▁Jersey	-11541
▁Mathem	-11542
▁Social	-11543
▁Things	-11544
▁Turkey	-11545
▁basket	-11546
▁caring	-11547
▁domain	-11548
▁errors	-11549
▁geomet	-11550
▁habits	-11551
▁nearby	-11552
▁partly	-11553
▁recall	-11554
▁simult	-11555
▁speaks	-11556
▁stimul	-11557
andering	-11558
changing	-11559
▁Himalay	-11560
▁Nairobi	-11561
▁beneath	-11562
▁circles	-11563
▁glasses	-11564
▁located	-11565
▁percept	-11566
▁profile	-11567
▁puzzles	-11568
▁uniform	-11569
▁Lawrence	-11570
▁McDonald	-11571
▁Mitchell	-11572
▁athletes	-11573
▁believes	-11574
▁ceremony	-11575
▁charming	-11576
▁comments	-11577
▁flexible	-11578
▁homework	-11579
▁navigate	-11580
▁reinvent	-11581
▁robotics	-11582
▁candidate	-11583
▁collapsed	-11584
▁daughters	-11585
▁exception	-11586
▁fortunate	-11587
▁guarantee	-11588
▁positions	-11589
▁realizing	-11590
▁temporary	-11591
▁variation	-11592
▁Industrial	-11593
▁Lesterland	-11594
▁autonomous	-11595
▁biologists	-11596
▁comparison	-11597
▁excitement	-11598
▁supporting	-11599
▁threatened	-11600
▁treatments	-11601
▁devastating	-11602
▁neuroscient	-11603
▁surrounding	-11604
▁experiencing	-11605
▁storytelling	-11606
▁communications	-11607
▁interconnected	-11608
bec	-11609
dri	-11610
lli	-11611
▁54	-11612
▁77	-11613
▁AV	-11614
▁Ca	-11615
▁Cụ	-11616
▁Li	-11617
▁nu	-11618
▁od	-11619
▁xá	-11620
▁xô	-11621
▁xả	-11622
acre	-11623
born	-11624
bule	-11625
celi	-11626
husi	-11627
lves	-11628
made	-11629
mail	-11630
oves	-11631
pace	-11632
pled	-11633
riel	-11634
xual	-11635
▁125	-11636
▁900	-11637
▁Abs	-11638
▁Aur	-11639
▁Aye	-11640
▁CNN	-11641
▁Len	-11642
▁Old	-11643
▁Pho	-11644
▁Sou	-11645
▁Tìm	-11646
▁USA	-11647
▁Vin	-11648
▁cyl	-11649
▁gộp	-11650
▁hân	-11651
▁lậu	-11652
▁lội	-11653
geous	-11654
press	-11655
ushed	-11656
▁Arch	-11657
▁Aust	-11658
▁Chad	-11659
▁Conf	-11660
▁Dean	-11661
▁Kiến	-11662
▁Mell	-11663
▁NGOs	-11664
▁Read	-11665
▁Toán	-11666
▁bags	-11667
▁bite	-11668
▁bổng	-11669
▁caps	-11670
▁cert	-11671
▁chat	-11672
▁chec	-11673
▁damn	-11674
▁dear	-11675
▁gate	-11676
▁memb	-11677
▁sùng	-11678
▁thắp	-11679
▁trội	-11680
▁tune	-11681
▁Đáng	-11682
atever	-11683
celium	-11684
epherd	-11685
icient	-11686
▁Diana	-11687
▁Dutch	-11688
▁Kyoto	-11689
▁Laure	-11690
▁Plato	-11691
▁Rives	-11692
▁Sorry	-11693
▁Stand	-11694
▁Swiss	-11695
▁bored	-11696
▁crows	-11697
▁embod	-11698
▁guerr	-11699
▁jelly	-11700
▁khuất	-11701
▁khăng	-11702
▁proph	-11703
▁ratio	-11704
▁sharp	-11705
▁tends	-11706
▁trinh	-11707
essions	-11708
ometown	-11709
usiness	-11710
▁Alaska	-11711
▁Graham	-11712
▁Murray	-11713
▁Oliver	-11714
▁asleep	-11715
▁burned	-11716
▁butter	-11717
▁crimes	-11718
▁endang	-11719
▁ethnic	-11720
▁kidney	-11721
▁marine	-11722
▁nghiền	-11723
▁punish	-11724
▁selves	-11725
▁stored	-11726
▁tackle	-11727
American	-11728
▁Develop	-11729
▁Whereas	-11730
▁authors	-11731
▁besides	-11732
▁courses	-11733
▁demands	-11734
▁flowing	-11735
▁garbage	-11736
▁reminds	-11737
▁reveals	-11738
▁rituals	-11739
▁rolling	-11740
▁threats	-11741
▁washing	-11742
▁wedding	-11743
imination	-11744
▁Catholic	-11745
▁Whatever	-11746
▁activate	-11747
▁artistic	-11748
▁backyard	-11749
▁genetics	-11750
▁listened	-11751
▁mycelium	-11752
▁presents	-11753
▁scenario	-11754
▁sciences	-11755
▁shipping	-11756
▁tendency	-11757
▁transmit	-11758
▁gradually	-11759
▁obstacles	-11760
▁perceived	-11761
▁prisoners	-11762
▁radically	-11763
▁exhibition	-11764
▁structural	-11765
▁consequence	-11766
▁democracies	-11767
▁innovations	-11768
▁schizophrenia	-11769
▁significantly	-11770
Ch	-11771
IS	-11772
fi	-11773
RNA	-11774
rir	-11775
rob	-11776
rog	-11777
yal	-11778
▁CL	-11779
▁Uk	-11780
▁Ze	-11781
▁bế	-11782
▁dỡ	-11783
▁lê	-11784
▁oy	-11785
▁ân	-11786
abad	-11787
agan	-11788
amed	-11789
apor	-11790
asty	-11791
bell	-11792
edge	-11793
enez	-11794
enix	-11795
quis	-11796
ugal	-11797
▁450	-11798
▁Bal	-11799
▁Cầu	-11800
▁Gay	-11801
▁Khả	-11802
▁McG	-11803
▁Pap	-11804
▁Pre	-11805
▁Sea	-11806
▁Tob	-11807
▁cai	-11808
▁cuả	-11809
▁dil	-11810
▁gập	-11811
▁keo	-11812
▁mọt	-11813
▁ngô	-11814
▁ngộ	-11815
▁ria	-11816
▁sói	-11817
▁sếp	-11818
▁via	-11819
▁Ánh	-11820
▁Đan	-11821
aired	-11822
imore	-11823
licit	-11824
peech	-11825
regon	-11826
three	-11827
▁Chất	-11828
▁Food	-11829
▁Hind	-11830
▁Home	-11831
▁Hunt	-11832
▁Kính	-11833
▁Mall	-11834
▁Peru	-11835
▁Tiền	-11836
▁buck	-11837
▁bump	-11838
▁clot	-11839
▁decl	-11840
▁dent	-11841
▁dood	-11842
▁genu	-11843
▁groc	-11844
▁lượm	-11845
▁neoc	-11846
▁nhăn	-11847
▁rope	-11848
▁sett	-11849
▁tone	-11850
▁trêu	-11851
▁verb	-11852
otonin	-11853
▁Coast	-11854
▁Diego	-11855
▁Dubai	-11856
▁Jerry	-11857
▁Keith	-11858
▁Ocean	-11859
▁Qaeda	-11860
▁Stock	-11861
▁Thống	-11862
▁Using	-11863
▁brows	-11864
▁deals	-11865
▁discr	-11866
▁divor	-11867
▁gases	-11868
▁hopes	-11869
▁khoán	-11870
▁meter	-11871
▁rocks	-11872
▁safer	-11873
▁spill	-11874
▁spons	-11875
▁spont	-11876
▁twist	-11877
▁Bertie	-11878
▁Cambod	-11879
▁Guinea	-11880
▁Oregon	-11881
▁Sobule	-11882
▁Ukrain	-11883
▁astero	-11884
▁buried	-11885
▁column	-11886
▁contag	-11887
▁cousin	-11888
▁covers	-11889
▁editor	-11890
▁marker	-11891
▁posted	-11892
▁recipe	-11893
▁sevent	-11894
▁ticket	-11895
▁tragic	-11896
▁unable	-11897
▁wheels	-11898
▁Hawking	-11899
▁Toronto	-11900
▁barrier	-11901
▁compete	-11902
▁folding	-11903
▁lottery	-11904
▁monkeys	-11905
▁pointed	-11906
▁resolve	-11907
▁smoking	-11908
▁symbols	-11909
▁November	-11910
▁Shanghai	-11911
▁barriers	-11912
▁climbing	-11913
▁failures	-11914
▁improvis	-11915
▁purposes	-11916
▁socially	-11917
▁surfaces	-11918
▁survived	-11919
▁throwing	-11920
▁acknowled	-11921
▁agreement	-11922
▁authentic	-11923
▁dimension	-11924
▁expertise	-11925
▁graduated	-11926
▁mosquitos	-11927
▁nutrients	-11928
▁reactions	-11929
▁volunteer	-11930
▁approaches	-11931
▁compromise	-11932
▁continuing	-11933
▁mainstream	-11934
▁mathematic	-11935
▁satellites	-11936
▁traditions	-11937
▁yourselves	-11938
▁constraints	-11939
▁reconstruct	-11940
▁corporations	-11941
▁architectural	-11942
▁interventions	-11943
kh	-11944
boo	-11945
cip	-11946
gal	-11947
iph	-11948
nut	-11949
uum	-11950
▁53	-11951
▁82	-11952
▁BM	-11953
▁MG	-11954
▁hả	-11955
▁rổ	-11956
abit	-11957
away	-11958
coli	-11959
crib	-11960
hire	-11961
ifty	-11962
ller	-11963
long	-11964
mart	-11965
oted	-11966
road	-11967
uate	-11968
unes	-11969
▁15-	-11970
▁Aim	-11971
▁Bọn	-11972
▁Eli	-11973
▁FDA	-11974
▁Hop	-11975
▁Lev	-11976
▁Mas	-11977
▁Mới	-11978
▁Rec	-11979
▁aug	-11980
▁bóp	-11981
▁bới	-11982
▁cra	-11983
▁cẩu	-11984
▁giế	-11985
▁hán	-11986
▁hẻo	-11987
▁khe	-11988
▁lit	-11989
▁mac	-11990
▁rải	-11991
▁vẫy	-11992
▁Đưa	-11993
Women	-11994
ancou	-11995
digit	-11996
impse	-11997
osity	-11998
umble	-11999
▁1945	-12000
▁Bolt	-12001
▁Case	-12002
▁Doha	-12003
▁FOXO	-12004
▁Gall	-12005
▁Kiểu	-12006
▁Lake	-12007
▁Lord	-12008
▁Prot	-12009
▁cash	-12010
▁clue	-12011
▁guid	-12012
▁hors	-12013
▁khâu	-12014
▁khép	-12015
▁khốn	-12016
▁prol	-12017
▁sake	-12018
▁silk	-12019
▁sảnh	-12020
▁triv	-12021
▁wrap	-12022
ashing	-12023
▁Court	-12024
▁Julie	-12025
▁Ngoại	-12026
▁candy	-12027
▁demos	-12028
▁diver	-12029
▁downt	-12030
▁drown	-12031
▁kills	-12032
▁lanes	-12033
▁manif	-12034
▁owned	-12035
▁owner	-12036
▁pairs	-12037
▁pride	-12038
▁tower	-12039
illance	-12040
rasound	-12041
▁12,000	-12042
▁Anyone	-12043
▁Govern	-12044
▁Little	-12045
▁Sebast	-12046
▁breaks	-12047
▁insane	-12048
▁nights	-12049
▁packed	-12050
▁potato	-12051
▁rivers	-12052
▁static	-12053
▁thylac	-12054
▁trương	-12055
ancouver	-12056
▁Freedom	-12057
▁Melinda	-12058
▁analogy	-12059
▁artwork	-12060
▁chapter	-12061
▁compreh	-12062
▁condoms	-12063
▁enthusi	-12064
▁genuine	-12065
▁hunting	-12066
▁immense	-12067
▁officer	-12068
▁package	-12069
▁patents	-12070
▁pockets	-12071
▁traject	-12072
▁whistle	-12073
▁Franklin	-12074
▁Tasmania	-12075
▁applying	-12076
▁arrested	-12077
▁clusters	-12078
▁division	-12079
▁historic	-12080
▁included	-12081
▁magnific	-12082
▁measures	-12083
▁microRNA	-12084
▁offering	-12085
▁pandemic	-12086
▁particle	-12087
▁prostate	-12088
▁restrict	-12089
▁teenager	-12090
▁affecting	-12091
▁audiences	-12092
▁investing	-12093
▁serotonin	-12094
▁strategic	-12095
▁terrorism	-12096
engineering	-12097
▁adolescent	-12098
▁endangered	-12099
▁interviews	-12100
▁calculations	-12101
▁contemporary	-12102
▁dictionaries	-12103
▁independence	-12104
▁unbelievable	-12105
-3	-12106
AS	-12107
fa	-12108
gi	-12109
ww	-12110
êt	-12111
ira	-12112
kel	-12113
opo	-12114
▁Cố	-12115
▁Fa	-12116
▁RG	-12117
▁TS	-12118
▁Xã	-12119
▁tơ	-12120
fred	-12121
itar	-12122
kind	-12123
neys	-12124
outs	-12125
▁Abu	-12126
▁Ark	-12127
▁Bah	-12128
▁Bir	-12129
▁Bru	-12130
▁Chu	-12131
▁Dam	-12132
▁Def	-12133
▁FBI	-12134
▁Fib	-12135
▁bùn	-12136
▁len	-12137
▁nhí	-12138
▁nãy	-12139
▁oct	-12140
▁sỏi	-12141
▁thề	-12142
▁tua	-12143
▁tụt	-12144
▁vàn	-12145
▁vặn	-12146
▁xài	-12147
Point	-12148
alore	-12149
bling	-12150
effic	-12151
enses	-12152
erals	-12153
insky	-12154
oshop	-12155
owitz	-12156
rover	-12157
thals	-12158
▁1992	-12159
▁1997	-12160
▁2020	-12161
▁Balt	-12162
▁Band	-12163
▁Bart	-12164
▁Full	-12165
▁Gary	-12166
▁Gene	-12167
▁Gwen	-12168
▁Jama	-12169
▁July	-12170
▁Lear	-12171
▁Nich	-12172
▁buff	-12173
▁chốn	-12174
▁dawn	-12175
▁fate	-12176
▁gluc	-12177
▁gods	-12178
▁guns	-12179
▁khốc	-12180
▁lean	-12181
▁lượn	-12182
▁neck	-12183
▁ngơi	-12184
▁palm	-12185
▁phôi	-12186
▁pigs	-12187
▁soap	-12188
▁tale	-12189
▁đàng	-12190
iatric	-12191
oliath	-12192
▁Aimee	-12193
▁Alber	-12194
▁Asian	-12195
▁Buddh	-12196
▁Cloud	-12197
▁Light	-12198
▁Louis	-12199
▁Media	-12200
▁Nguồn	-12201
▁Venez	-12202
▁bucks	-12203
▁chặng	-12204
▁fiber	-12205
▁genoc	-12206
▁giếng	-12207
▁inher	-12208
▁juice	-12209
▁mayor	-12210
▁physi	-12211
▁rescu	-12212
▁scaff	-12213
▁spray	-12214
▁strip	-12215
ndering	-12216
▁Walker	-12217
▁anatom	-12218
▁bullet	-12219
▁cultiv	-12220
▁fallen	-12221
▁gained	-12222
▁headed	-12223
▁infant	-12224
▁khoang	-12225
▁manual	-12226
▁orient	-12227
▁sacred	-12228
▁sheets	-12229
▁shrimp	-12230
▁spider	-12231
▁strict	-12232
▁suburb	-12233
▁subway	-12234
▁thresh	-12235
▁topics	-12236
▁typing	-12237
▁Oakland	-12238
▁deserve	-12239
▁destiny	-12240
▁drought	-12241
▁educate	-12242
▁forming	-12243
▁glimpse	-12244
▁happily	-12245
▁prisons	-12246
▁pyramid	-12247
▁readers	-12248
▁reports	-12249
▁teenage	-12250
▁Treasure	-12251
▁Venezuel	-12252
▁autistic	-12253
▁connects	-12254
▁hometown	-12255
▁lifespan	-12256
▁scholars	-12257
▁simplest	-12258
▁syndrome	-12259
▁Baltimore	-12260
▁Bangalore	-12261
▁Professor	-12262
▁Vancouver	-12263
▁blindness	-12264
▁cooperate	-12265
▁estimates	-12266
▁excellent	-12267
▁explosion	-12268
▁installed	-12269
▁locations	-12270
▁officials	-12271
▁parenting	-12272
▁PowerPoint	-12273
▁classrooms	-12274
▁correspond	-12275
▁determines	-12276
▁ecological	-12277
▁elementary	-12278
▁responding	-12279
▁beautifully	-12280
▁desperately	-12281
▁fortunately	-12282
▁foundations	-12283
▁capabilities	-12284
▁collectively	-12285
▁transmission	-12286
ga	-12287
oe	-12288
bốt	-12289
dis	-12290
erb	-12291
erk	-12292
ffe	-12293
lad	-12294
nee	-12295
▁57	-12296
▁Rh	-12297
▁YR	-12298
▁rò	-12299
▁xi	-12300
▁xơ	-12301
▁Đô	-12302
acci	-12303
aman	-12304
aste	-12305
eros	-12306
hall	-12307
icus	-12308
irts	-12309
lers	-12310
ocol	-12311
rior	-12312
seen	-12313
stan	-12314
xter	-12315
▁Ast	-12316
▁Bảy	-12317
▁Kle	-12318
▁Mid	-12319
▁Pen	-12320
▁Teh	-12321
▁Thí	-12322
▁Thú	-12323
▁Tâm	-12324
▁awe	-12325
▁bội	-12326
▁dys	-12327
▁hàu	-12328
▁jew	-12329
▁loa	-12330
▁lứa	-12331
▁mẹo	-12332
▁nap	-12333
▁nắp	-12334
▁nếm	-12335
▁rip	-12336
▁sew	-12337
▁shy	-12338
▁sib	-12339
▁đãi	-12340
▁đồn	-12341
asses	-12342
ching	-12343
ocity	-12344
pless	-12345
rance	-12346
ulses	-12347
▁Chim	-12348
▁Coch	-12349
▁Cảnh	-12350
▁Dưới	-12351
▁Gaza	-12352
▁Gord	-12353
▁Kong	-12354
▁Mach	-12355
▁Nhạc	-12356
▁Open	-12357
▁Rory	-12358
▁Sher	-12359
▁blah	-12360
▁bênh	-12361
▁dumb	-12362
▁excl	-12363
▁fits	-12364
▁heal	-12365
▁hăng	-12366
▁lách	-12367
▁lửng	-12368
▁muôn	-12369
▁nest	-12370
▁ngào	-12371
▁ngắt	-12372
▁nuts	-12373
▁nuối	-12374
▁quạt	-12375
▁rang	-12376
▁rape	-12377
▁rặng	-12378
▁sail	-12379
▁tact	-12380
▁ties	-12381
▁util	-12382
▁vách	-12383
▁Định	-12384
▁đọng	-12385
manuel	-12386
ometer	-12387
onacci	-12388
rowing	-12389
spring	-12390
▁Child	-12391
▁Dường	-12392
▁Niger	-12393
▁Queen	-12394
▁Titan	-12395
▁acids	-12396
▁align	-12397
▁ambit	-12398
▁camps	-12399
▁chess	-12400
▁cliff	-12401
▁coinc	-12402
▁ingen	-12403
▁khiết	-12404
▁liêng	-12405
▁lungs	-12406
▁marry	-12407
▁nhược	-12408
▁panel	-12409
▁sweat	-12410
▁trace	-12411
▁wires	-12412
▁Saturn	-12413
▁Tehran	-12414
▁Truyền	-12415
▁advent	-12416
▁builds	-12417
▁convey	-12418
▁criter	-12419
▁cycles	-12420
▁deadly	-12421
▁immort	-12422
▁linear	-12423
▁marvel	-12424
▁proven	-12425
▁racing	-12426
▁riding	-12427
▁smells	-12428
▁surviv	-12429
▁worthy	-12430
interest	-12431
quarters	-12432
▁Connect	-12433
▁Katrina	-12434
▁Liberia	-12435
▁Phoenix	-12436
▁banking	-12437
▁cybercr	-12438
▁gesture	-12439
▁methane	-12440
▁portion	-12441
▁shocked	-12442
▁simpler	-12443
▁stepped	-12444
▁terrain	-12445
▁Stirling	-12446
▁Williams	-12447
▁covering	-12448
▁explicit	-12449
▁friendly	-12450
▁gathered	-12451
▁gorgeous	-12452
▁graphics	-12453
▁honestly	-12454
▁invested	-12455
▁portrait	-12456
▁reliable	-12457
▁stranger	-12458
▁surgeons	-12459
▁Fibonacci	-12460
▁abandoned	-12461
▁airplanes	-12462
▁bacterial	-12463
▁expansion	-12464
▁initially	-12465
▁mechanics	-12466
▁orchestra	-12467
▁primitive	-12468
▁sexuality	-12469
▁signature	-12470
forestation	-12471
▁aggressive	-12472
▁candidates	-12473
▁challenged	-12474
▁discipline	-12475
▁electrodes	-12476
▁landscapes	-12477
▁medication	-12478
▁mysterious	-12479
▁simulation	-12480
▁telescopes	-12481
▁achievement	-12482
▁demographic	-12483
▁supermarket	-12484
▁Neanderthals	-12485
▁occasionally	-12486
▁psychologist	-12487
▁transforming	-12488
▁concentration	-12489
▁hallucinations	-12490
▁representative	-12491
rh	-12492
ỉa	-12493
600	-12494
MED	-12495
aga	-12496
bus	-12497
cin	-12498
hal	-12499
iro	-12500
▁78	-12501
▁LH	-12502
▁Mô	-12503
▁nạ	-12504
acks	-12505
aken	-12506
clop	-12507
cost	-12508
icit	-12509
ilty	-12510
itra	-12511
lean	-12512
mann	-12513
obyl	-12514
plus	-12515
scar	-12516
star	-12517
▁110	-12518
▁404	-12519
▁CAD	-12520
▁Its	-12521
▁LOL	-12522
▁Mấy	-12523
▁Mối	-12524
▁Mộc	-12525
▁Sev	-12526
▁Suy	-12527
▁dâu	-12528
▁dời	-12529
▁eur	-12530
▁lấn	-12531
▁rệt	-12532
▁sir	-12533
▁toa	-12534
▁tát	-12535
▁váy	-12536
▁Đàn	-12537
▁đan	-12538
▁đun	-12539
adian	-12540
agger	-12541
ennes	-12542
inker	-12543
nders	-12544
orage	-12545
orted	-12546
reens	-12547
ribly	-12548
theon	-12549
urday	-12550
▁1800	-12551
▁Beau	-12552
▁Both	-12553
▁Băng	-12554
▁Cuba	-12555
▁Gard	-12556
▁Greg	-12557
▁MoMA	-12558
▁Mong	-12559
▁Palm	-12560
▁Peps	-12561
▁Plan	-12562
▁Prob	-12563
▁SOPA	-12564
▁Sara	-12565
▁Wiki	-12566
▁Yale	-12567
▁bush	-12568
▁carr	-12569
▁chui	-12570
▁hiếu	-12571
▁keys	-12572
▁lake	-12573
▁mode	-12574
▁rose	-12575
▁seal	-12576
▁shit	-12577
▁slic	-12578
▁sons	-12579
▁stom	-12580
▁suối	-12581
▁unst	-12582
aneous	-12583
itated	-12584
occoli	-12585
rhythm	-12586
thesia	-12587
weight	-12588
▁1,500	-12589
▁Billy	-12590
▁Gando	-12591
▁Harry	-12592
▁Mario	-12593
▁Quảng	-12594
▁Radio	-12595
▁badly	-12596
▁boost	-12597
▁boots	-12598
▁brush	-12599
▁cheat	-12600
▁clues	-12601
▁conqu	-12602
▁cruel	-12603
▁grace	-12604
▁mimic	-12605
▁mines	-12606
▁ngoạn	-12607
▁obese	-12608
▁quăng	-12609
▁reass	-12610
▁stake	-12611
▁stead	-12612
▁worms	-12613
looking	-12614
otherap	-12615
▁25,000	-12616
▁Albert	-12617
▁Alfred	-12618
▁Harlem	-12619
▁Potter	-12620
▁Rather	-12621
▁Secret	-12622
▁agents	-12623
▁brands	-12624
▁chuộng	-12625
▁cotton	-12626
▁hybrid	-12627
▁jumped	-12628
▁loving	-12629
▁luxury	-12630
▁nitric	-12631
▁passes	-12632
▁propag	-12633
▁pursue	-12634
▁raises	-12635
▁strike	-12636
▁theore	-12637
▁tomato	-12638
▁tumors	-12639
standing	-12640
▁Matthew	-12641
▁carries	-12642
▁corrupt	-12643
▁damaged	-12644
▁deepest	-12645
▁exhibit	-12646
▁injured	-12647
▁mapping	-12648
▁neutral	-12649
▁profits	-12650
▁rewards	-12651
▁someday	-12652
▁talents	-12653
▁unhappy	-12654
▁wrapped	-12655
▁Saturday	-12656
▁Southern	-12657
▁Victoria	-12658
▁breeding	-12659
▁channels	-12660
▁cocktail	-12661
▁compound	-12662
▁contrary	-12663
▁criteria	-12664
▁findings	-12665
▁horizont	-12666
▁interven	-12667
▁leverage	-12668
▁momentum	-12669
▁proposal	-12670
▁recycled	-12671
▁redesign	-12672
▁stopping	-12673
▁visually	-12674
▁wildlife	-12675
ographical	-12676
▁Venezuela	-12677
▁abilities	-12678
▁ambitious	-12679
▁believing	-12680
▁bombsight	-12681
▁competing	-12682
▁gentleman	-12683
▁intensive	-12684
▁mushrooms	-12685
▁workforce	-12686
▁Technology	-12687
▁appearance	-12688
▁courageous	-12689
▁disturbing	-12690
▁engineered	-12691
▁girlfriend	-12692
▁helicopter	-12693
▁intriguing	-12694
▁manipulate	-12695
▁suggestion	-12696
▁competitive	-12697
▁discovering	-12698
▁interviewed	-12699
▁legislation	-12700
▁magnificent	-12701
▁contribution	-12702
▁embarrassing	-12703
▁historically	-12704
▁institutional	-12705
▁interestingly	-12706
▁participation	-12707
▁psychologists	-12708
▁simultaneously	-12709
.9	-12710
IC	-12711
ju	-12712
ụa	-12713
▁ơ	-12714
201	-12715
atz	-12716
log	-12717
mat	-12718
mun	-12719
▁68	-12720
▁Gô	-12721
▁Kế	-12722
▁PC	-12723
▁PI	-12724
▁êm	-12725
▁ôi	-12726
▁Đồ	-12727
▁ỏi	-12728
ails	-12729
anka	-12730
artz	-12731
cers	-12732
iece	-12733
igma	-12734
lend	-12735
ocke	-12736
rypt	-12737
▁Blo	-12738
▁Bor	-12739
▁Chữ	-12740
▁Môi	-12741
▁Naz	-12742
▁Nic	-12743
▁Off	-12744
▁Say	-12745
▁Xây	-12746
▁cán	-12747
▁cắn	-12748
▁fis	-12749
▁khử	-12750
▁nứt	-12751
▁quỵ	-12752
▁tie	-12753
▁tạc	-12754
▁đứt	-12755
emies	-12756
ffiti	-12757
sized	-12758
weets	-12759
xious	-12760
▁Anth	-12761
▁Chân	-12762
▁Neil	-12763
▁Poll	-12764
▁Vide	-12765
▁cham	-12766
▁deaf	-12767
▁epis	-12768
▁extr	-12769
▁gaps	-12770
▁lawn	-12771
▁marg	-12772
▁nhát	-12773
▁nhạo	-12774
▁outd	-12775
▁oven	-12776
▁sale	-12777
▁turb	-12778
▁tước	-12779
▁ward	-12780
Speech	-12781
ington	-12782
orious	-12783
tained	-12784
urable	-12785
usting	-12786
▁Chern	-12787
▁Color	-12788
▁Meyer	-12789
▁Oprah	-12790
▁bills	-12791
▁chuối	-12792
▁fancy	-12793
▁flows	-12794
▁grasp	-12795
▁grave	-12796
▁hated	-12797
▁incom	-12798
▁messy	-12799
▁overl	-12800
▁pills	-12801
▁realm	-12802
▁remix	-12803
▁shelf	-12804
▁straw	-12805
▁viral	-12806
osaurus	-12807
theless	-12808
ureaucr	-12809
▁Almost	-12810
▁Barack	-12811
▁Mozart	-12812
▁Norman	-12813
▁TEDMED	-12814
▁annual	-12815
▁decent	-12816
▁flavor	-12817
▁format	-12818
▁grains	-12819
▁guilty	-12820
▁harbor	-12821
▁helium	-12822
▁immers	-12823
▁pigeon	-12824
▁syring	-12825
▁tracks	-12826
▁troops	-12827
▁truths	-12828
▁upside	-12829
▁vacuum	-12830
▁Caltech	-12831
▁Goliath	-12832
▁Scratch	-12833
▁beetles	-12834
▁colored	-12835
▁counsel	-12836
▁dolphin	-12837
▁enjoyed	-12838
▁genomes	-12839
▁hardest	-12840
▁horizon	-12841
▁labeled	-12842
▁minimum	-12843
▁neocort	-12844
▁reclaim	-12845
▁seeking	-12846
▁staring	-12847
▁Although	-12848
▁Olympics	-12849
▁concerns	-12850
▁customer	-12851
▁cylinder	-12852
▁defining	-12853
▁democrat	-12854
▁downtown	-12855
▁extended	-12856
▁fraction	-12857
▁freezing	-12858
▁genocide	-12859
▁graffiti	-12860
▁helpless	-12861
▁replaced	-12862
▁stunning	-12863
▁theories	-12864
▁versions	-12865
▁websites	-12866
▁Chernobyl	-12867
▁aesthetic	-12868
▁answering	-12869
▁astronaut	-12870
▁batteries	-12871
▁conducted	-12872
▁detection	-12873
▁fireflies	-12874
▁offspring	-12875
▁regularly	-12876
▁replicate	-12877
▁resistant	-12878
▁statistic	-12879
▁succeeded	-12880
▁threshold	-12881
▁Copernicus	-12882
▁FreeSpeech	-12883
▁capability	-12884
▁expedition	-12885
▁impression	-12886
▁permission	-12887
▁physicists	-12888
▁prevention	-12889
▁reasonable	-12890
▁trajectory	-12891
▁authorities	-12892
▁consciously	-12893
▁frightening	-12894
▁instruction	-12895
▁limitations	-12896
▁overwhelmed	-12897
▁projections	-12898
▁humanitarian	-12899
▁surveillance	-12900
▁controversial	-12901
▁systematically	-12902
.7	-12903
ko	-12904
sa	-12905
ti	-12906
▁ủ	-12907
100	-12908
aha	-12909
ecd	-12910
ibo	-12911
oko	-12912
ona	-12913
oux	-12914
rod	-12915
rus	-12916
▁84	-12917
▁Az	-12918
▁Uỷ	-12919
▁hở	-12920
▁tớ	-12921
ador	-12922
arin	-12923
atem	-12924
bris	-12925
fire	-12926
iley	-12927
imag	-12928
moud	-12929
olby	-12930
oned	-12931
oody	-12932
pril	-12933
rier	-12934
ties	-12935
ules	-12936
untu	-12937
zees	-12938
▁186	-12939
▁189	-12940
▁360	-12941
▁Ali	-12942
▁Bra	-12943
▁Ext	-12944
▁Haz	-12945
▁Kal	-12946
▁Sin	-12947
▁Ult	-12948
▁Woo	-12949
▁bio	-12950
▁cua	-12951
▁cọc	-12952
▁dồi	-12953
▁jam	-12954
▁jet	-12955
▁lót	-12956
▁ngả	-12957
▁nin	-12958
▁sứa	-12959
▁wow	-12960
▁đạm	-12961
annah	-12962
evity	-12963
gence	-12964
gener	-12965
ilton	-12966
storm	-12967
world	-12968
▁Buổi	-12969
▁Càng	-12970
▁Educ	-12971
▁Mond	-12972
▁Move	-12973
▁Odys	-12974
▁Phía	-12975
▁Soph	-12976
▁Stop	-12977
▁Thần	-12978
▁Tora	-12979
▁Whit	-12980
▁Wond	-12981
▁aunt	-12982
▁beef	-12983
▁chạp	-12984
▁cube	-12985
▁dirt	-12986
▁hipp	-12987
▁incl	-12988
▁inex	-12989
▁kiềm	-12990
▁mars	-12991
▁pole	-12992
▁thốn	-12993
▁trói	-12994
▁volc	-12995
active	-12996
ancers	-12997
driven	-12998
iverse	-12999
lihood	-13000
tering	-13001
▁April	-13002
▁Being	-13003
▁Bruce	-13004
▁Creat	-13005
▁Dolby	-13006
▁Essex	-13007
▁Gehry	-13008
▁Guard	-13009
▁Moses	-13010
▁Pepsi	-13011
▁Small	-13012
▁Tibet	-13013
▁amino	-13014
▁bench	-13015
▁bribe	-13016
▁caves	-13017
▁cello	-13018
▁gramm	-13019
▁hired	-13020
▁khinh	-13021
▁maker	-13022
▁minus	-13023
▁prose	-13024
▁raped	-13025
▁recre	-13026
▁revel	-13027
▁shout	-13028
▁twins	-13029
▁vocal	-13030
▁voted	-13031
▁yards	-13032
faction	-13033
▁Archie	-13034
▁Bonnie	-13035
▁Chuyến	-13036
▁During	-13037
▁Guatem	-13038
▁Michel	-13039
▁Pretty	-13040
▁Tahrir	-13041
▁Tennes	-13042
▁Thương	-13043
▁fundra	-13044
▁iconic	-13045
▁inevit	-13046
▁lonely	-13047
▁modest	-13048
▁nerves	-13049
▁overse	-13050
▁scales	-13051
▁shower	-13052
▁summar	-13053
▁tempor	-13054
▁viscer	-13055
computer	-13056
otherapy	-13057
▁Absolut	-13058
▁Gilbert	-13059
▁Langley	-13060
▁Mahmoud	-13061
▁Mexican	-13062
▁assumed	-13063
▁doubled	-13064
▁glucose	-13065
▁hacking	-13066
▁heading	-13067
▁highway	-13068
▁inmates	-13069
▁logical	-13070
▁outrage	-13071
▁periods	-13072
▁planned	-13073
▁planted	-13074
▁propose	-13075
▁shaking	-13076
▁storage	-13077
▁venture	-13078
▁Africans	-13079
▁Business	-13080
▁TEDWomen	-13081
▁actively	-13082
▁cellular	-13083
▁cheating	-13084
▁clothing	-13085
▁counting	-13086
▁dynamics	-13087
▁earliest	-13088
▁heritage	-13089
▁opinions	-13090
▁randomly	-13091
▁relation	-13092
▁striking	-13093
▁substant	-13094
▁supplies	-13095
▁abundance	-13096
▁biologist	-13097
▁disasters	-13098
▁expecting	-13099
▁hierarchy	-13100
▁illusions	-13101
▁incentive	-13102
▁inflation	-13103
▁involving	-13104
▁judgments	-13105
▁medicines	-13106
▁recession	-13107
▁seemingly	-13108
▁terrified	-13109
▁therapies	-13110
▁assumption	-13111
▁continuous	-13112
▁encouraged	-13113
▁physicians	-13114
▁prediction	-13115
▁reflection	-13116
▁resolution	-13117
▁sculptures	-13118
▁systematic	-13119
▁constructed	-13120
▁encouraging	-13121
▁investments	-13122
▁technically	-13123
▁understands	-13124
▁authoritarian	-13125
▁civilizations	-13126
▁compassionate	-13127
▁computational	-13128
▁rehabilitation	-13129
▁extraordinarily	-13130
CO	-13131
dr	-13132
ez	-13133
ùn	-13134
aby	-13135
awi	-13136
cor	-13137
eem	-13138
hen	-13139
jev	-13140
oks	-13141
vin	-13142
ươc	-13143
▁39	-13144
▁MP	-13145
▁MR	-13146
▁Mi	-13147
▁Sy	-13148
▁dy	-13149
▁ft	-13150
▁rh	-13151
▁sờ	-13152
▁tẻ	-13153
enth	-13154
ieve	-13155
imet	-13156
olen	-13157
olum	-13158
omin	-13159
opus	-13160
redd	-13161
rett	-13162
ucky	-13163
zero	-13164
▁Age	-13165
▁Agn	-13166
▁Bow	-13167
▁Dai	-13168
▁Est	-13169
▁Fil	-13170
▁Ill	-13171
▁Kay	-13172
▁MBA	-13173
▁NBA	-13174
▁Ott	-13175
▁Rus	-13176
▁USD	-13177
▁avo	-13178
▁bam	-13179
▁cạo	-13180
▁dào	-13181
▁hoi	-13182
▁jaw	-13183
▁lọt	-13184
▁nặc	-13185
▁nến	-13186
▁nộp	-13187
▁rớt	-13188
▁sod	-13189
▁thỏ	-13190
▁xốp	-13191
▁Đâu	-13192
▁đốn	-13193
under	-13194
▁1989	-13195
▁Cuốn	-13196
▁Hiệu	-13197
▁Mạng	-13198
▁Năng	-13199
▁PIPA	-13200
▁Pear	-13201
▁UCLA	-13202
▁Viết	-13203
▁apps	-13204
▁calm	-13205
▁chật	-13206
▁chọi	-13207
▁cuts	-13208
▁cưỡi	-13209
▁forb	-13210
▁giàn	-13211
▁găng	-13212
▁herd	-13213
▁infl	-13214
▁ngủi	-13215
▁nhấc	-13216
▁node	-13217
▁phàn	-13218
▁prev	-13219
▁quẩn	-13220
▁rong	-13221
▁solo	-13222
▁span	-13223
▁sưởi	-13224
▁wins	-13225
▁đính	-13226
acking	-13227
elines	-13228
person	-13229
reatic	-13230
utions	-13231
▁Brend	-13232
▁Denis	-13233
▁Greek	-13234
▁Oscar	-13235
▁Serge	-13236
▁Seven	-13237
▁Solly	-13238
▁Start	-13239
▁Thuật	-13240
▁Turns	-13241
▁arbit	-13242
▁blogs	-13243
▁cares	-13244
▁entry	-13245
▁farms	-13246
▁fatal	-13247
▁inhib	-13248
▁nguội	-13249
▁orang	-13250
▁paste	-13251
▁penis	-13252
▁phích	-13253
▁ships	-13254
▁spare	-13255
▁squee	-13256
▁stair	-13257
▁thừng	-13258
▁vivid	-13259
▁vướng	-13260
▁winds	-13261
abulary	-13262
itative	-13263
ruption	-13264
sterdam	-13265
▁Arabia	-13266
▁Greece	-13267
▁Justin	-13268
▁Kibera	-13269
▁Online	-13270
▁amazed	-13271
▁beetle	-13272
▁campus	-13273
▁client	-13274
▁formal	-13275
▁magnet	-13276
▁motors	-13277
▁namely	-13278
▁safely	-13279
▁scenes	-13280
▁tattoo	-13281
▁wooden	-13282
elescope	-13283
▁Anybody	-13284
▁Philipp	-13285
▁Similar	-13286
▁Someone	-13287
▁Stanley	-13288
▁cooling	-13289
▁easiest	-13290
▁enemies	-13291
▁favelas	-13292
▁generic	-13293
▁intrins	-13294
▁jumping	-13295
▁millenn	-13296
▁secular	-13297
▁selfish	-13298
▁stomach	-13299
▁toilets	-13300
▁trigger	-13301
▁TEDsters	-13302
▁accompan	-13303
▁advances	-13304
▁approved	-13305
▁attacked	-13306
▁broccoli	-13307
▁detector	-13308
▁incorpor	-13309
▁informed	-13310
▁injuries	-13311
▁kindness	-13312
▁lectures	-13313
▁observed	-13314
▁progeria	-13315
▁rejected	-13316
▁switched	-13317
▁touching	-13318
▁vacation	-13319
▁Guatemala	-13320
▁Tennessee	-13321
▁associate	-13322
▁container	-13323
▁correctly	-13324
▁criminals	-13325
▁electrons	-13326
▁empowered	-13327
▁favorites	-13328
▁longevity	-13329
▁motivated	-13330
▁phenomena	-13331
▁realistic	-13332
▁receiving	-13333
▁reproduce	-13334
▁tolerance	-13335
▁universes	-13336
▁assignment	-13337
▁calculated	-13338
▁catastroph	-13339
▁disability	-13340
▁frequently	-13341
▁impressive	-13342
▁ingredient	-13343
▁likelihood	-13344
▁meditation	-13345
▁monitoring	-13346
▁nonviolent	-13347
▁regardless	-13348
▁remarkably	-13349
▁ultrasound	-13350
▁Palestinian	-13351
▁acknowledge	-13352
▁approaching	-13353
▁chimpanzees	-13354
▁computation	-13355
▁discoveries	-13356
▁documentary	-13357
▁established	-13358
▁partnership	-13359
▁proposition	-13360
▁replacement	-13361
▁Organization	-13362
▁installation	-13363
▁temperatures	-13364
▁improvisation	-13365
ET	-13366
zo	-13367
eav	-13368
eds	-13369
gia	-13370
oos	-13371
syl	-13372
urf	-13373
yre	-13374
ệch	-13375
▁00	-13376
▁67	-13377
▁AG	-13378
▁BP	-13379
▁DD	-13380
▁IQ	-13381
▁Ut	-13382
▁ZK	-13383
▁bì	-13384
▁cớ	-13385
▁eB	-13386
▁kg	-13387
▁vã	-13388
▁ôn	-13389
▁ắc	-13390
enny	-13391
ergy	-13392
ulty	-13393
▁12-	-13394
▁Bil	-13395
▁Căn	-13396
▁Cứu	-13397
▁Dal	-13398
▁Dor	-13399
▁Git	-13400
▁Gra	-13401
▁Han	-13402
▁Hmm	-13403
▁INC	-13404
▁Kep	-13405
▁Kos	-13406
▁Nik	-13407
▁Nỗi	-13408
▁Pic	-13409
▁Row	-13410
▁Shi	-13411
▁Sri	-13412
▁Thị	-13413
▁Thủ	-13414
▁Trí	-13415
▁Voy	-13416
▁Wis	-13417
▁bọt	-13418
▁bời	-13419
▁cằn	-13420
▁daf	-13421
▁doo	-13422
▁gắt	-13423
▁hao	-13424
▁hun	-13425
▁hut	-13426
▁jan	-13427
▁lex	-13428
▁tít	-13429
▁xấp	-13430
aches	-13431
adium	-13432
ambia	-13433
arest	-13434
chron	-13435
copic	-13436
ensus	-13437
eries	-13438
illas	-13439
inter	-13440
leans	-13441
oting	-13442
umara	-13443
vania	-13444
▁Coun	-13445
▁Dick	-13446
▁Diet	-13447
▁Evan	-13448
▁Ferr	-13449
▁Hope	-13450
▁Jake	-13451
▁Joey	-13452
▁Karl	-13453
▁Kate	-13454
▁Kent	-13455
▁Kids	-13456
▁Lama	-13457
▁Mười	-13458
▁Soci	-13459
▁Supp	-13460
▁Tuổi	-13461
▁bowl	-13462
▁calc	-13463
▁chốc	-13464
▁disg	-13465
▁hint	-13466
▁loan	-13467
▁mask	-13468
▁mast	-13469
▁ngạo	-13470
▁phớt	-13471
▁seas	-13472
▁subt	-13473
▁thus	-13474
▁tiệt	-13475
▁vary	-13476
asking	-13477
income	-13478
istory	-13479
ograms	-13480
olitan	-13481
▁Ahmed	-13482
▁Carib	-13483
▁Eight	-13484
▁Jacqu	-13485
▁Maria	-13486
▁Phong	-13487
▁Sleep	-13488
▁Spain	-13489
▁Tarah	-13490
▁Thula	-13491
▁Thỉnh	-13492
▁Weibo	-13493
▁ambul	-13494
▁artic	-13495
▁khoác	-13496
▁knife	-13497
▁lifel	-13498
▁loose	-13499
▁roles	-13500
▁screw	-13501
▁thiêu	-13502
▁toast	-13503
▁yeast	-13504
ilation	-13505
▁60,000	-13506
▁Cooper	-13507
▁Kepler	-13508
▁Miller	-13509
▁Spring	-13510
▁Twenty	-13511
▁apples	-13512
▁bother	-13513
▁empath	-13514
▁execut	-13515
▁frames	-13516
▁legend	-13517
▁nightm	-13518
▁prepar	-13519
▁rhythm	-13520
▁shifts	-13521
▁stabil	-13522
▁stolen	-13523
▁tribal	-13524
▁valley	-13525
▁winner	-13526
clopedia	-13527
sylvania	-13528
▁Environ	-13529
▁Hopkins	-13530
▁Italian	-13531
▁Orleans	-13532
▁Switzer	-13533
▁belongs	-13534
▁beloved	-13535
▁crossed	-13536
▁descend	-13537
▁elegant	-13538
▁fantasy	-13539
▁follows	-13540
▁glacier	-13541
▁grocery	-13542
▁honesty	-13543
▁origins	-13544
▁passive	-13545
▁rescued	-13546
▁strings	-13547
▁trapped	-13548
▁useless	-13549
▁Arkansas	-13550
▁Maryland	-13551
▁Ministry	-13552
▁Nicholas	-13553
▁Pantheon	-13554
▁autonomy	-13555
▁coverage	-13556
▁entering	-13557
▁exposure	-13558
▁ideology	-13559
▁overhead	-13560
▁overseas	-13561
▁pleasant	-13562
▁scanning	-13563
▁shepherd	-13564
▁tangible	-13565
▁worrying	-13566
ustainable	-13567
▁Biosphere	-13568
▁Sebastian	-13569
▁attitudes	-13570
▁eliminate	-13571
▁filmmaker	-13572
▁jellyfish	-13573
▁occurring	-13574
▁workplace	-13575
▁Mathematic	-13576
▁Tarahumara	-13577
▁confronted	-13578
▁destroying	-13579
▁generosity	-13580
▁infections	-13581
▁narratives	-13582
▁politician	-13583
▁professors	-13584
▁vocabulary	-13585
▁Switzerland	-13586
▁chromosomes	-13587
▁predictable	-13588
▁programmers	-13589
▁realization	-13590
▁Pennsylvania	-13591
▁accomplished	-13592
▁refrigerator	-13593
▁significance	-13594
,7	-13595
gl	-13596
ui	-13597
ún	-13598
▁ừ	-13599
800	-13600
abs	-13601
agu	-13602
arg	-13603
cho	-13604
ete	-13605
hea	-13606
lav	-13607
ogy	-13608
omi	-13609
pos	-13610
wan	-13611
weg	-13612
▁94	-13613
▁Cy	-13614
▁Kỹ	-13615
▁Pa	-13616
▁Ur	-13617
▁Vị	-13618
▁Xe	-13619
▁Yo	-13620
▁bỉ	-13621
▁mị	-13622
▁ol	-13623
▁ts	-13624
▁yo	-13625
▁Ảo	-13626
acon	-13627
alin	-13628
asso	-13629
bean	-13630
erto	-13631
gram	-13632
iate	-13633
icut	-13634
igen	-13635
jevo	-13636
mate	-13637
mind	-13638
orph	-13639
otte	-13640
pres	-13641
uman	-13642
ynth	-13643
▁Alt	-13644
▁Buy	-13645
▁Báo	-13646
▁Của	-13647
▁Dec	-13648
▁Dig	-13649
▁Joh	-13650
▁Max	-13651
▁RNA	-13652
▁Trò	-13653
▁Wol	-13654
▁cưa	-13655
▁eco	-13656
▁gạo	-13657
▁gớm	-13658
▁háo	-13659
▁lon	-13660
▁lụa	-13661
▁mìn	-13662
▁nob	-13663
▁pad	-13664
▁rìu	-13665
▁trá	-13666
▁trệ	-13667
▁vel	-13668
▁vùi	-13669
actic	-13670
arten	-13671
fting	-13672
▁1986	-13673
▁2013	-13674
▁Beat	-13675
▁Biết	-13676
▁Chúc	-13677
▁Dịch	-13678
▁Hard	-13679
▁Keep	-13680
▁Limb	-13681
▁Nghị	-13682
▁Saul	-13683
▁Type	-13684
▁Whoa	-13685
▁ampl	-13686
▁axit	-13687
▁cass	-13688
▁cope	-13689
▁craw	-13690
▁dens	-13691
▁dưng	-13692
▁dẳng	-13693
▁ghen	-13694
▁gram	-13695
▁mesh	-13696
▁mild	-13697
▁ngọc	-13698
▁nhục	-13699
▁obsc	-13700
▁obso	-13701
▁odor	-13702
▁rent	-13703
▁thảy	-13704
▁tuộc	-13705
▁unle	-13706
▁urge	-13707
▁vành	-13708
▁vựng	-13709
▁điếu	-13710
arians	-13711
econom	-13712
ilated	-13713
orough	-13714
rained	-13715
vasive	-13716
vation	-13717
▁6,000	-13718
▁Brand	-13719
▁Dalai	-13720
▁Intel	-13721
▁Psych	-13722
▁Sioux	-13723
▁Still	-13724
▁Tranh	-13725
▁Video	-13726
▁anten	-13727
▁aspir	-13728
▁consp	-13729
▁couch	-13730
▁depos	-13731
▁dilem	-13732
▁giáng	-13733
▁heter	-13734
▁infer	-13735
▁jewel	-13736
▁knees	-13737
▁lever	-13738
▁lists	-13739
▁nhúng	-13740
▁norms	-13741
▁oxide	-13742
▁panic	-13743
▁parks	-13744
▁paths	-13745
▁phanh	-13746
▁sched	-13747
▁sheer	-13748
▁shore	-13749
▁shots	-13750
▁tràng	-13751
▁wrest	-13752
▁zones	-13753
fulness	-13754
powered	-13755
thetics	-13756
ulative	-13757
▁Browne	-13758
▁Carter	-13759
▁Dennis	-13760
▁Norweg	-13761
▁Stefan	-13762
▁Studio	-13763
▁Yellow	-13764
▁accent	-13765
▁apolog	-13766
▁canvas	-13767
▁chains	-13768
▁condom	-13769
▁config	-13770
▁insert	-13771
▁intact	-13772
▁khuếch	-13773
▁manner	-13774
▁mapped	-13775
▁mentor	-13776
▁occurs	-13777
▁pedest	-13778
▁plates	-13779
▁retail	-13780
▁tables	-13781
▁thrive	-13782
▁unfair	-13783
▁wasted	-13784
anthropy	-13785
▁Anthony	-13786
▁Tunisia	-13787
▁adopted	-13788
▁altered	-13789
▁basking	-13790
▁bridges	-13791
▁cancers	-13792
▁corners	-13793
▁enabled	-13794
▁islands	-13795
▁laptops	-13796
▁octopus	-13797
▁squared	-13798
▁symptom	-13799
▁tension	-13800
▁texture	-13801
▁visions	-13802
▁Cambodia	-13803
▁Cochrane	-13804
▁Egyptian	-13805
▁accuracy	-13806
▁blocking	-13807
▁boundary	-13808
▁branches	-13809
▁diagnost	-13810
▁elevator	-13811
▁embodied	-13812
▁feminist	-13813
▁intended	-13814
▁literacy	-13815
▁managing	-13816
▁manifest	-13817
▁passions	-13818
▁siblings	-13819
▁smallest	-13820
▁spinning	-13821
▁underest	-13822
▁Telescope	-13823
▁addiction	-13824
▁amazingly	-13825
▁attracted	-13826
▁convicted	-13827
▁dominated	-13828
▁embracing	-13829
▁equations	-13830
▁estimated	-13831
▁integrate	-13832
▁isolation	-13833
▁obsession	-13834
▁reflected	-13835
▁responded	-13836
▁Absolutely	-13837
▁automobile	-13838
▁chromosome	-13839
▁congestion	-13840
▁consistent	-13841
▁metabolism	-13842
▁pancreatic	-13843
▁practicing	-13844
▁procedures	-13845
▁quantities	-13846
▁regenerate	-13847
▁sanitation	-13848
▁Connecticut	-13849
▁calculation	-13850
▁destination	-13851
▁journalists	-13852
▁preparation	-13853
▁regulations	-13854
▁researching	-13855
▁authenticity	-13856
▁measurements	-13857
▁deforestation	-13858
▁philosophical	-13859
▁interpretation	-13860
40	-13861
Pr	-13862
và	-13863
ũa	-13864
ẹt	-13865
ợm	-13866
▁Ă	-13867
dad	-13868
iju	-13869
ker	-13870
nat	-13871
nov	-13872
ori	-13873
▁76	-13874
▁AT	-13875
▁Aw	-13876
▁HP	-13877
▁Ow	-13878
▁SB	-13879
▁nộ	-13880
▁tở	-13881
colm	-13882
emon	-13883
erer	-13884
etts	-13885
flix	-13886
fund	-13887
holm	-13888
itha	-13889
itty	-13890
mond	-13891
moor	-13892
otto	-13893
teen	-13894
▁Add	-13895
▁CIA	-13896
▁Cla	-13897
▁Cây	-13898
▁Cục	-13899
▁Emp	-13900
▁Leo	-13901
▁Lyn	-13902
▁Naj	-13903
▁Sco	-13904
▁Spe	-13905
▁Sum	-13906
▁Tar	-13907
▁Try	-13908
▁Tso	-13909
▁Tóm	-13910
▁Tập	-13911
▁Way	-13912
▁củi	-13913
▁hen	-13914
▁lụt	-13915
▁mác	-13916
▁méo	-13917
▁nới	-13918
▁rib	-13919
▁vắt	-13920
▁woo	-13921
▁đặn	-13922
achus	-13923
atops	-13924
iance	-13925
ifact	-13926
inent	-13927
inery	-13928
lfare	-13929
plete	-13930
▁Andy	-13931
▁Bono	-13932
▁Brad	-13933
▁Cape	-13934
▁Deep	-13935
▁Hosp	-13936
▁Pers	-13937
▁Phục	-13938
▁Pitt	-13939
▁Wang	-13940
▁alph	-13941
▁blur	-13942
▁buồm	-13943
▁cage	-13944
▁cành	-13945
▁dare	-13946
▁drew	-13947
▁hurd	-13948
▁kiều	-13949
▁láng	-13950
▁nhại	-13951
▁nhọn	-13952
▁nhức	-13953
▁pays	-13954
▁porn	-13955
▁subm	-13956
▁symp	-13957
▁tụng	-13958
acious	-13959
atical	-13960
eaking	-13961
effect	-13962
emical	-13963
estone	-13964
inking	-13965
lining	-13966
orient	-13967
orters	-13968
redict	-13969
strong	-13970
urning	-13971
▁Bayes	-13972
▁Freud	-13973
▁Glass	-13974
▁Helen	-13975
▁Jason	-13976
▁Jimmy	-13977
▁Johns	-13978
▁Linux	-13979
▁Roman	-13980
▁Trang	-13981
▁altru	-13982
▁awake	-13983
▁bless	-13984
▁boats	-13985
▁cable	-13986
▁cared	-13987
▁chinh	-13988
▁chích	-13989
▁comic	-13990
▁ethic	-13991
▁gamma	-13992
▁loyal	-13993
▁pulse	-13994
▁reput	-13995
▁sands	-13996
▁scans	-13997
▁shirt	-13998
▁sizes	-13999
▁sperm	-14000
▁tiger	-14001
▁towel	-14002
▁woods	-14003
inguish	-14004
osexual	-14005
▁Achill	-14006
▁Aurora	-14007
▁Donald	-14008
▁Public	-14009
▁Rezero	-14010
▁Thirty	-14011
▁Wilson	-14012
▁beaten	-14013
▁calend	-14014
▁choàng	-14015
▁cosmic	-14016
▁dating	-14017
▁donors	-14018
▁emails	-14019
▁endeav	-14020
▁enzyme	-14021
▁excess	-14022
▁fisher	-14023
▁fruits	-14024
▁graphs	-14025
▁helmet	-14026
▁lowest	-14027
▁masses	-14028
▁planes	-14029
▁reader	-14030
▁relief	-14031
▁remitt	-14032
▁rolled	-14033
▁thread	-14034
▁underm	-14035
ximately	-14036
▁150,000	-14037
▁500,000	-14038
▁Country	-14039
▁Malcolm	-14040
▁Russell	-14041
▁Society	-14042
▁Voyager	-14043
▁absence	-14044
▁archive	-14045
▁blogger	-14046
▁budgets	-14047
▁charged	-14048
▁counted	-14049
▁dancers	-14050
▁forgive	-14051
▁founder	-14052
▁laughed	-14053
▁longest	-14054
▁museums	-14055
▁powered	-14056
▁priorit	-14057
▁regrets	-14058
▁richest	-14059
▁sensing	-14060
▁seventh	-14061
▁shifted	-14062
▁squares	-14063
▁stadium	-14064
▁streams	-14065
▁teaches	-14066
▁telecom	-14067
▁trivial	-14068
efficient	-14069
▁Sarajevo	-14070
▁Together	-14071
▁altitude	-14072
▁artifact	-14073
▁consumed	-14074
▁explores	-14075
▁famously	-14076
▁magician	-14077
▁membrane	-14078
▁mentally	-14079
▁obsolete	-14080
▁pathways	-14081
▁pipeline	-14082
▁reflects	-14083
▁scaffold	-14084
▁talented	-14085
▁variable	-14086
▁visceral	-14087
▁Amsterdam	-14088
▁Broadmoor	-14089
▁Photoshop	-14090
▁activists	-14091
▁celebrity	-14092
▁comparing	-14093
▁diplomacy	-14094
▁elephants	-14095
▁massively	-14096
▁metabolic	-14097
▁mutations	-14098
▁producers	-14099
▁vegetable	-14100
▁Christians	-14101
▁Parliament	-14102
▁accurately	-14103
▁apartments	-14104
▁commission	-14105
▁exceptions	-14106
▁extinction	-14107
▁friendship	-14108
▁irrational	-14109
▁pheromones	-14110
▁privileged	-14111
▁publishing	-14112
▁Mathematica	-14113
▁astronomers	-14114
▁collaborate	-14115
▁discussions	-14116
▁emotionally	-14117
▁illustrates	-14118
▁stereotypes	-14119
▁biodiversity	-14120
▁observations	-14121
▁perspectives	-14122
▁communicating	-14123
▁discrimination	-14124
▁entrepreneurial	-14125
EF	-14126
EG	-14127
su	-14128
uf	-14129
yg	-14130
õm	-14131
300	-14132
aba	-14133
bow	-14134
nge	-14135
oir	-14136
ỳnh	-14137
▁Bỏ	-14138
▁IK	-14139
▁TH	-14140
▁Uh	-14141
▁Vụ	-14142
▁bự	-14143
▁om	-14144
aque	-14145
atma	-14146
cale	-14147
corn	-14148
food	-14149
horn	-14150
iatr	-14151
iful	-14152
otes	-14153
usty	-14154
▁ESG	-14155
▁Hit	-14156
▁Mao	-14157
▁Mau	-14158
▁Nội	-14159
▁Oxy	-14160
▁Sai	-14161
▁Sex	-14162
▁Tạp	-14163
▁cào	-14164
▁fer	-14165
▁geo	-14166
▁ger	-14167
▁hey	-14168
▁kit	-14169
▁kép	-14170
▁nud	-14171
▁nấc	-14172
▁nực	-14173
▁phả	-14174
▁pra	-14175
▁tid	-14176
▁toạ	-14177
▁vỉa	-14178
Qaeda	-14179
berty	-14180
break	-14181
elect	-14182
elled	-14183
found	-14184
icill	-14185
mbled	-14186
oples	-14187
ouses	-14188
▁1988	-14189
▁1993	-14190
▁Bach	-14191
▁Barb	-14192
▁Best	-14193
▁Chết	-14194
▁Diễn	-14195
▁Fall	-14196
▁Jews	-14197
▁Juan	-14198
▁Kiva	-14199
▁Luke	-14200
▁Luân	-14201
▁Neur	-14202
▁Nhất	-14203
▁Pale	-14204
▁Phân	-14205
▁Pran	-14206
▁Quần	-14207
▁Sean	-14208
▁Shah	-14209
▁Tuần	-14210
▁Từng	-14211
▁Virt	-14212
▁Wood	-14213
▁bats	-14214
▁bugs	-14215
▁buzz	-14216
▁carp	-14217
▁chop	-14218
▁coat	-14219
▁cows	-14220
▁diễu	-14221
▁edit	-14222
▁exha	-14223
▁flaw	-14224
▁jung	-14225
▁khoe	-14226
▁liêu	-14227
▁lười	-14228
▁mold	-14229
▁mông	-14230
▁nhốt	-14231
▁offe	-14232
▁orph	-14233
▁penc	-14234
▁quar	-14235
▁quầy	-14236
▁rank	-14237
▁rode	-14238
▁thối	-14239
▁toll	-14240
▁tsun	-14241
▁unve	-14242
▁đươc	-14243
aching	-14244
coming	-14245
erving	-14246
geries	-14247
ijuana	-14248
ocracy	-14249
ologic	-14250
orship	-14251
resist	-14252
velope	-14253
▁Agnes	-14254
▁Libya	-14255
▁Party	-14256
▁Scoop	-14257
▁arise	-14258
▁arter	-14259
▁balls	-14260
▁choir	-14261
▁creep	-14262
▁drops	-14263
▁drunk	-14264
▁embry	-14265
▁expon	-14266
▁gross	-14267
▁index	-14268
▁lingu	-14269
▁loses	-14270
▁naive	-14271
▁parag	-14272
▁patch	-14273
▁piles	-14274
▁salad	-14275
▁seats	-14276
▁shops	-14277
▁sương	-14278
▁taxes	-14279
▁tiles	-14280
▁usage	-14281
atories	-14282
itution	-14283
perform	-14284
▁80,000	-14285
▁Except	-14286
▁Monday	-14287
▁Notice	-14288
▁argued	-14289
▁binary	-14290
▁bypass	-14291
▁casual	-14292
▁cracks	-14293
▁curves	-14294
▁erotic	-14295
▁estate	-14296
▁exotic	-14297
▁exquis	-14298
▁golden	-14299
▁guitar	-14300
▁hugely	-14301
▁intang	-14302
▁intric	-14303
▁lifted	-14304
▁marrow	-14305
▁mixing	-14306
▁multin	-14307
▁murder	-14308
▁mutual	-14309
▁parach	-14310
▁pestic	-14311
▁purple	-14312
▁regist	-14313
▁sovere	-14314
▁temple	-14315
▁traces	-14316
▁virtue	-14317
▁voters	-14318
function	-14319
olumines	-14320
▁Council	-14321
▁Freeman	-14322
▁Hungary	-14323
▁Mahatma	-14324
▁Netflix	-14325
▁Walmart	-14326
▁anxious	-14327
▁closest	-14328
▁cousins	-14329
▁decides	-14330
▁default	-14331
▁enlight	-14332
▁exagger	-14333
▁farming	-14334
▁inhabit	-14335
▁luckily	-14336
▁mastery	-14337
▁melting	-14338
▁posters	-14339
▁primate	-14340
▁proceed	-14341
▁reforms	-14342
▁relates	-14343
▁romance	-14344
▁screens	-14345
▁swallow	-14346
▁torture	-14347
▁transit	-14348
▁trusted	-14349
▁undergo	-14350
▁welfare	-14351
achusetts	-14352
ographics	-14353
sociation	-14354
▁Building	-14355
▁Security	-14356
▁acquired	-14357
▁cleaning	-14358
▁enjoying	-14359
▁envelope	-14360
▁geometry	-14361
▁hopeless	-14362
▁interior	-14363
▁minority	-14364
▁miracles	-14365
▁mustache	-14366
▁releases	-14367
▁remotely	-14368
▁selected	-14369
▁sexually	-14370
▁sidewalk	-14371
▁terribly	-14372
▁thinkers	-14373
▁veterans	-14374
▁weakness	-14375
controlled	-14376
ifications	-14377
▁According	-14378
▁Charlotte	-14379
▁Stockholm	-14380
▁ambulance	-14381
▁negotiate	-14382
▁pheromone	-14383
▁platforms	-14384
▁portraits	-14385
▁processed	-14386
▁reasoning	-14387
▁recycling	-14388
▁shoulders	-14389
▁staircase	-14390
▁undergrad	-14391
▁unpredict	-14392
▁visualize	-14393
▁Transition	-14394
▁documented	-14395
▁frightened	-14396
▁inevitably	-14397
▁infectious	-14398
▁millimeter	-14399
▁preventing	-14400
▁terrorists	-14401
▁contributed	-14402
▁controversy	-14403
▁integration	-14404
▁stimulation	-14405
▁concentrated	-14406
▁connectivity	-14407
▁multinational	-14408
▁administration	-14409
,2	-14410
.2	-14411
Ar	-14412
NG	-14413
OS	-14414
bi	-14415
ji	-14416
km	-14417
ụn	-14418
▁)	-14419
▁ả	-14420
apm	-14421
aro	-14422
awn	-14423
bot	-14424
cam	-14425
ddy	-14426
dog	-14427
elf	-14428
fur	-14429
hio	-14430
opp	-14431
ovo	-14432
rat	-14433
rig	-14434
roç	-14435
run	-14436
▁89	-14437
▁91	-14438
▁JR	-14439
▁KB	-14440
▁NO	-14441
▁TD	-14442
▁ao	-14443
▁tạ	-14444
▁xẻ	-14445
▁ớt	-14446
alie	-14447
amil	-14448
anas	-14449
ashy	-14450
atan	-14451
city	-14452
eaks	-14453
five	-14454
iflu	-14455
ilot	-14456
inas	-14457
mass	-14458
oker	-14459
owan	-14460
page	-14461
play	-14462
rant	-14463
rays	-14464
roch	-14465
seus	-14466
velt	-14467
▁188	-14468
▁Arm	-14469
▁Civ	-14470
▁Dun	-14471
▁Dựa	-14472
▁Hal	-14473
▁Jen	-14474
▁MBI	-14475
▁Meg	-14476
▁Rub	-14477
▁Tel	-14478
▁Ter	-14479
▁Thư	-14480
▁Til	-14481
▁Tấm	-14482
▁Tới	-14483
▁Viv	-14484
▁Yêu	-14485
▁báu	-14486
▁chà	-14487
▁chổ	-14488
▁cum	-14489
▁cúi	-14490
▁dạn	-14491
▁gán	-14492
▁gót	-14493
▁gầy	-14494
▁gốm	-14495
▁gục	-14496
▁lén	-14497
▁mài	-14498
▁mỉa	-14499
▁nóc	-14500
▁rùa	-14501
▁seg	-14502
▁ski	-14503
▁thy	-14504
▁von	-14505
▁Đào	-14506
▁Đặt	-14507
▁đầm	-14508
ascal	-14509
iated	-14510
idesp	-14511
ighth	-14512
ipcar	-14513
oured	-14514
piece	-14515
ubble	-14516
udice	-14517
umann	-14518
vable	-14519
▁1985	-14520
▁1991	-14521
▁Buff	-14522
▁Gapm	-14523
▁Giao	-14524
▁Gill	-14525
▁Huck	-14526
▁Lady	-14527
▁Laur	-14528
▁Lòng	-14529
▁Mard	-14530
▁Mean	-14531
▁Minh	-14532
▁Mull	-14533
▁Nhận	-14534
▁Niềm	-14535
▁Thấy	-14536
▁Tinh	-14537
▁USDA	-14538
▁bore	-14539
▁eats	-14540
▁ency	-14541
▁jack	-14542
▁kiếp	-14543
▁lump	-14544
▁lúng	-14545
▁merg	-14546
▁nháy	-14547
▁nick	-14548
▁pond	-14549
▁pron	-14550
▁rays	-14551
▁rảnh	-14552
▁slip	-14553
▁suýt	-14554
▁toes	-14555
▁xuôi	-14556
▁đắng	-14557
ailand	-14558
ankton	-14559
bercul	-14560
everly	-14561
levant	-14562
minded	-14563
stonia	-14564
thirds	-14565
▁7,000	-14566
▁8,000	-14567
▁Const	-14568
▁DARPA	-14569
▁Elvis	-14570
▁Geoff	-14571
▁Grant	-14572
▁INCRA	-14573
▁Jamie	-14574
▁Karen	-14575
▁Lượng	-14576
▁Nhiệm	-14577
▁Osama	-14578
▁Papua	-14579
▁Point	-14580
▁Trắng	-14581
▁Wales	-14582
▁alert	-14583
▁belly	-14584
▁chase	-14585
▁chênh	-14586
▁clips	-14587
▁fails	-14588
▁feeds	-14589
▁femin	-14590
▁fence	-14591
▁fungi	-14592
▁haunt	-14593
▁hoped	-14594
▁huỳnh	-14595
▁laund	-14596
▁mater	-14597
▁meets	-14598
▁neutr	-14599
▁pants	-14600
▁peers	-14601
▁phiện	-14602
▁regul	-14603
▁rises	-14604
▁risky	-14605
▁slept	-14606
▁stamp	-14607
▁stays	-14608
eration	-14609
icillin	-14610
inating	-14611
ocative	-14612
umbling	-14613
version	-14614
▁Baxter	-14615
▁Bonnet	-14616
▁Canyon	-14617
▁Friend	-14618
▁Garden	-14619
▁Gordon	-14620
▁Inside	-14621
▁Nether	-14622
▁Office	-14623
▁Pascal	-14624
▁System	-14625
▁Tricer	-14626
▁acoust	-14627
▁behalf	-14628
▁brutal	-14629
▁cathed	-14630
▁defeat	-14631
▁depart	-14632
▁famine	-14633
▁folded	-14634
▁grades	-14635
▁orgasm	-14636
▁perpet	-14637
▁refuse	-14638
▁scarce	-14639
▁server	-14640
▁stigma	-14641
▁storms	-14642
▁submit	-14643
vascular	-14644
▁Bahamas	-14645
▁Beverly	-14646
▁Heather	-14647
▁Indiana	-14648
▁Natural	-14649
▁Tamiflu	-14650
▁blowing	-14651
▁browser	-14652
▁clarity	-14653
▁creator	-14654
▁dismiss	-14655
▁dreamed	-14656
▁earning	-14657
▁eastern	-14658
▁ecology	-14659
▁endless	-14660
▁harmony	-14661
▁impress	-14662
▁landing	-14663
▁leopard	-14664
▁optical	-14665
▁passage	-14666
▁peoples	-14667
▁pouring	-14668
▁recruit	-14669
▁shining	-14670
▁warrior	-14671
▁winners	-14672
idespread	-14673
wandering	-14674
▁Guardian	-14675
▁Odysseus	-14676
▁Robinson	-14677
▁Thailand	-14678
▁analyzed	-14679
▁assemble	-14680
▁blogging	-14681
▁bureaucr	-14682
▁catching	-14683
▁contempl	-14684
▁deployed	-14685
▁deserves	-14686
▁detected	-14687
▁dropping	-14688
▁explored	-14689
▁headline	-14690
▁innovate	-14691
▁parasite	-14692
▁priority	-14693
▁publicly	-14694
▁synchron	-14695
▁targeted	-14696
berculosis	-14697
▁Economist	-14698
▁Gapminder	-14699
▁Himalayas	-14700
▁alongside	-14701
▁cigarette	-14702
▁compounds	-14703
▁delicious	-14704
▁distances	-14705
▁intensity	-14706
▁neocortex	-14707
▁observing	-14708
▁relatives	-14709
▁residents	-14710
▁sensation	-14711
▁surgeries	-14712
▁textbooks	-14713
▁Democratic	-14714
▁accounting	-14715
▁adaptation	-14716
▁anesthesia	-14717
▁antibodies	-14718
▁biolumines	-14719
▁conscience	-14720
▁initiative	-14721
▁opposition	-14722
▁penicillin	-14723
▁projection	-14724
▁sufficient	-14725
▁suspicious	-14726
▁Netherlands	-14727
▁Triceratops	-14728
▁adolescence	-14729
▁expectation	-14730
▁revolutions	-14731
▁demonstrated	-14732
▁introduction	-14733
▁nevertheless	-14734
▁philanthropy	-14735
▁presidential	-14736
▁satisfaction	-14737
▁experimenting	-14738
▁visualization	-14739
,1	-14740
.6	-14741
eu	-14742
êc	-14743
Man	-14744
aki	-14745
bet	-14746
chi	-14747
hot	-14748
hou	-14749
jan	-14750
mes	-14751
oes	-14752
pur	-14753
vít	-14754
yth	-14755
ươm	-14756
▁Bí	-14757
▁Bồ	-14758
▁JK	-14759
▁MM	-14760
▁PA	-14761
▁Tỉ	-14762
▁bệ	-14763
▁sộ	-14764
▁xì	-14765
▁xổ	-14766
arak	-14767
bees	-14768
bian	-14769
drop	-14770
erey	-14771
fare	-14772
held	-14773
ibri	-14774
intu	-14775
offs	-14776
oric	-14777
orse	-14778
phal	-14779
plic	-14780
pson	-14781
▁1.4	-14782
▁Att	-14783
▁Dur	-14784
▁EEG	-14785
▁Guy	-14786
▁Hẳn	-14787
▁Kin	-14788
▁LHC	-14789
▁Mub	-14790
▁Mức	-14791
▁Nov	-14792
▁Pur	-14793
▁Spl	-14794
▁Tra	-14795
▁bén	-14796
▁caf	-14797
▁cav	-14798
▁chk	-14799
▁côi	-14800
▁căm	-14801
▁cửu	-14802
▁esc	-14803
▁hức	-14804
▁los	-14805
▁lãi	-14806
▁mit	-14807
▁mud	-14808
▁mỉm	-14809
▁oxi	-14810
▁rod	-14811
▁sấu	-14812
▁thỉ	-14813
▁tut	-14814
▁tỉa	-14815
▁tởm	-14816
▁vag	-14817
▁xào	-14818
▁ươi	-14819
cises	-14820
icket	-14821
ifies	-14822
month	-14823
omagn	-14824
ranny	-14825
▁1940	-14826
▁1957	-14827
▁Anne	-14828
▁Berg	-14829
▁Biểu	-14830
▁Cass	-14831
▁Data	-14832
▁Diam	-14833
▁Diff	-14834
▁Fair	-14835
▁Fund	-14836
▁Hiển	-14837
▁IKEA	-14838
▁Jere	-14839
▁Jess	-14840
▁Judy	-14841
▁Khối	-14842
▁Pass	-14843
▁Pier	-14844
▁Real	-14845
▁Redd	-14846
▁Sadd	-14847
▁Siêu	-14848
▁Troy	-14849
▁Wide	-14850
▁Xanh	-14851
▁bulb	-14852
▁chéo	-14853
▁chảo	-14854
▁conj	-14855
▁cups	-14856
▁dome	-14857
▁fans	-14858
▁giầy	-14859
▁glow	-14860
▁hook	-14861
▁lips	-14862
▁mixt	-14863
▁ngâm	-14864
▁quấn	-14865
▁spat	-14866
▁thản	-14867
▁tide	-14868
▁vice	-14869
▁west	-14870
▁worm	-14871
▁yoga	-14872
▁điểu	-14873
▁đười	-14874
alysis	-14875
iances	-14876
inable	-14877
inging	-14878
ortune	-14879
ourced	-14880
shaped	-14881
uation	-14882
ynthia	-14883
▁Bloom	-14884
▁Casey	-14885
▁Civil	-14886
▁Hirsh	-14887
▁Lanka	-14888
▁Naomi	-14889
▁Stein	-14890
▁alarm	-14891
▁alike	-14892
▁anecd	-14893
▁breed	-14894
▁crank	-14895
▁fluct	-14896
▁halls	-14897
▁incar	-14898
▁kilos	-14899
▁myths	-14900
▁ngoặt	-14901
▁picks	-14902
▁poems	-14903
▁postc	-14904
▁radar	-14905
▁scann	-14906
▁sends	-14907
▁spong	-14908
▁trait	-14909
▁votes	-14910
alities	-14911
centure	-14912
roverts	-14913
▁Critic	-14914
▁Hitler	-14915
▁Hunter	-14916
▁Malays	-14917
▁Mellon	-14918
▁Modern	-14919
▁Viking	-14920
▁absorb	-14921
▁alumin	-14922
▁bamboo	-14923
▁bloody	-14924
▁branch	-14925
▁circul	-14926
▁copies	-14927
▁counts	-14928
▁dishes	-14929
▁excuse	-14930
▁export	-14931
▁horses	-14932
▁hypoth	-14933
▁lethal	-14934
▁mature	-14935
▁metals	-14936
▁rubber	-14937
▁salary	-14938
▁scheme	-14939
▁serves	-14940
▁slower	-14941
▁tennis	-14942
breaking	-14943
economic	-14944
ifically	-14945
▁Cynthia	-14946
▁Gabriel	-14947
▁Kingdom	-14948
▁Mubarak	-14949
▁Rockett	-14950
▁Swedish	-14951
▁Ukraine	-14952
▁Virtual	-14953
▁captain	-14954
▁charges	-14955
▁chemist	-14956
▁compute	-14957
▁filling	-14958
▁grammar	-14959
▁heating	-14960
▁heavily	-14961
▁iceberg	-14962
▁kidding	-14963
▁lesbian	-14964
▁mankind	-14965
▁matched	-14966
▁neglect	-14967
▁pleased	-14968
▁premise	-14969
▁puberty	-14970
▁refused	-14971
▁shaping	-14972
▁syringe	-14973
▁utterly	-14974
ationally	-14975
izational	-14976
▁Canadian	-14977
▁Marshall	-14978
▁Monterey	-14979
▁Probably	-14980
▁abundant	-14981
▁announce	-14982
▁assuming	-14983
▁contamin	-14984
▁decrease	-14985
▁disagree	-14986
▁displays	-14987
▁envision	-14988
▁estrogen	-14989
▁intimacy	-14990
▁intimate	-14991
▁inventor	-14992
▁operates	-14993
▁patience	-14994
▁revenues	-14995
▁sacrific	-14996
▁sections	-14997
▁stressed	-14998
▁Accenture	-14999
▁Caribbean	-15000
▁Democracy	-15001
▁charities	-15002
▁consensus	-15003
▁dictators	-15004
▁emergence	-15005
▁expressed	-15006
▁generates	-15007
▁geography	-15008
▁imagining	-15009
▁machinery	-15010
▁microblog	-15011
▁psychiatr	-15012
▁stressful	-15013
▁territory	-15014
▁witnessed	-15015
▁accelerate	-15016
▁anticipate	-15017
▁approached	-15018
▁attributes	-15019
▁celebrated	-15020
▁developers	-15021
▁discussing	-15022
▁disruptive	-15023
▁networking	-15024
▁priorities	-15025
▁subjective	-15026
▁widespread	-15027
▁Information	-15028
▁calculating	-15029
▁distinction	-15030
▁implemented	-15031
▁statistical	-15032
▁transported	-15033
▁continuously	-15034
▁demonstrates	-15035
▁improvements	-15036
▁philosophers	-15037
▁tuberculosis	-15038
▁Massachusetts	-15039
▁participating	-15040
▁scientifically	-15041
IP	-15042
In	-15043
ơc	-15044
MRI	-15045
azo	-15046
bao	-15047
boy	-15048
bra	-15049
fig	-15050
mph	-15051
omy	-15052
opy	-15053
oxy	-15054
pat	-15055
umi	-15056
▁3-	-15057
▁56	-15058
▁59	-15059
▁83	-15060
▁AC	-15061
▁Ec	-15062
▁LG	-15063
▁Mở	-15064
▁Oz	-15065
▁Wr	-15066
▁cm	-15067
▁tý	-15068
▁Áo	-15069
▁Ăn	-15070
▁đự	-15071
abel	-15072
bled	-15073
bone	-15074
burn	-15075
char	-15076
eard	-15077
esty	-15078
ickr	-15079
inch	-15080
iser	-15081
isol	-15082
omed	-15083
pera	-15084
raph	-15085
tông	-15086
ufus	-15087
verb	-15088
zone	-15089
▁101	-15090
▁401	-15091
▁750	-15092
▁Ath	-15093
▁BBC	-15094
▁Chi	-15095
▁IMF	-15096
▁Jup	-15097
▁Kap	-15098
▁Kas	-15099
▁Khó	-15100
▁Mob	-15101
▁Mắt	-15102
▁Pav	-15103
▁Sup	-15104
▁Too	-15105
▁Top	-15106
▁Toy	-15107
▁Vis	-15108
▁Wel	-15109
▁Zet	-15110
▁bịt	-15111
▁cob	-15112
▁cày	-15113
▁mầu	-15114
▁mộc	-15115
▁ngự	-15116
▁pit	-15117
▁pix	-15118
▁rac	-15119
▁reb	-15120
▁rậm	-15121
▁sáp	-15122
▁tòi	-15123
▁unw	-15124
▁vầy	-15125
▁xoa	-15126
▁xáo	-15127
▁xót	-15128
▁xịt	-15129
▁ăng	-15130
▁Đài	-15131
▁Đời	-15132
▁đỗi	-15133
asive	-15134
brush	-15135
eland	-15136
omics	-15137
ourse	-15138
owden	-15139
works	-15140
▁1918	-15141
▁1965	-15142
▁1973	-15143
▁1979	-15144
▁2015	-15145
▁5000	-15146
▁Bare	-15147
▁Barn	-15148
▁Carr	-15149
▁Code	-15150
▁Giám	-15151
▁Glad	-15152
▁Head	-15153
▁Java	-15154
▁Khác	-15155
▁Lead	-15156
▁Noah	-15157
▁Pent	-15158
▁Phys	-15159
▁Pros	-15160
▁Rain	-15161
▁Robb	-15162
▁Stat	-15163
▁Stay	-15164
▁Sống	-15165
▁Tele	-15166
▁Thầy	-15167
▁beam	-15168
▁beep	-15169
▁blew	-15170
▁bướu	-15171
▁chóp	-15172
▁cúng	-15173
▁cưng	-15174
▁deck	-15175
▁eBay	-15176
▁folk	-15177
▁giục	-15178
▁impl	-15179
▁mant	-15180
▁mánh	-15181
▁nguỵ	-15182
▁nham	-15183
▁pean	-15184
▁perf	-15185
▁pops	-15186
▁quấy	-15187
▁reck	-15188
▁reun	-15189
▁rãnh	-15190
▁rồng	-15191
▁shoe	-15192
▁điếc	-15193
boards	-15194
enberg	-15195
oshima	-15196
sburgh	-15197
▁Actor	-15198
▁Danny	-15199
▁Death	-15200
▁Ellen	-15201
▁Gayla	-15202
▁Hamps	-15203
▁Heart	-15204
▁Molly	-15205
▁Phill	-15206
▁Riley	-15207
▁Roose	-15208
▁Royal	-15209
▁Rufus	-15210
▁Triều	-15211
▁Truth	-15212
▁Vinci	-15213
▁catad	-15214
▁decor	-15215
▁drama	-15216
▁fetus	-15217
▁folds	-15218
▁freak	-15219
▁handy	-15220
▁lobby	-15221
▁maneu	-15222
▁merit	-15223
▁numer	-15224
▁probe	-15225
▁rigid	-15226
▁ruins	-15227
▁slope	-15228
▁trips	-15229
▁valve	-15230
▁virut	-15231
▁wives	-15232
frontal	-15233
massive	-15234
quality	-15235
ressing	-15236
▁Bilbao	-15237
▁Empire	-15238
▁Evelyn	-15239
▁Flickr	-15240
▁Illino	-15241
▁Kenyan	-15242
▁Korean	-15243
▁Kosovo	-15244
▁Nicole	-15245
▁Others	-15246
▁Sergey	-15247
▁Toyota	-15248
▁addict	-15249
▁banned	-15250
▁beside	-15251
▁cerebr	-15252
▁chimps	-15253
▁clitor	-15254
▁cockro	-15255
▁coding	-15256
▁diving	-15257
▁elabor	-15258
▁equity	-15259
▁evapor	-15260
▁fibers	-15261
▁filmed	-15262
▁guards	-15263
▁injust	-15264
▁ladder	-15265
▁losses	-15266
▁oyster	-15267
▁pencil	-15268
▁penetr	-15269
▁presum	-15270
▁proved	-15271
▁retrof	-15272
▁steady	-15273
▁strand	-15274
▁tastes	-15275
▁timing	-15276
▁trauma	-15277
assembly	-15278
conflict	-15279
lessness	-15280
▁100.000	-15281
▁400,000	-15282
▁Brother	-15283
▁History	-15284
▁Indians	-15285
▁Jupiter	-15286
▁Machine	-15287
▁Picasso	-15288
▁anatomy	-15289
▁antenna	-15290
▁ashamed	-15291
▁buttons	-15292
▁cardiac	-15293
▁chamber	-15294
▁chronic	-15295
▁cocaine	-15296
▁digging	-15297
▁divorce	-15298
▁exploit	-15299
▁goodbye	-15300
▁greatly	-15301
▁matches	-15302
▁novelty	-15303
▁nucleus	-15304
▁princip	-15305
▁returns	-15306
▁shelves	-15307
▁strikes	-15308
▁tickets	-15309
▁tsunami	-15310
▁western	-15311
▁wonders	-15312
conscious	-15313
forcement	-15314
▁Buddhist	-15315
▁Friedman	-15316
▁Hospital	-15317
▁Interest	-15318
▁Malaysia	-15319
▁Medicine	-15320
▁adaptive	-15321
▁advocate	-15322
▁asteroid	-15323
▁checking	-15324
▁cortisol	-15325
▁expanded	-15326
▁fairness	-15327
▁gestures	-15328
▁informal	-15329
▁minerals	-15330
▁misunder	-15331
▁motivate	-15332
▁multiply	-15333
▁notebook	-15334
▁operated	-15335
▁promised	-15336
▁protocol	-15337
▁regional	-15338
▁revealed	-15339
▁stealing	-15340
▁thorough	-15341
▁tropical	-15342
▁youngest	-15343
▁Education	-15344
▁Hampshire	-15345
▁Hiroshima	-15346
▁Meanwhile	-15347
▁Roosevelt	-15348
▁Similarly	-15349
▁Therefore	-15350
▁achieving	-15351
▁champions	-15352
▁countless	-15353
▁discussed	-15354
▁educating	-15355
▁epidemics	-15356
▁exercises	-15357
▁integrity	-15358
▁nightmare	-15359
▁parachute	-15360
▁precision	-15361
▁processor	-15362
▁renewable	-15363
▁screaming	-15364
▁screening	-15365
▁secondary	-15366
▁strengths	-15367
▁Pittsburgh	-15368
▁acceptance	-15369
▁addressing	-15370
▁beneficial	-15371
▁conceptual	-15372
▁contagious	-15373
▁continents	-15374
▁critically	-15375
▁describing	-15376
▁employment	-15377
▁enterprise	-15378
▁horizontal	-15379
▁reflective	-15380
▁spacecraft	-15381
▁Association	-15382
▁Development	-15383
▁Fortunately	-15384
▁cooperative	-15385
▁electromagn	-15386
▁existential	-15387
▁functioning	-15388
[...]
